{
  "version": "1.0",
  "truncation": null,
  "padding": null,
  "added_tokens": [
    {
      "id": 0,
      "content": "[UNK]",
      "single_word": false,
      "lstrip": false,
      "rstrip": false,
      "normalized": false,
      "special": true
    },
    {
      "id": 1,
      "content": "[CLS]",
      "single_word": false,
      "lstrip": false,
      "rstrip": false,
      "normalized": false,
      "special": true
    },
    {
      "id": 2,
      "content": "[SEP]",
      "single_word": false,
      "lstrip": false,
      "rstrip": false,
      "normalized": false,
      "special": true
    },
    {
      "id": 3,
      "content": "[PAD]",
      "single_word": false,
      "lstrip": false,
      "rstrip": false,
      "normalized": false,
      "special": true
    },
    {
      "id": 4,
      "content": "[MASK]",
      "single_word": false,
      "lstrip": false,
      "rstrip": false,
      "normalized": false,
      "special": true
    }
  ],
  "normalizer": null,
  "pre_tokenizer": {
    "type": "Whitespace"
  },
  "post_processor": null,
  "decoder": null,
  "model": {
    "type": "BPE",
    "dropout": null,
    "unk_token": null,
    "continuing_subword_prefix": null,
    "end_of_word_suffix": null,
    "fuse_unk": false,
    "byte_fallback": false,
    "vocab": {
      "[UNK]": 0,
      "[CLS]": 1,
      "[SEP]": 2,
      "[PAD]": 3,
      "[MASK]": 4,
      "!": 5,
      "\"": 6,
      "#": 7,
      "$": 8,
      "%": 9,
      "&": 10,
      "(": 11,
      ")": 12,
      "*": 13,
      "+": 14,
      "-": 15,
      "0": 16,
      "1": 17,
      "2": 18,
      "3": 19,
      "4": 20,
      "5": 21,
      "6": 22,
      "7": 23,
      "8": 24,
      "9": 25,
      ":": 26,
      ";": 27,
      "=": 28,
      "?": 29,
      "@": 30,
      "A": 31,
      "B": 32,
      "C": 33,
      "D": 34,
      "E": 35,
      "F": 36,
      "G": 37,
      "H": 38,
      "I": 39,
      "J": 40,
      "K": 41,
      "L": 42,
      "M": 43,
      "N": 44,
      "O": 45,
      "P": 46,
      "Q": 47,
      "R": 48,
      "S": 49,
      "T": 50,
      "U": 51,
      "V": 52,
      "W": 53,
      "X": 54,
      "Y": 55,
      "Z": 56,
      "[": 57,
      "\\": 58,
      "]": 59,
      "_": 60,
      "`": 61,
      "a": 62,
      "b": 63,
      "c": 64,
      "d": 65,
      "e": 66,
      "f": 67,
      "g": 68,
      "h": 69,
      "i": 70,
      "j": 71,
      "k": 72,
      "l": 73,
      "m": 74,
      "n": 75,
      "o": 76,
      "p": 77,
      "q": 78,
      "r": 79,
      "s": 80,
      "t": 81,
      "u": 82,
      "v": 83,
      "w": 84,
      "x": 85,
      "y": 86,
      "z": 87,
      "{": 88,
      "|": 89,
      "}": 90,
      "~": 91,
      "": 92,
      "½": 93,
      "¿": 94,
      "ï": 95,
      "册": 96,
      "注": 97,
      "�": 98,
      "co": 99,
      "com": 100,
      "ip": 101,
      "fs": 102,
      "ipfs": 103,
      "de": 104,
      "re": 105,
      "se": 106,
      "in": 107,
      "ba": 108,
      "eb": 109,
      "lo": 110,
      "te": 111,
      "am": 112,
      "al": 113,
      "be": 114,
      "or": 115,
      "on": 116,
      "ar": 117,
      "00": 118,
      "si": 119,
      "ag": 120,
      "baf": 121,
      "ht": 122,
      "st": 123,
      "le": 124,
      "la": 125,
      "dev": 126,
      "nt": 127,
      "amp": 128,
      "er": 129,
      "at": 130,
      "ap": 131,
      "ub": 132,
      "et": 133,
      "ml": 134,
      "ybe": 135,
      "ybei": 136,
      "bafybei": 137,
      "do": 138,
      "op": 139,
      "html": 140,
      "site": 141,
      "web": 142,
      "oo": 143,
      "pub": 144,
      "fal": 145,
      "ly": 146,
      "ma": 147,
      "app": 148,
      "false": 149,
      "we": 150,
      "age": 151,
      "cf": 152,
      "fi": 153,
      "sp": 154,
      "ud": 155,
      "goo": 156,
      "gle": 157,
      "il": 158,
      "wor": 159,
      "ac": 160,
      "google": 161,
      "ion": 162,
      "10": 163,
      "page": 164,
      "work": 165,
      "ms": 166,
      "weeb": 167,
      "weebly": 168,
      "pre": 169,
      "ic": 170,
      "ww": 171,
      "id": 172,
      "cs": 173,
      "me": 174,
      "io": 175,
      "ur": 176,
      "clo": 177,
      "ation": 178,
      "cloud": 179,
      "art": 180,
      "an": 181,
      "net": 182,
      "000": 183,
      "r2": 184,
      "start": 185,
      "mail": 186,
      "fla": 187,
      "1v": 188,
      "li": 189,
      "weeblysite": 190,
      "CX": 191,
      "flare": 192,
      "cloudflare": 193,
      "docs": 194,
      "PA": 195,
      "ss": 196,
      "lay": 197,
      "ew": 198,
      "sent": 199,
      "sentation": 200,
      "2PA": 201,
      "presentation": 202,
      "2PACX": 203,
      "loop": 204,
      "delay": 205,
      "delayms": 206,
      "us": 207,
      "3000": 208,
      "it": 209,
      "ro": 210,
      "pages": 211,
      "ch": 212,
      "ad": 213,
      "my": 214,
      "ce": 215,
      "ve": 216,
      "20": 217,
      "ut": 218,
      "up": 219,
      "hp": 220,
      "Qm": 221,
      "ue": 222,
      "ers": 223,
      "ho": 224,
      "23": 225,
      "43": 226,
      "as": 227,
      "en": 228,
      "base": 229,
      "eth": 230,
      "wi": 231,
      "45": 232,
      "network": 233,
      "ex": 234,
      "tr": 235,
      "fire": 236,
      "lin": 237,
      "arag": 238,
      "aragon": 239,
      "log": 240,
      "workers": 241,
      "vi": 242,
      "firebase": 243,
      "firebaseapp": 244,
      "top": 245,
      "sh": 246,
      "ps": 247,
      "un": 248,
      "ck": 249,
      "65": 250,
      "kre": 251,
      "po": 252,
      "24": 253,
      "dex": 254,
      "bafkre": 255,
      "ol": 256,
      "php": 257,
      "da": 258,
      "25": 259,
      "67": 260,
      "www": 261,
      "index": 262,
      "ca": 263,
      "ra": 264,
      "if": 265,
      "gn": 266,
      "is": 267,
      "11": 268,
      "he": 269,
      "34": 270,
      "64": 271,
      "ser": 272,
      "ct": 273,
      "usp": 274,
      "ot": 275,
      "27": 276,
      "df": 277,
      "2F": 278,
      "cu": 279,
      "du": 280,
      "96": 281,
      "wa": 282,
      "fe": 283,
      "98": 284,
      "35": 285,
      "di": 286,
      "low": 287,
      "37": 288,
      "cl": 289,
      "ft": 290,
      "44": 291,
      "cb": 292,
      "18": 293,
      "new": 294,
      "17": 295,
      "att": 296,
      "15": 297,
      "gd": 298,
      "ice": 299,
      "ab": 300,
      "29": 301,
      "fr": 302,
      "ing": 303,
      "47": 304,
      "no": 305,
      "26": 306,
      "wp": 307,
      "ver": 308,
      "dn": 309,
      "cn": 310,
      "go": 311,
      "link": 312,
      "ri": 313,
      "ae": 314,
      "url": 315,
      "mo": 316,
      "htt": 317,
      "ff": 318,
      "57": 319,
      "48": 320,
      "so": 321,
      "AA": 322,
      "ge": 323,
      "bt": 324,
      "ne": 325,
      "28": 326,
      "19": 327,
      "55": 328,
      "cc": 329,
      "fb": 330,
      "https": 331,
      "ke": 332,
      "bafkrei": 333,
      "33": 334,
      "pl": 335,
      "ry": 336,
      "aa": 337,
      "46": 338,
      "login": 339,
      "kv": 340,
      "qu": 341,
      "ado": 342,
      "bb": 343,
      "unt": 344,
      "56": 345,
      "ort": 346,
      "Web": 347,
      "c3": 348,
      "22": 349,
      "to": 350,
      "13": 351,
      "ter": 352,
      "dd": 353,
      "77": 354,
      "br": 355,
      "bo": 356,
      "dy": 357,
      "count": 358,
      "pr": 359,
      "view": 360,
      "press": 361,
      "mi": 362,
      "ay": 363,
      "b3": 364,
      "for": 365,
      "adobe": 366,
      "ed": 367,
      "c2": 368,
      "ci": 369,
      "99": 370,
      "gr": 371,
      "ti": 372,
      "cd": 373,
      "gf": 374,
      "account": 375,
      "hi": 376,
      "88": 377,
      "jp": 378,
      "36": 379,
      "c4": 380,
      "express": 381,
      "es": 382,
      "flow": 383,
      "sites": 384,
      "za": 385,
      "fo": 386,
      "xy": 387,
      "sk": 388,
      "54": 389,
      "76": 390,
      "90": 391,
      "con": 392,
      "webpage": 393,
      "bi": 394,
      "fd": 395,
      "16": 396,
      "cy": 397,
      "uk": 398,
      "hy": 399,
      "ld": 400,
      "bn": 401,
      "fy": 402,
      "gh": 403,
      "um": 404,
      "53": 405,
      "org": 406,
      "im": 407,
      "c7": 408,
      "aut": 409,
      "cz": 410,
      "tt": 411,
      "fa": 412,
      "xx": 413,
      "f7": 414,
      "cm": 415,
      "c6": 416,
      "40": 417,
      "4e": 418,
      "jk": 419,
      "sa": 420,
      "ha": 421,
      "vice": 422,
      "cr": 423,
      "sli": 424,
      "webmail": 425,
      "c5": 426,
      "vo": 427,
      "2d": 428,
      "4b": 429,
      "ee": 430,
      "2b": 431,
      "slide": 432,
      "uy": 433,
      "Webmail": 434,
      "jo": 435,
      "tin": 436,
      "66": 437,
      "ll": 438,
      "38": 439,
      "ga": 440,
      "1vQ": 441,
      "ussp": 442,
      "4d": 443,
      "21": 444,
      "rt": 445,
      "dh": 446,
      "bl": 447,
      "accounts": 448,
      "2a": 449,
      "2e": 450,
      "1vS": 451,
      "sy": 452,
      "1vR": 453,
      "pro": 454,
      "ru": 455,
      "of": 456,
      "ok": 457,
      "97": 458,
      "ng": 459,
      "nk": 460,
      "og": 461,
      "wix": 462,
      "mx": 463,
      "v3": 464,
      "f3": 465,
      "jh": 466,
      "tiny": 467,
      "f6": 468,
      "ty": 469,
      "js": 470,
      "cp": 471,
      "ie": 472,
      "je": 473,
      "vd": 474,
      "ak": 475,
      "nd": 476,
      "wixsite": 477,
      "bm": 478,
      "jy": 479,
      "tinyurl": 480,
      "1vT": 481,
      "87": 482,
      "93": 483,
      "ah": 484,
      "b6": 485,
      "wn": 486,
      "XC": 487,
      "gy": 488,
      "a7": 489,
      "mp": 490,
      "cv": 491,
      "xe": 492,
      "ze": 493,
      "ul": 494,
      "bd": 495,
      "zy": 496,
      "cI": 497,
      "94": 498,
      "f5": 499,
      "jw": 500,
      "gw": 501,
      "bafybeid": 502,
      "jd": 503,
      "post": 504,
      "jq": 505,
      "xu": 506,
      "zz": 507,
      "cw": 508,
      "gi": 509,
      "bafybeih": 510,
      "100": 511,
      "107": 512,
      "sd": 513,
      "b5": 514,
      "b7": 515,
      "na": 516,
      "lp": 517,
      "ky": 518,
      "gt": 519,
      "lu": 520,
      "80": 521,
      "95": 522,
      "gv": 523,
      "are": 524,
      "qy": 525,
      "ir": 526,
      "au": 527,
      "pp": 528,
      "ack": 529,
      "home": 530,
      "j7": 531,
      "f2": 532,
      "fn": 533,
      "vx": 534,
      "stor": 535,
      "3e": 536,
      "z7": 537,
      "mm": 538,
      "spot": 539,
      "bafybeie": 540,
      "ifi": 541,
      "real": 542,
      "fol": 543,
      "os": 544,
      "by": 545,
      "dns": 546,
      "cont": 547,
      "ji": 548,
      "vn": 549,
      "zu": 550,
      "ws": 551,
      "ds": 552,
      "f4": 553,
      "pg": 554,
      "lk": 555,
      "wq": 556,
      "sign": 557,
      "storage": 558,
      "7e": 559,
      "port": 560,
      "fk": 561,
      "14": 562,
      "rm": 563,
      "wy": 564,
      "cin": 565,
      "a6": 566,
      "3B": 567,
      "j5": 568,
      "hu": 569,
      "vy": 570,
      "ame": 571,
      "xn": 572,
      "hd": 573,
      "zd": 574,
      "cq": 575,
      "ls": 576,
      "gu": 577,
      "ts": 578,
      "duck": 579,
      "zp": 580,
      "hb": 581,
      "a5": 582,
      "hr": 583,
      "duckdns": 584,
      "30": 585,
      "hk": 586,
      "32": 587,
      "3A": 588,
      "gx": 589,
      "wt": 590,
      "line": 591,
      "ja": 592,
      "v6": 593,
      "ju": 594,
      "xreal": 595,
      "xrealip": 596,
      "va": 597,
      "b2": 598,
      "cx": 599,
      "hq": 600,
      "hs": 601,
      "85": 602,
      "89": 603,
      "mn": 604,
      "12": 605,
      "86": 606,
      "bs": 607,
      "blog": 608,
      "gk": 609,
      "gs": 610,
      "ik": 611,
      "4y": 612,
      "bk": 613,
      "jn": 614,
      "true": 615,
      "dar": 616,
      "fp": 617,
      "fq": 618,
      "date": 619,
      "75": 620,
      "gp": 621,
      "usps": 622,
      "vk": 623,
      "gq": 624,
      "1d": 625,
      "mu": 626,
      "host": 627,
      "In": 628,
      "9e": 629,
      "3d": 630,
      "mt": 631,
      "hn": 632,
      "bq": 633,
      "lt": 634,
      "zk": 635,
      "z6": 636,
      "b4": 637,
      "zo": 638,
      "c0": 639,
      "GV": 640,
      "update": 641,
      "wr": 642,
      "g4": 643,
      "ZX": 644,
      "mk": 645,
      "g5": 646,
      "service": 647,
      "g3": 648,
      "blogspot": 649,
      "YW": 650,
      "6e": 651,
      "jt": 652,
      "bu": 653,
      "j4": 654,
      "wx": 655,
      "pe": 656,
      "ifkv": 657,
      "jr": 658,
      "vr": 659,
      "zx": 660,
      "wk": 661,
      "zr": 662,
      "ai": 663,
      "zq": 664,
      "wo": 665,
      "42": 666,
      "a0": 667,
      "su": 668,
      "g7": 669,
      "jx": 670,
      "aq": 671,
      "alle": 672,
      "ao": 673,
      "92": 674,
      "h6": 675,
      "nn": 676,
      "vq": 677,
      "5e": 678,
      "bx": 679,
      "84": 680,
      "ZW": 681,
      "j6": 682,
      "a4": 683,
      "yo": 684,
      "73": 685,
      "w3": 686,
      "91": 687,
      "af": 688,
      "zt": 689,
      "HR": 690,
      "CA": 691,
      "zi": 692,
      "9d": 693,
      "2x": 694,
      "a3": 695,
      "vs": 696,
      "50": 697,
      "Log": 698,
      "v7": 699,
      "ment": 700,
      "auth": 701,
      "lq": 702,
      "dario": 703,
      "webcin": 704,
      "webcindario": 705,
      "5y": 706,
      "py": 707,
      "iy": 708,
      "ko": 709,
      "nft": 710,
      "Login": 711,
      "act": 712,
      "mq": 713,
      "2q": 714,
      "g6": 715,
      "hl": 716,
      "md": 717,
      "83": 718,
      "wave": 719,
      "bf": 720,
      "2y": 721,
      "m7": 722,
      "online": 723,
      "h7": 724,
      "min": 725,
      "wd": 726,
      "120": 727,
      "m6": 728,
      "1e": 729,
      "ni": 730,
      "rd": 731,
      "form": 732,
      "h3": 733,
      "2t": 734,
      "nftstorage": 735,
      "hx": 736,
      "vt": 737,
      "webwave": 738,
      "h5": 739,
      "wu": 740,
      "4k": 741,
      "pt": 742,
      "XG": 743,
      "zn": 744,
      "v4": 745,
      "fx": 746,
      "mr": 747,
      "sr": 748,
      "pi": 749,
      "fu": 750,
      "vb": 751,
      "tel": 752,
      "2k": 753,
      "lx": 754,
      "lr": 755,
      "v5": 756,
      "ny": 757,
      "w7": 758,
      "qq": 759,
      "zs": 760,
      "63": 761,
      "main": 762,
      "z3": 763,
      "f0": 764,
      "pa": 765,
      "z4": 766,
      "ta": 767,
      "8e": 768,
      "pb": 769,
      "qr": 770,
      "gI": 771,
      "contin": 772,
      "YX": 773,
      "out": 774,
      "w4": 775,
      "j2": 776,
      "uu": 777,
      "j3": 778,
      "hub": 779,
      "ste": 780,
      "ix": 781,
      "assi": 782,
      "?&": 783,
      "pd": 784,
      "6y": 785,
      "c1": 786,
      "continue": 787,
      "68": 788,
      "74": 789,
      "m3": 790,
      "z5": 791,
      "follow": 792,
      "a2": 793,
      "b0": 794,
      "m5": 795,
      "jb": 796,
      "oe": 797,
      "git": 798,
      "hv": 799,
      "60": 800,
      "th": 801,
      "pk": 802,
      "bit": 803,
      "od": 804,
      "der": 805,
      "w5": 806,
      "g2": 807,
      "red": 808,
      "dent": 809,
      "iq": 810,
      "bafybeif": 811,
      "email": 812,
      "met": 813,
      "xd": 814,
      "gg": 815,
      "w6": 816,
      "xq": 817,
      "secu": 818,
      "01": 819,
      "rk": 820,
      "c8": 821,
      "9600": 822,
      "7d": 823,
      "passi": 824,
      "passive": 825,
      "c9": 826,
      "1209600": 827,
      "followup": 828,
      "6d": 829,
      "m4": 830,
      "jl": 831,
      "file": 832,
      "vv": 833,
      "2f": 834,
      "info": 835,
      "aW": 836,
      "ine": 837,
      "AAAA": 838,
      "gH": 839,
      "rp": 840,
      "che": 841,
      "bp": 842,
      "h4": 843,
      "forms": 844,
      "track": 845,
      "ax": 846,
      "stra": 847,
      "05": 848,
      "ig": 849,
      "one": 850,
      "ks": 851,
      "nq": 852,
      "78": 853,
      "cg": 854,
      "ou": 855,
      "wv": 856,
      "htm": 857,
      "--": 858,
      "Mj": 859,
      "Si": 860,
      "kk": 861,
      "03": 862,
      "hh": 863,
      "l5": 864,
      "ln": 865,
      "02": 866,
      "3F": 867,
      "jj": 868,
      "5d": 869,
      "kr": 870,
      "04": 871,
      "5q": 872,
      "w2": 873,
      "signin": 874,
      "ui": 875,
      "telstra": 876,
      "tent": 877,
      "6q": 878,
      "mic": 879,
      "ux": 880,
      "ity": 881,
      "blue": 882,
      "8d": 883,
      "AQ": 884,
      "zm": 885,
      "51": 886,
      "AI": 887,
      "07": 888,
      "09": 889,
      "3y": 890,
      "bh": 891,
      "jm": 892,
      "qv": 893,
      "wg": 894,
      "xyz": 895,
      "secure": 896,
      "39": 897,
      "rr": 898,
      "sn": 899,
      "z2": 900,
      "aol": 901,
      "man": 902,
      "b9": 903,
      "v2": 904,
      "81": 905,
      "squ": 906,
      "ii": 907,
      "qn": 908,
      "xt": 909,
      "3k": 910,
      "AW": 911,
      "GF": 912,
      "Ser": 913,
      "offi": 914,
      "MD": 915,
      "wm": 916,
      "cur": 917,
      "sm": 918,
      "49": 919,
      "72": 920,
      "qe": 921,
      "rn": 922,
      "dk": 923,
      "4q": 924,
      "5k": 925,
      "fh": 926,
      "des": 927,
      "pm": 928,
      "zw": 929,
      "Q7": 930,
      "eu": 931,
      "zv": 932,
      "3q": 933,
      "62": 934,
      "om": 935,
      "dr": 936,
      "ite": 937,
      "zh": 938,
      "bafybeig": 939,
      "G9": 940,
      "Vy": 941,
      "f9": 942,
      "ident": 943,
      "52": 944,
      "p6": 945,
      "fg": 946,
      "l4": 947,
      "lb": 948,
      "square": 949,
      "08": 950,
      "Service": 951,
      "ob": 952,
      "XCI": 953,
      "a8": 954,
      "f8": 955,
      "l6": 956,
      "uq": 957,
      "bafybeib": 958,
      "b8": 959,
      "dt": 960,
      "jv": 961,
      "l7": 962,
      "SB": 963,
      "sq": 964,
      "xk": 965,
      "d4": 966,
      "lv": 967,
      "ServiceLogin": 968,
      "a9": 969,
      "pq": 970,
      "walle": 971,
      "px": 972,
      "short": 973,
      "3x": 974,
      "JT": 975,
      "fm": 976,
      "oi": 977,
      "178": 978,
      "office": 979,
      "Ch": 980,
      "val": 981,
      "gen": 982,
      "myblue": 983,
      "N0": 984,
      "inter": 985,
      "server": 986,
      "mybluehost": 987,
      "CB": 988,
      "hg": 989,
      "dad": 990,
      "l2": 991,
      "ov": 992,
      "identifi": 993,
      "fre": 994,
      "ace": 995,
      "webflow": 996,
      "admin": 997,
      "5n": 998,
      "mar": 999,
      "yy": 1000,
      "3a": 1001,
      "41": 1002,
      "4u": 1003,
      "IG": 1004,
      "tw": 1005,
      "kn": 1006,
      "xi": 1007,
      "fv": 1008,
      "pu": 1009,
      "user": 1010,
      "look": 1011,
      "3D": 1012,
      "0d": 1013,
      "cj": 1014,
      "XCJ": 1015,
      "3t": 1016,
      "4n": 1017,
      "ki": 1018,
      "content": 1019,
      "3r": 1020,
      "h2": 1021,
      "bc": 1022,
      "sx": 1023,
      "ban": 1024,
      "58": 1025,
      "ox": 1026,
      "tele": 1027,
      "Dt": 1028,
      "az": 1029,
      "lit": 1030,
      "sup": 1031,
      "vm": 1032,
      "shorturl": 1033,
      "AS": 1034,
      "7t": 1035,
      "7k": 1036,
      "best": 1037,
      "hm": 1038,
      "06": 1039,
      "gm": 1040,
      "fc": 1041,
      "pn": 1042,
      "rq": 1043,
      "u6": 1044,
      "Sign": 1045,
      "HJ": 1046,
      "b1": 1047,
      "e7": 1048,
      "sz": 1049,
      "u5": 1050,
      "ow": 1051,
      "ook": 1052,
      "4t": 1053,
      "6k": 1054,
      "dsh": 1055,
      "oq": 1056,
      "ID": 1057,
      "Lm": 1058,
      "ate": 1059,
      "rx": 1060,
      "7q": 1061,
      "el": 1062,
      "rs": 1063,
      "69": 1064,
      "cli": 1065,
      "ntry": 1066,
      "fj": 1067,
      "ken": 1068,
      "identifier": 1069,
      "MT": 1070,
      "load": 1071,
      "QmQ": 1072,
      "Entry": 1073,
      "daddy": 1074,
      "6s": 1075,
      "d5": 1076,
      "godaddy": 1077,
      "2u": 1078,
      "3i": 1079,
      "XB": 1080,
      "a1": 1081,
      "pay": 1082,
      "wb": 1083,
      "godaddysites": 1084,
      "7x": 1085,
      "31": 1086,
      "7y": 1087,
      "AR": 1088,
      "T1": 1089,
      "jg": 1090,
      "wE": 1091,
      "BH": 1092,
      "bafkreic": 1093,
      "SignIn": 1094,
      "sc": 1095,
      "zf": 1096,
      "5o": 1097,
      "Name": 1098,
      "Y3": 1099,
      "code": 1100,
      "worker": 1101,
      "flowEntry": 1102,
      "flowName": 1103,
      "ku": 1104,
      "kx": 1105,
      "clid": 1106,
      "bW": 1107,
      "bv": 1108,
      "kt": 1109,
      "ph": 1110,
      "_B": 1111,
      "ick": 1112,
      "sv": 1113,
      "yt": 1114,
      "**": 1115,
      "PV": 1116,
      "rect": 1117,
      "ent": 1118,
      "s3": 1119,
      "sg": 1120,
      "kq": 1121,
      "ard": 1122,
      "bafybeia": 1123,
      "iv": 1124,
      "zj": 1125,
      "l3": 1126,
      "uh": 1127,
      "wf": 1128,
      "wh": 1129,
      "ka": 1130,
      "ify": 1131,
      "soft": 1132,
      "NT": 1133,
      "p7": 1134,
      "ye": 1135,
      "zg": 1136,
      "test": 1137,
      "domain": 1138,
      "and": 1139,
      "2Faccounts": 1140,
      "outlook": 1141,
      "0e": 1142,
      "pract": 1143,
      "4f": 1144,
      "ia": 1145,
      "ug": 1146,
      "bafkreif": 1147,
      "79": 1148,
      "world": 1149,
      "micro": 1150,
      "5b": 1151,
      "6t": 1152,
      "ec": 1153,
      "gro": 1154,
      "jf": 1155,
      "lm": 1156,
      "practice": 1157,
      "2n": 1158,
      "59": 1159,
      "LS": 1160,
      "box": 1161,
      "LF": 1162,
      "qt": 1163,
      "5f": 1164,
      "cation": 1165,
      "wl": 1166,
      "167": 1167,
      "GR": 1168,
      "bz": 1169,
      "ample": 1170,
      "Nl": 1171,
      "6x": 1172,
      "Nj": 1173,
      "iz": 1174,
      "V0": 1175,
      "cH": 1176,
      "7a": 1177,
      "acti": 1178,
      "example": 1179,
      "2p": 1180,
      "3n": 1181,
      "5t": 1182,
      "EX": 1183,
      "oy": 1184,
      "sw": 1185,
      "5u": 1186,
      "fl": 1187,
      "verifi": 1188,
      "ZD": 1189,
      "sb": 1190,
      "wz": 1191,
      "s4": 1192,
      "7n": 1193,
      "Tr": 1194,
      "yx": 1195,
      "bafkreid": 1196,
      "61": 1197,
      "bg": 1198,
      "f1": 1199,
      "mh": 1200,
      "uc": 1201,
      "ange": 1202,
      "cha": 1203,
      "nogH": 1204,
      "AWnogH": 1205,
      "NE": 1206,
      "Nz": 1207,
      "6r": 1208,
      "6v": 1209,
      "per": 1210,
      "5r": 1211,
      "71": 1212,
      "CL": 1213,
      "sf": 1214,
      "m2": 1215,
      "vz": 1216,
      "wallet": 1217,
      "5x": 1218,
      "valid": 1219,
      "2B": 1220,
      "3p": 1221,
      "WV": 1222,
      "Zm": 1223,
      "vl": 1224,
      "check": 1225,
      "ZV": 1226,
      "kh": 1227,
      "nx": 1228,
      "hot": 1229,
      "3o": 1230,
      "AK": 1231,
      "dq": 1232,
      "4r": 1233,
      "9u": 1234,
      "ns": 1235,
      "tx": 1236,
      "cess": 1237,
      "nect": 1238,
      "DQ": 1239,
      "Gx": 1240,
      "IQ": 1241,
      "Zy": 1242,
      "i7": 1243,
      "iu": 1244,
      "ance": 1245,
      "TE": 1246,
      "d7": 1247,
      "mb": 1248,
      "res": 1249,
      "365": 1250,
      "MI": 1251,
      "PP": 1252,
      "XR": 1253,
      "dp": 1254,
      "82": 1255,
      "k7": 1256,
      "microsoft": 1257,
      "NV": 1258,
      "db": 1259,
      "jz": 1260,
      "int": 1261,
      "live": 1262,
      "share": 1263,
      "gICA": 1264,
      "3f": 1265,
      "4i": 1266,
      "Bm": 1267,
      "Z2": 1268,
      "hf": 1269,
      "AM": 1270,
      "Wx": 1271,
      "gb": 1272,
      "nu": 1273,
      "token": 1274,
      "ey": 1275,
      "kl": 1276,
      "nm": 1277,
      "internet": 1278,
      "5z": 1279,
      "CH": 1280,
      "GU": 1281,
      "wT": 1282,
      "PS": 1283,
      "nr": 1284,
      "p2": 1285,
      "s5": 1286,
      "icio": 1287,
      "github": 1288,
      "Eg": 1289,
      "FB": 1290,
      "WN": 1291,
      "gl": 1292,
      "bank": 1293,
      "und": 1294,
      "cpr": 1295,
      "o4": 1296,
      "vh": 1297,
      "yq": 1298,
      "cos": 1299,
      "dat": 1300,
      "m_": 1301,
      "wj": 1302,
      "3E": 1303,
      "3c": 1304,
      "7u": 1305,
      "SW": 1306,
      "o6": 1307,
      "apid": 1308,
      "case": 1309,
      "hel": 1310,
      "MjQ7": 1311,
      "AQMjQ7": 1312,
      "NU": 1313,
      "dx": 1314,
      "s2": 1315,
      "OD": 1316,
      "kd": 1317,
      "vu": 1318,
      "3b": 1319,
      "fin": 1320,
      "zb": 1321,
      "Ny": 1322,
      "NS": 1323,
      "ZG": 1324,
      "k5": 1325,
      "o7": 1326,
      "p4": 1327,
      "tu": 1328,
      "ale": 1329,
      "connect": 1330,
      "3U": 1331,
      "FT": 1332,
      "gz": 1333,
      "AD": 1334,
      "XM": 1335,
      "d6": 1336,
      "qx": 1337,
      "tracking": 1338,
      "free": 1339,
      "IH": 1340,
      "BL": 1341,
      "GJ": 1342,
      "yah": 1343,
      "help": 1344,
      "0a": 1345,
      "1000": 1346,
      "BQ": 1347,
      "FU": 1348,
      "YU": 1349,
      "d1": 1350,
      "i6": 1351,
      "ber": 1352,
      "2023": 1353,
      "C9": 1354,
      "glit": 1355,
      "ib": 1356,
      "np": 1357,
      "urce": 1358,
      "rf": 1359,
      "vf": 1360,
      "zl": 1361,
      "PR": 1362,
      "ZT": 1363,
      "dl": 1364,
      "o2": 1365,
      "p3": 1366,
      "sj": 1367,
      "8f": 1368,
      "KS": 1369,
      "Lite": 1370,
      "ZS": 1371,
      "d2": 1372,
      "d9": 1373,
      "e5": 1374,
      "i5": 1375,
      "pdf": 1376,
      "s7": 1377,
      "ua": 1378,
      "WebLite": 1379,
      "WebLiteSignIn": 1380,
      "4a": 1381,
      "Ft": 1382,
      "PW": 1383,
      "US": 1384,
      "gj": 1385,
      "pv": 1386,
      "r7": 1387,
      "4x": 1388,
      "Y29": 1389,
      "k6": 1390,
      "q7": 1391,
      "cor": 1392,
      "inc": 1393,
      "109": 1394,
      "medi": 1395,
      "1b": 1396,
      "swi": 1397,
      "rive": 1398,
      "folio": 1399,
      "cprapid": 1400,
      "4m": 1401,
      "70": 1402,
      "CJ": 1403,
      "mon": 1404,
      "vc": 1405,
      "side": 1406,
      "PB": 1407,
      "d3": 1408,
      "s6": 1409,
      "LT": 1410,
      "YS": 1411,
      "nc": 1412,
      "use": 1413,
      "portfolio": 1414,
      "EJ": 1415,
      "ND": 1416,
      "U3": 1417,
      "k3": 1418,
      "qm": 1419,
      "103": 1420,
      "way": 1421,
      "sky": 1422,
      "ep": 1423,
      "uv": 1424,
      "meta": 1425,
      "AB": 1426,
      "RS": 1427,
      "WF": 1428,
      "bra": 1429,
      "click": 1430,
      "3m": 1431,
      "9f": 1432,
      "SI": 1433,
      "XV": 1434,
      "ea": 1435,
      "kp": 1436,
      "1F": 1437,
      "XJ": 1438,
      "lz": 1439,
      "glitch": 1440,
      "4g": 1441,
      "bil": 1442,
      "d0": 1443,
      "hj": 1444,
      "hz": 1445,
      "pz": 1446,
      "sl": 1447,
      "QmV": 1448,
      "2w": 1449,
      "3v": 1450,
      "Cx": 1451,
      "HT": 1452,
      "MS": 1453,
      "RT": 1454,
      "WU": 1455,
      "em": 1456,
      "iB": 1457,
      "the": 1458,
      "u7": 1459,
      "docu": 1460,
      "AL": 1461,
      "HV": 1462,
      "lw": 1463,
      "mai": 1464,
      "fix": 1465,
      "source": 1466,
      "FG": 1467,
      "FR": 1468,
      "L3": 1469,
      "UE": 1470,
      "dweb": 1471,
      "pw": 1472,
      "firm": 1473,
      "108": 1474,
      "clu": 1475,
      "FE": 1476,
      "MQ": 1477,
      "ek": 1478,
      "gP": 1479,
      "gclid": 1480,
      "hw": 1481,
      "n7": 1482,
      "oJ": 1483,
      "q6": 1484,
      "qk": 1485,
      "x6": 1486,
      "9b": 1487,
      "L2": 1488,
      "WJ": 1489,
      "q4": 1490,
      "QmS": 1491,
      "hubside": 1492,
      "fw": 1493,
      "i2": 1494,
      "oz": 1495,
      "q5": 1496,
      "serv": 1497,
      "support": 1498,
      "hello": 1499,
      "3u": 1500,
      "e6": 1501,
      "owa": 1502,
      "pQ": 1503,
      "qi": 1504,
      "spon": 1505,
      "sso": 1506,
      "plus": 1507,
      "IV": 1508,
      "OT": 1509,
      "UQ": 1510,
      "aj": 1511,
      "dc": 1512,
      "tv": 1513,
      "zc": 1514,
      "client": 1515,
      "NG": 1516,
      "myq": 1517,
      "myportfolio": 1518,
      "DH": 1519,
      "KC": 1520,
      "OQ": 1521,
      "YA": 1522,
      "iA": 1523,
      "ij": 1524,
      "apps": 1525,
      "yahoo": 1526,
      "__": 1527,
      "aw": 1528,
      "iw": 1529,
      "n5": 1530,
      "2r": 1531,
      "ER": 1532,
      "QmT": 1533,
      "very": 1534,
      "1l": 1535,
      "2m": 1536,
      "8a": 1537,
      "PD": 1538,
      "Ym": 1539,
      "get": 1540,
      "vp": 1541,
      "ins": 1542,
      "LE": 1543,
      "LK": 1544,
      "XU": 1545,
      "Yy": 1546,
      "dm": 1547,
      "lic": 1548,
      "106": 1549,
      "direct": 1550,
      "1a": 1551,
      "4p": 1552,
      "4w": 1553,
      "Fx": 1554,
      "HM": 1555,
      "NB": 1556,
      "cU": 1557,
      "105": 1558,
      "myqcloud": 1559,
      "7b": 1560,
      "HQ": 1561,
      "WE": 1562,
      "ZC": 1563,
      "qp": 1564,
      "yn": 1565,
      "gener": 1566,
      "1f": 1567,
      "Ly": 1568,
      "MV": 1569,
      "ST": 1570,
      "ZJ": 1571,
      "cre": 1572,
      "scr": 1573,
      "vD": 1574,
      "orange": 1575,
      "UB": 1576,
      "dz": 1577,
      "e0": 1578,
      "e4": 1579,
      "ted": 1580,
      "Aw": 1581,
      "Jy": 1582,
      "YT": 1583,
      "_Q": 1584,
      "gra": 1585,
      "jun": 1586,
      "pj": 1587,
      "rh": 1588,
      "xz": 1589,
      "respon": 1590,
      "232": 1591,
      "ction": 1592,
      "156": 1593,
      "FV": 1594,
      "d8": 1595,
      "ih": 1596,
      "uz": 1597,
      "vw": 1598,
      "xr": 1599,
      "ash": 1600,
      "198": 1601,
      "HB": 1602,
      "My": 1603,
      "PT": 1604,
      "ef": 1605,
      "kW": 1606,
      "lh": 1607,
      "name": 1608,
      "ukit": 1609,
      "2h": 1610,
      "C5": 1611,
      "dw": 1612,
      "o5": 1613,
      "qs": 1614,
      "x4": 1615,
      "sion": 1616,
      "cel": 1617,
      "btinternet": 1618,
      "134": 1619,
      "6n": 1620,
      "9a": 1621,
      "Fy": 1622,
      "Nr": 1623,
      "OE": 1624,
      "bus": 1625,
      "dD": 1626,
      "kb": 1627,
      "lj": 1628,
      "tn": 1629,
      "x2": 1630,
      "urxe": 1631,
      "verify": 1632,
      "5m": 1633,
      "KT": 1634,
      "LQ": 1635,
      "RE": 1636,
      "ZE": 1637,
      "dj": 1638,
      "qa": 1639,
      "verification": 1640,
      "5h": 1641,
      "A1": 1642,
      "GE": 1643,
      "LP": 1644,
      "lg": 1645,
      "mj": 1646,
      "tq": 1647,
      "yd": 1648,
      "_BwE": 1649,
      "6b": 1650,
      "Jp": 1651,
      "M9": 1652,
      "NQ": 1653,
      "RQ": 1654,
      "YV": 1655,
      "cD": 1656,
      "kg": 1657,
      "oh": 1658,
      "cent": 1659,
      "3g": 1660,
      "6f": 1661,
      "AT": 1662,
      "KE": 1663,
      "LW": 1664,
      "Ln": 1665,
      "ZB": 1666,
      "ade": 1667,
      "asp": 1668,
      "fac": 1669,
      "tg": 1670,
      "xm": 1671,
      "ero": 1672,
      "2v": 1673,
      "7p": 1674,
      "FJ": 1675,
      "UV": 1676,
      "Yn": 1677,
      "dre": 1678,
      "lxu": 1679,
      "tb": 1680,
      "comp": 1681,
      "voice": 1682,
      "AE": 1683,
      "C3": 1684,
      "fz": 1685,
      "i4": 1686,
      "IE": 1687,
      "MJ": 1688,
      "RW": 1689,
      "Rl": 1690,
      "Y2": 1691,
      "cal": 1692,
      "har": 1693,
      "k4": 1694,
      "vg": 1695,
      "yr": 1696,
      "inclu": 1697,
      "aeon": 1698,
      "ZXJ": 1699,
      "NC": 1700,
      "QV": 1701,
      "n2": 1702,
      "MW": 1703,
      "Re": 1704,
      "VE": 1705,
      "book": 1706,
      "u3": 1707,
      "0000": 1708,
      "AAAAAAAA": 1709,
      "8b": 1710,
      "GQ": 1711,
      "Nx": 1712,
      "Py": 1713,
      "YB": 1714,
      "xs": 1715,
      "active": 1716,
      "includes": 1717,
      "Bh": 1718,
      "FQ": 1719,
      "PE": 1720,
      "PQ": 1721,
      "Qma": 1722,
      "bj": 1723,
      "car": 1724,
      "oa": 1725,
      "r3": 1726,
      "wc": 1727,
      "sit": 1728,
      "Mt": 1729,
      "Mz": 1730,
      "NJ": 1731,
      "kj": 1732,
      "o3": 1733,
      "q2": 1734,
      "x7": 1735,
      "access": 1736,
      "KR": 1737,
      "LH": 1738,
      "St": 1739,
      "Y9": 1740,
      "e8": 1741,
      "nl": 1742,
      "nw": 1743,
      "104": 1744,
      "QmW": 1745,
      "QmX": 1746,
      "response": 1747,
      "6a": 1748,
      "FZ": 1749,
      "KH": 1750,
      "PH": 1751,
      "yu": 1752,
      "ebe": 1753,
      "bafybeic": 1754,
      "mytracking": 1755,
      "203": 1756,
      "N1": 1757,
      "OS": 1758,
      "RD": 1759,
      "W0": 1760,
      "e9": 1761,
      "gre": 1762,
      "kz": 1763,
      "ydo": 1764,
      "ung": 1765,
      "987": 1766,
      "2c": 1767,
      "CT": 1768,
      "CU": 1769,
      "KJ": 1770,
      "Lj": 1771,
      "Q9": 1772,
      "SJ": 1773,
      "ost": 1774,
      "r6": 1775,
      "ert": 1776,
      "any": 1777,
      "utm_": 1778,
      "eng": 1779,
      "now": 1780,
      "Ol": 1781,
      "QW": 1782,
      "bG": 1783,
      "e3": 1784,
      "qh": 1785,
      "u4": 1786,
      "xp": 1787,
      "5C": 1788,
      "5p": 1789,
      "8c": 1790,
      "YJ": 1791,
      "ZH": 1792,
      "ZU": 1793,
      "gur": 1794,
      "nv": 1795,
      "tp": 1796,
      "shop": 1797,
      "AIa": 1798,
      "129": 1799,
      "6u": 1800,
      "7i": 1801,
      "CW": 1802,
      "EAIa": 1803,
      "MU": 1804,
      "mf": 1805,
      "rw": 1806,
      "z9": 1807,
      "obCh": 1808,
      "IQobCh": 1809,
      "data": 1810,
      "EAIaIQobCh": 1811,
      "1c": 1812,
      "6w": 1813,
      "DJ": 1814,
      "GN": 1815,
      "mw": 1816,
      "r4": 1817,
      "xb": 1818,
      "rent": 1819,
      "ionos": 1820,
      "207": 1821,
      "portal": 1822,
      "GH": 1823,
      "LY": 1824,
      "ON": 1825,
      "ZF": 1826,
      "ZQ": 1827,
      "dg": 1828,
      "ya": 1829,
      "ori": 1830,
      "ros": 1831,
      "ckplus": 1832,
      "mockplus": 1833,
      "hide": 1834,
      "BV": 1835,
      "GK": 1836,
      "MY": 1837,
      "tk": 1838,
      "x5": 1839,
      "ury": 1840,
      "171": 1841,
      "9y": 1842,
      "AH": 1843,
      "FD": 1844,
      "Iw": 1845,
      "JY": 1846,
      "O1": 1847,
      "Zh": 1848,
      "l0": 1849,
      "mg": 1850,
      "nj": 1851,
      "ral": 1852,
      "uf": 1853,
      "x3": 1854,
      "secur": 1855,
      "all": 1856,
      "ans": 1857,
      "uspw": 1858,
      "document": 1859,
      "2o": 1860,
      "Ey": 1861,
      "KK": 1862,
      "VQ": 1863,
      "XS": 1864,
      "ZP": 1865,
      "nh": 1866,
      "nz": 1867,
      "site96": 1868,
      "webydo": 1869,
      "lify": 1870,
      "QmR": 1871,
      "5j": 1872,
      "7w": 1873,
      "9c": 1874,
      "AG": 1875,
      "CR": 1876,
      "Ce": 1877,
      "ME": 1878,
      "td": 1879,
      "ure": 1880,
      "ipt": 1881,
      "review": 1882,
      "oned": 1883,
      "QmP": 1884,
      "auto": 1885,
      "2s": 1886,
      "A9": 1887,
      "KW": 1888,
      "LJ": 1889,
      "Mv": 1890,
      "OW": 1891,
      "ZN": 1892,
      "i8": 1893,
      "ery": 1894,
      "netlify": 1895,
      "237": 1896,
      "asse": 1897,
      "EAIaIQobChMI": 1898,
      "AX": 1899,
      "GB": 1900,
      "KF": 1901,
      "KQ": 1902,
      "Zj": 1903,
      "mv": 1904,
      "n3": 1905,
      "ron": 1906,
      "zH": 1907,
      "3Bfollowup": 1908,
      "128": 1909,
      "ML": 1910,
      "Rh": 1911,
      "ore": 1912,
      "our": 1913,
      "pla": 1914,
      "uw": 1915,
      "v0": 1916,
      "yi": 1917,
      "acc": 1918,
      "bafkreie": 1919,
      "0f": 1920,
      "4h": 1921,
      "4z": 1922,
      "Id": 1923,
      "KU": 1924,
      "NH": 1925,
      "VJ": 1926,
      "XQ": 1927,
      "n4": 1928,
      "x_": 1929,
      "inicio": 1930,
      "onedrive": 1931,
      "5l": 1932,
      "5cb": 1933,
      "CE": 1934,
      "Qme": 1935,
      "Ry": 1936,
      "Y0": 1937,
      "jJ": 1938,
      "tech": 1939,
      "atm": 1940,
      "uspz": 1941,
      "gram": 1942,
      "media": 1943,
      "4c": 1944,
      "5a": 1945,
      "5c": 1946,
      "7f": 1947,
      "7r": 1948,
      "7s": 1949,
      "=&": 1950,
      "G1": 1951,
      "GT": 1952,
      "N6": 1953,
      "i3": 1954,
      "n6": 1955,
      "flowcode": 1956,
      "3w": 1957,
      "4o": 1958,
      "9h": 1959,
      "C1": 1960,
      "C8": 1961,
      "IU": 1962,
      "M6": 1963,
      "QJ": 1964,
      "Yw": 1965,
      "qw": 1966,
      "t2": 1967,
      "xh": 1968,
      "xo": 1969,
      "col": 1970,
      "ark": 1971,
      "urx": 1972,
      "QmU": 1973,
      "dhl": 1974,
      "4T": 1975,
      "AU": 1976,
      "G7": 1977,
      "KL": 1978,
      "RB": 1979,
      "Rp": 1980,
      "S9": 1981,
      "SD": 1982,
      "Vm": 1983,
      "Vu": 1984,
      "WB": 1985,
      "YD": 1986,
      "k2": 1987,
      "kf": 1988,
      "qz": 1989,
      "bal": 1990,
      "101": 1991,
      "gov": 1992,
      "3z": 1993,
      "CF": 1994,
      "NO": 1995,
      "VU": 1996,
      "XT": 1997,
      "Z1": 1998,
      "Zn": 1999,
      "Zp": 2000,
      "Zz": 2001,
      "_id": 2002,
      "vV": 2003,
      "comm": 2004,
      "ren": 2005,
      "cen": 2006,
      "vxk": 2007,
      "3Bxrealip": 2008,
      "0b": 2009,
      "2i": 2010,
      "EB": 2011,
      "Mm": 2012,
      "NM": 2013,
      "Nt": 2014,
      "RU": 2015,
      "XD": 2016,
      "Zt": 2017,
      "dv": 2018,
      "hc": 2019,
      "p5": 2020,
      "alt": 2021,
      "bel": 2022,
      "let": 2023,
      "QmY": 2024,
      "juno": 2025,
      "200": 2026,
      "Ct": 2027,
      "F1": 2028,
      "FH": 2029,
      "GA": 2030,
      "IJ": 2031,
      "ass": 2032,
      "lf": 2033,
      "p1": 2034,
      "x1": 2035,
      "xj": 2036,
      "yh": 2037,
      "ym": 2038,
      "185": 2039,
      "corre": 2040,
      "3h": 2041,
      "7o": 2042,
      "7z": 2043,
      "A5": 2044,
      "CS": 2045,
      "LL": 2046,
      "PY": 2047,
      "X1": 2048,
      "XE": 2049,
      "ei": 2050,
      "fli": 2051,
      "p0": 2052,
      "qg": 2053,
      "que": 2054,
      "deli": 2055,
      "les": 2056,
      "allegro": 2057,
      "iness": 2058,
      "HW": 2059,
      "NW": 2060,
      "Nu": 2061,
      "OU": 2062,
      "Q2": 2063,
      "Rz": 2064,
      "Vi": 2065,
      "y6": 2066,
      "Inter": 2067,
      "7l": 2068,
      "C_": 2069,
      "GY": 2070,
      "KD": 2071,
      "KBH": 2072,
      "PU": 2073,
      "bX": 2074,
      "u2": 2075,
      "den": 2076,
      "icu": 2077,
      "mess": 2078,
      "EXPP": 2079,
      "4v": 2080,
      "5w": 2081,
      "8J": 2082,
      "BT": 2083,
      "Iy": 2084,
      "NL": 2085,
      "No": 2086,
      "SE": 2087,
      "SH": 2088,
      "VH": 2089,
      "Vs": 2090,
      "bro": 2091,
      "fD": 2092,
      "gc": 2093,
      "ql": 2094,
      "ual": 2095,
      "ref": 2096,
      "mem": 2097,
      "ang": 2098,
      "2024": 2099,
      "vdM": 2100,
      "qrco": 2101,
      "general": 2102,
      "123": 2103,
      "6m": 2104,
      "Nvb": 2105,
      "PX": 2106,
      "Pt": 2107,
      "run": 2108,
      "f2p": 2109,
      "services": 2110,
      "DtJ": 2111,
      "hotmail": 2112,
      "activeLogin": 2113,
      "InteractiveLogin": 2114,
      "245": 2115,
      "9T": 2116,
      "AO": 2117,
      "CQ": 2118,
      "FI": 2119,
      "WT": 2120,
      "Xy": 2121,
      "Zi": 2122,
      "not": 2123,
      "rl": 2124,
      "uo": 2125,
      "ings": 2126,
      "current": 2127,
      "At": 2128,
      "L1": 2129,
      "M4": 2130,
      "MR": 2131,
      "Nh": 2132,
      "W5": 2133,
      "XY": 2134,
      "Zk": 2135,
      "bw": 2136,
      "mz": 2137,
      "qd": 2138,
      "tz": 2139,
      "vin": 2140,
      "coin": 2141,
      "ager": 2142,
      "ler": 2143,
      "roup": 2144,
      "96EXPP": 2145,
      "AAEg": 2146,
      "gf3U": 2147,
      "ngqv": 2148,
      "GVaW": 2149,
      "QmQatm": 2150,
      "ucDtJ": 2151,
      "CLBm": 2152,
      "aspx": 2153,
      "vxk96EXPP": 2154,
      "KBHW": 2155,
      "vdMucDtJ": 2156,
      "f2pvdMucDtJ": 2157,
      "gf3UGVaW": 2158,
      "ngqvCLBm": 2159,
      "QmQatmvxk96EXPP": 2160,
      "f2pvdMucDtJgf3UGVaW": 2161,
      "ngqvCLBmf2pvdMucDtJgf3UGVaW": 2162,
      "QmQatmvxk96EXPPngqvCLBmf2pvdMucDtJgf3UGVaW": 2163,
      "QmQatmvxk96EXPPngqvCLBmf2pvdMucDtJgf3UGVaWKBHW": 2164,
      "D9": 2165,
      "MG": 2166,
      "MH": 2167,
      "W1": 2168,
      "lc": 2169,
      "s_": 2170,
      "zim": 2171,
      "6l": 2172,
      "7c": 2173,
      "7j": 2174,
      "8B": 2175,
      "AJ": 2176,
      "La": 2177,
      "Mi": 2178,
      "Mx": 2179,
      "RL": 2180,
      "SG": 2181,
      "VT": 2182,
      "YY": 2183,
      "Z9": 2184,
      "gT": 2185,
      "h0": 2186,
      "ome": 2187,
      "xf": 2188,
      "ten": 2189,
      "script": 2190,
      "business": 2191,
      "DT": 2192,
      "KB": 2193,
      "KV": 2194,
      "N4": 2195,
      "Nm": 2196,
      "Oy": 2197,
      "PF": 2198,
      "QQ": 2199,
      "VB": 2200,
      "av": 2201,
      "glo": 2202,
      "km": 2203,
      "oc": 2204,
      "mac": 2205,
      "vercel": 2206,
      "cze": 2207,
      "A8": 2208,
      "PJ": 2209,
      "Qu": 2210,
      "Rk": 2211,
      "tes": 2212,
      "doc": 2213,
      "118": 2214,
      "pass": 2215,
      "5s": 2216,
      "6i": 2217,
      "Ad": 2218,
      "Co": 2219,
      "DE": 2220,
      "MB": 2221,
      "Px": 2222,
      "S1": 2223,
      "VR": 2224,
      "Y1": 2225,
      "Zv": 2226,
      "ant": 2227,
      "jU": 2228,
      "kal": 2229,
      "qc": 2230,
      "qj": 2231,
      "t4": 2232,
      "cake": 2233,
      "cust": 2234,
      "2T": 2235,
      "3s": 2236,
      "6o": 2237,
      "Ay": 2238,
      "C0": 2239,
      "CP": 2240,
      "Ns": 2241,
      "OO": 2242,
      "SQ": 2243,
      "Yx": 2244,
      "Zl": 2245,
      "e1": 2246,
      "err": 2247,
      "ages": 2248,
      "uth": 2249,
      "dream": 2250,
      "delivery": 2251,
      "currently": 2252,
      "0c": 2253,
      "2l": 2254,
      "6p": 2255,
      "D1": 2256,
      "ED": 2257,
      "G8": 2258,
      "I1": 2259,
      "IP": 2260,
      "MP": 2261,
      "Ma": 2262,
      "NY": 2263,
      "OX": 2264,
      "XF": 2265,
      "eg": 2266,
      "fT": 2267,
      "o1": 2268,
      "r5": 2269,
      "yk": 2270,
      "redirect": 2271,
      "lat": 2272,
      "acion": 2273,
      "3Bifkv": 2274,
      "2z": 2275,
      "AF": 2276,
      "Ax": 2277,
      "DK": 2278,
      "E1": 2279,
      "Jt": 2280,
      "NF": 2281,
      "Nv": 2282,
      "QU": 2283,
      "V8": 2284,
      "cJ": 2285,
      "cps": 2286,
      "ez": 2287,
      "jF": 2288,
      "nb": 2289,
      "oB": 2290,
      "str": 2291,
      "ication": 2292,
      "gICAgICA": 2293,
      "Y29t": 2294,
      "0X": 2295,
      "7h": 2296,
      "7m": 2297,
      "Ak": 2298,
      "CO": 2299,
      "DB": 2300,
      "Eo": 2301,
      "H8": 2302,
      "MF": 2303,
      "Wq": 2304,
      "ZY": 2305,
      "_re": 2306,
      "eq": 2307,
      "rb": 2308,
      "t6": 2309,
      "vJ": 2310,
      "ys": 2311,
      "ask": 2312,
      "validation": 2313,
      "9z": 2314,
      "CG": 2315,
      "M1": 2316,
      "M3": 2317,
      "M8": 2318,
      "Mk": 2319,
      "Mw": 2320,
      "N8": 2321,
      "Np": 2322,
      "X3": 2323,
      "ZK": 2324,
      "ZR": 2325,
      "cra": 2326,
      "g0": 2327,
      "gY": 2328,
      "qb": 2329,
      "rj": 2330,
      "vj": 2331,
      "sen": 2332,
      "ati": 2333,
      "opti": 2334,
      "biz": 2335,
      "center": 2336,
      "7g": 2337,
      "Cz": 2338,
      "DD": 2339,
      "Uy": 2340,
      "X_": 2341,
      "gin": 2342,
      "pan": 2343,
      "sol": 2344,
      "win": 2345,
      "xg": 2346,
      "etr": 2347,
      "dom": 2348,
      "lif": 2349,
      "233": 2350,
      "hent": 2351,
      "181": 2352,
      "159": 2353,
      "qui": 2354,
      "3Bpassive": 2355,
      "gitbook": 2356,
      "7T": 2357,
      "Cn": 2358,
      "L8": 2359,
      "Li": 2360,
      "Ne": 2361,
      "Q0": 2362,
      "Ri": 2363,
      "Vz": 2364,
      "bio": 2365,
      "e2": 2366,
      "edu": 2367,
      "security": 2368,
      "3l": 2369,
      "4s": 2370,
      "5i": 2371,
      "A0": 2372,
      "LD": 2373,
      "Mn": 2374,
      "RR": 2375,
      "SP": 2376,
      "U1": 2377,
      "VG": 2378,
      "Vk": 2379,
      "Xp": 2380,
      "_p": 2381,
      "can": 2382,
      "fW": 2383,
      "gJ": 2384,
      "ght": 2385,
      "o0": 2386,
      "rur": 2387,
      "set": 2388,
      "team": 2389,
      "102": 2390,
      "node": 2391,
      "mode": 2392,
      "mobi": 2393,
      "confirm": 2394,
      "cIn": 2395,
      "faceb": 2396,
      "5v": 2397,
      "9B": 2398,
      "9H": 2399,
      "9J": 2400,
      "Ar": 2401,
      "As": 2402,
      "It": 2403,
      "K1": 2404,
      "Ky": 2405,
      "LU": 2406,
      "Lr": 2407,
      "Lt": 2408,
      "NI": 2409,
      "Nq": 2410,
      "Uu": 2411,
      "YAS": 2412,
      "oT": 2413,
      "xw": 2414,
      "678": 2415,
      "telegram": 2416,
      "937": 2417,
      "C2": 2418,
      "CD": 2419,
      "Fk": 2420,
      "NA": 2421,
      "Sk": 2422,
      "XH": 2423,
      "Zs": 2424,
      "bH": 2425,
      "bQ": 2426,
      "rps": 2427,
      "uj": 2428,
      "xc": 2429,
      "aru": 2430,
      "star": 2431,
      "law": 2432,
      "231": 2433,
      "119": 2434,
      "fek": 2435,
      "time": 2436,
      "manage": 2437,
      "2j": 2438,
      "226": 2439,
      "DO": 2440,
      "EE": 2441,
      "Gt": 2442,
      "KY": 2443,
      "Me": 2444,
      "Mq": 2445,
      "Ni": 2446,
      "OH": 2447,
      "RG": 2448,
      "RJ": 2449,
      "UH": 2450,
      "UJ": 2451,
      "ZI": 2452,
      "Zq": 2453,
      "blo": 2454,
      "gB": 2455,
      "ial": 2456,
      "jQ": 2457,
      "oj": 2458,
      "pri": 2459,
      "segur": 2460,
      "api": 2461,
      "website": 2462,
      "index2": 2463,
      "cafe": 2464,
      "dreamwp": 2465,
      "9s": 2466,
      "FW": 2467,
      "Fq": 2468,
      "G2": 2469,
      "K8": 2470,
      "Kq": 2471,
      "LX": 2472,
      "Lx": 2473,
      "Vn": 2474,
      "YH": 2475,
      "Yt": 2476,
      "cT": 2477,
      "cW": 2478,
      "cat": 2479,
      "cred": 2480,
      "dW": 2481,
      "par": 2482,
      "tap": 2483,
      "vU": 2484,
      "yz": 2485,
      "lan": 2486,
      "ator": 2487,
      "197": 2488,
      "hosting": 2489,
      "bitly": 2490,
      "payment": 2491,
      "urxeb": 2492,
      "3J": 2493,
      "9D": 2494,
      "Aq": 2495,
      "By": 2496,
      "Fn": 2497,
      "OJ": 2498,
      "P8": 2499,
      "PC": 2500,
      "Pe": 2501,
      "Plxu": 2502,
      "S8": 2503,
      "_0": 2504,
      "cS": 2505,
      "g9": 2506,
      "oH": 2507,
      "part": 2508,
      "sH": 2509,
      "sub": 2510,
      "v1": 2511,
      "wid": 2512,
      "ali": 2513,
      "land": 2514,
      "newb": 2515,
      "F2": 2516,
      "Fd": 2517,
      "Fr": 2518,
      "GX": 2519,
      "I8": 2520,
      "LB": 2521,
      "O0": 2522,
      "RV": 2523,
      "Yk": 2524,
      "Yz": 2525,
      "Z5": 2526,
      "_D": 2527,
      "card": 2528,
      "jW": 2529,
      "mit": 2530,
      "tj": 2531,
      "w0": 2532,
      "yp": 2533,
      "spe": 2534,
      "erson": 2535,
      "153": 2536,
      "6c": 2537,
      "6z": 2538,
      "GD": 2539,
      "KX": 2540,
      "LC": 2541,
      "MC": 2542,
      "MX": 2543,
      "Un": 2544,
      "_E": 2545,
      "bV": 2546,
      "cml": 2547,
      "jH": 2548,
      "nie": 2549,
      "qf": 2550,
      "ster": 2551,
      "almar": 2552,
      "doof": 2553,
      "sport": 2554,
      "space": 2555,
      "round": 2556,
      "wiLF": 2557,
      "digit": 2558,
      "flix": 2559,
      "almardoof": 2560,
      "6T": 2561,
      "Con": 2562,
      "Pk": 2563,
      "R1": 2564,
      "YQ": 2565,
      "_1": 2566,
      "cap": 2567,
      "fE": 2568,
      "tl": 2569,
      "vB": 2570,
      "xl": 2571,
      "send": 2572,
      "ads": 2573,
      "430": 2574,
      "exec": 2575,
      "ult": 2576,
      "zuza": 2577,
      "stefek": 2578,
      "banco": 2579,
      "szcze": 2580,
      "metafb": 2581,
      "urycafe": 2582,
      "newburycafe": 2583,
      "szczecin": 2584,
      "Am": 2585,
      "IT": 2586,
      "M2": 2587,
      "Nw": 2588,
      "R0": 2589,
      "Rn": 2590,
      "SV": 2591,
      "aB": 2592,
      "cB": 2593,
      "j0": 2594,
      "u8": 2595,
      "well": 2596,
      "ling": 2597,
      "day": 2598,
      "usspa": 2599,
      "jemi": 2600,
      "facebook": 2601,
      "7D": 2602,
      "Ap": 2603,
      "FX": 2604,
      "Is": 2605,
      "KG": 2606,
      "LR": 2607,
      "Lk": 2608,
      "M0": 2609,
      "Nd": 2610,
      "Q1": 2611,
      "QT": 2612,
      "Sy": 2613,
      "UW": 2614,
      "Z8": 2615,
      "_J": 2616,
      "cG": 2617,
      "jE": 2618,
      "mc": 2619,
      "nex": 2620,
      "q3": 2621,
      "xv": 2622,
      "zT": 2623,
      "cfd": 2624,
      "ank": 2625,
      "238": 2626,
      "158": 2627,
      "hyper": 2628,
      "3A167": 2629,
      "4J": 2630,
      "4l": 2631,
      "DW": 2632,
      "Gy": 2633,
      "IO": 2634,
      "Mo": 2635,
      "NK": 2636,
      "PG": 2637,
      "Pp": 2638,
      "QH": 2639,
      "R8": 2640,
      "RX": 2641,
      "XW": 2642,
      "Y5": 2643,
      "Y8": 2644,
      "_T": 2645,
      "bD": 2646,
      "tm": 2647,
      "yb": 2648,
      "ses": 2649,
      "alkh": 2650,
      "vent": 2651,
      "exod": 2652,
      "247": 2653,
      "viewform": 2654,
      "fycb": 2655,
      "gate": 2656,
      "cIjp": 2657,
      "LmNvb": 2658,
      "****": 2659,
      "AKfycb": 2660,
      "macros": 2661,
      "Ex": 2662,
      "I0": 2663,
      "Mu": 2664,
      "Sx": 2665,
      "Yr": 2666,
      "ZA": 2667,
      "dis": 2668,
      "fV": 2669,
      "gU": 2670,
      "iT": 2671,
      "sU": 2672,
      "vip": 2673,
      "w9": 2674,
      "wer": 2675,
      "y5": 2676,
      "erta": 2677,
      "mes": 2678,
      "disp": 2679,
      "cIm": 2680,
      "igroup": 2681,
      "commun": 2682,
      "5B": 2683,
      "Cq": 2684,
      "E9": 2685,
      "F9": 2686,
      "MO": 2687,
      "QB": 2688,
      "Rq": 2689,
      "Rv": 2690,
      "ger": 2691,
      "mer": 2692,
      "ssp": 2693,
      "zB": 2694,
      "sta": 2695,
      "atch": 2696,
      "111": 2697,
      "nav": 2698,
      "PVwi": 2699,
      "engine": 2700,
      "2g": 2701,
      "A7": 2702,
      "Cw": 2703,
      "D8": 2704,
      "Ep": 2705,
      "EAA": 2706,
      "I5": 2707,
      "NP": 2708,
      "Or": 2709,
      "RY": 2710,
      "VW": 2711,
      "g1": 2712,
      "h8": 2713,
      "hH": 2714,
      "pf": 2715,
      "xa": 2716,
      "ath": 2717,
      "udhar": 2718,
      "ill": 2719,
      "anoe": 2720,
      "point": 2721,
      "fbclid": 2722,
      "bafkreih": 2723,
      "ject": 2724,
      "cIix": 2725,
      "alkhudhar": 2726,
      "alkhudharigroup": 2727,
      "6j": 2728,
      "7v": 2729,
      "AV": 2730,
      "Au": 2731,
      "Do": 2732,
      "Dy": 2733,
      "F8": 2734,
      "Fs": 2735,
      "Glif": 2736,
      "IC": 2737,
      "X8": 2738,
      "Z6": 2739,
      "Zg": 2740,
      "cE": 2741,
      "dapp": 2742,
      "ev": 2743,
      "h1": 2744,
      "k9": 2745,
      "ktt": 2746,
      "kgeneral": 2747,
      "rv": 2748,
      "order": 2749,
      "wered": 2750,
      "css": 2751,
      "wpengine": 2752,
      "WebSignIn": 2753,
      "130": 2754,
      "jkl": 2755,
      "prote": 2756,
      "yola": 2757,
      "metam": 2758,
      "AIpQ": 2759,
      "1FAIpQ": 2760,
      "optikgeneral": 2761,
      "GlifWebSignIn": 2762,
      "1FAIpQLS": 2763,
      "4U": 2764,
      "FS": 2765,
      "Fo": 2766,
      "Fu": 2767,
      "Fw": 2768,
      "K2": 2769,
      "KXG": 2770,
      "OB": 2771,
      "Qy": 2772,
      "Rm": 2773,
      "S5": 2774,
      "Vp": 2775,
      "XX": 2776,
      "bB": 2777,
      "bri": 2778,
      "fH": 2779,
      "i1": 2780,
      "iJ": 2781,
      "k1": 2782,
      "sch": 2783,
      "back": 2784,
      "sid": 2785,
      "powered": 2786,
      "authori": 2787,
      "mark": 2788,
      "ASKXG": 2789,
      "domains": 2790,
      "chain": 2791,
      "custom": 2792,
      "credit": 2793,
      "0g": 2794,
      "4j": 2795,
      "9t": 2796,
      "A4": 2797,
      "A6": 2798,
      "Cs": 2799,
      "IK": 2800,
      "Lu": 2801,
      "Po": 2802,
      "Pq": 2803,
      "R4": 2804,
      "Se": 2805,
      "WH": 2806,
      "Ye": 2807,
      "Ze": 2808,
      "Ztr": 2809,
      "_V": 2810,
      "bre": 2811,
      "fJ": 2812,
      "g8": 2813,
      "jT": 2814,
      "k8": 2815,
      "m1": 2816,
      "war": 2817,
      "reag": 2818,
      "reen": 2819,
      "resu": 2820,
      "stack": 2821,
      "note": 2822,
      "key": 2823,
      "wpenginepowered": 2824,
      "Ae": 2825,
      "An": 2826,
      "Cy": 2827,
      "FC": 2828,
      "G0": 2829,
      "L0": 2830,
      "Le": 2831,
      "Mh": 2832,
      "NX": 2833,
      "P1": 2834,
      "P5": 2835,
      "PI": 2836,
      "RH": 2837,
      "S6": 2838,
      "Ux": 2839,
      "Vt": 2840,
      "azu": 2841,
      "bon": 2842,
      "fro": 2843,
      "j1": 2844,
      "person": 2845,
      "rg": 2846,
      "sal": 2847,
      "sur": 2848,
      "w8": 2849,
      "onto": 2850,
      "open": 2851,
      "web3": 2852,
      "abuse": 2853,
      "1318": 2854,
      "oferta": 2855,
      "wallets": 2856,
      "bill": 2857,
      "mobile": 2858,
      "F0": 2859,
      "IY": 2860,
      "K5": 2861,
      "Kn": 2862,
      "Kr": 2863,
      "L7": 2864,
      "Lq": 2865,
      "N2": 2866,
      "N5": 2867,
      "N7": 2868,
      "P0": 2869,
      "Q8": 2870,
      "R5": 2871,
      "SS": 2872,
      "U9": 2873,
      "_X": 2874,
      "iW": 2875,
      "ian": 2876,
      "s1": 2877,
      "yl": 2878,
      "z1": 2879,
      "zO": 2880,
      "6543": 2881,
      "cube": 2882,
      "jaj": 2883,
      "formstack": 2884,
      "aruba": 2885,
      "Ac": 2886,
      "Ip": 2887,
      "Jl": 2888,
      "Kp": 2889,
      "Lo": 2890,
      "Ms": 2891,
      "Qg": 2892,
      "VF": 2893,
      "Y6": 2894,
      "Z0": 2895,
      "tf": 2896,
      "v9": 2897,
      "zD": 2898,
      "rep": 2899,
      "fir": 2900,
      "234": 2901,
      "456": 2902,
      "uni": 2903,
      "255": 2904,
      "112": 2905,
      "plug": 2906,
      "cial": 2907,
      "authent": 2908,
      "JTdD": 2909,
      "sitebe": 2910,
      "yolasite": 2911,
      "reagan": 2912,
      "1k": 2913,
      "345": 2914,
      "Hr": 2915,
      "Pa": 2916,
      "Pw": 2917,
      "RO": 2918,
      "W8": 2919,
      "Xm": 2920,
      "Y4": 2921,
      "YG": 2922,
      "YL": 2923,
      "Yq": 2924,
      "j9": 2925,
      "kB": 2926,
      "nP": 2927,
      "off": 2928,
      "pag": 2929,
      "q8": 2930,
      "vT": 2931,
      "bar": 2932,
      "preview": 2933,
      "upload": 2934,
      "wiOl": 2935,
      "old": 2936,
      "filename": 2937,
      "YASAAEg": 2938,
      "exodus": 2939,
      "ktt55": 2940,
      "wiOlwi": 2941,
      "B8": 2942,
      "DV": 2943,
      "Ei": 2944,
      "I_": 2945,
      "Pz": 2946,
      "Ro": 2947,
      "Rs": 2948,
      "Xr": 2949,
      "Z4": 2950,
      "Za": 2951,
      "_l": 2952,
      "dapps": 2953,
      "hU": 2954,
      "kw": 2955,
      "nf": 2956,
      "p8": 2957,
      "tre": 2958,
      "uH": 2959,
      "uT": 2960,
      "zero": 2961,
      "public": 2962,
      "ica": 2963,
      "icate": 2964,
      "Qmd": 2965,
      "170": 2966,
      "194": 2967,
      "gfgf": 2968,
      "syste": 2969,
      "boxmode": 2970,
      "IwAR": 2971,
      "ourtime": 2972,
      "3j": 2973,
      "A2": 2974,
      "GW": 2975,
      "I3": 2976,
      "I6": 2977,
      "LG": 2978,
      "M5": 2979,
      "M_": 2980,
      "N9": 2981,
      "Nk": 2982,
      "OV": 2983,
      "QS": 2984,
      "RF": 2985,
      "WW": 2986,
      "X5": 2987,
      "Yf": 2988,
      "bE": 2989,
      "ele": 2990,
      "s8": 2991,
      "t3": 2992,
      "wic": 2993,
      "yg": 2994,
      "rest": 2995,
      "ama": 2996,
      "word": 2997,
      "ana": 2998,
      "uspo": 2999,
      "news": 3000,
      "attmail": 3001,
      "screen": 3002,
      "Y3Jp": 3003,
      "yxE": 3004,
      "swiss": 3005,
      "digital": 3006,
      "resume": 3007,
      "7B": 3008,
      "AC": 3009,
      "Ag": 3010,
      "Ao": 3011,
      "HU": 3012,
      "I4": 3013,
      "IB": 3014,
      "Mg": 3015,
      "Mr": 3016,
      "On": 3017,
      "PL": 3018,
      "QAAAAAAAA": 3019,
      "X9": 3020,
      "Y_": 3021,
      "Zd": 3022,
      "bJ": 3023,
      "cas": 3024,
      "t5": 3025,
      "vE": 3026,
      "y3": 3027,
      "yj": 3028,
      "zU": 3029,
      "appspot": 3030,
      "acce": 3031,
      "roy": 3032,
      "query": 3033,
      "gare": 3034,
      "cIiB": 3035,
      "dsW0": 3036,
      "XCI6": 3037,
      "DQSI": 3038,
      "BLZtr": 3039,
      "kWdsW0": 3040,
      "crazy": 3041,
      "jajBLZtr": 3042,
      "yxEjajBLZtr": 3043,
      "QAAAAAAAAAAAA": 3044,
      "DQSIkWdsW0": 3045,
      "yxEjajBLZtrQAAAAAAAAAAAA": 3046,
      "DQSIkWdsW0yxEjajBLZtrQAAAAAAAAAAAA": 3047,
      "2D": 3048,
      "Fh": 3049,
      "IF": 3050,
      "Ig": 3051,
      "Ix": 3052,
      "K6": 3053,
      "K_": 3054,
      "Ml": 3055,
      "Ng": 3056,
      "Ox": 3057,
      "R9": 3058,
      "Rw": 3059,
      "Sw": 3060,
      "WQ": 3061,
      "X2": 3062,
      "Ya": 3063,
      "Yi": 3064,
      "bin": 3065,
      "bla": 3066,
      "ceb": 3067,
      "fle": 3068,
      "gal": 3069,
      "heb": 3070,
      "kU": 3071,
      "kc": 3072,
      "m0": 3073,
      "q1": 3074,
      "s0": 3075,
      "t7": 3076,
      "uJ": 3077,
      "y7": 3078,
      "z8": 3079,
      "sia": 3080,
      "netzero": 3081,
      "ven": 3082,
      "ution": 3083,
      "132": 3084,
      "wiLFwi": 3085,
      "authorize": 3086,
      "900": 3087,
      "BD": 3088,
      "Cr": 3089,
      "E5": 3090,
      "EG": 3091,
      "H6": 3092,
      "Ka": 3093,
      "Ke": 3094,
      "Kx": 3095,
      "SU": 3096,
      "X7": 3097,
      "Xe": 3098,
      "Y7": 3099,
      "Z7": 3100,
      "Zr": 3101,
      "_e": 3102,
      "ase": 3103,
      "cla": 3104,
      "kJ": 3105,
      "mot": 3106,
      "qT": 3107,
      "sXCJ": 3108,
      "v8": 3109,
      "z0": 3110,
      "lokal": 3111,
      "ord": 3112,
      "state": 3113,
      "ich": 3114,
      "ios": 3115,
      "cons": 3116,
      "activ": 3117,
      "Track": 3118,
      "member": 3119,
      "sitebeat": 3120,
      "B5": 3121,
      "ET": 3122,
      "Mp": 3123,
      "Q3": 3124,
      "Rt": 3125,
      "U8": 3126,
      "Vw": 3127,
      "YO": 3128,
      "Ys": 3129,
      "Zf": 3130,
      "n1": 3131,
      "por": 3132,
      "swe": 3133,
      "tus": 3134,
      "temp": 3135,
      "ary": 3136,
      "001": 3137,
      "ape": 3138,
      "bafybeifb": 3139,
      "ach": 3140,
      "205": 3141,
      "uppo": 3142,
      "ueil": 3143,
      "168": 3144,
      "169": 3145,
      "type": 3146,
      "XG4": 3147,
      "tw1": 3148,
      "sso_re": 3149,
      "accueil": 3150,
      "taplink": 3151,
      "crazydomains": 3152,
      "sso_reload": 3153,
      "443": 3154,
      "Bp": 3155,
      "C4": 3156,
      "Cl": 3157,
      "EV": 3158,
      "Fi": 3159,
      "G_": 3160,
      "Ih": 3161,
      "K7": 3162,
      "L6": 3163,
      "M7": 3164,
      "MA": 3165,
      "P4": 3166,
      "P9": 3167,
      "Sh": 3168,
      "U0": 3169,
      "W3": 3170,
      "Xu": 3171,
      "Yl": 3172,
      "Zx": 3173,
      "_5": 3174,
      "mag": 3175,
      "sun": 3176,
      "yv": 3177,
      "zJ": 3178,
      "zQ": 3179,
      "ink": 3180,
      "spark": 3181,
      "upgra": 3182,
      "kee": 3183,
      "oJ5o": 3184,
      "HH": 3185,
      "L5": 3186,
      "P2": 3187,
      "P3": 3188,
      "Qo": 3189,
      "Rr": 3190,
      "Rx": 3191,
      "Sa": 3192,
      "TB": 3193,
      "Wi": 3194,
      "_y": 3195,
      "camp": 3196,
      "k0": 3197,
      "kno": 3198,
      "lar": 3199,
      "pbm": 3200,
      "sms": 3201,
      "ust": 3202,
      "vac": 3203,
      "yf": 3204,
      "inform": 3205,
      "stud": 3206,
      "mas": 3207,
      "182": 3208,
      "f73": 3209,
      "sync": 3210,
      "w3s": 3211,
      "HR0": 3212,
      "responsepage": 3213,
      "Confirm": 3214,
      "gateway": 3215,
      "1p": 3216,
      "148": 3217,
      "Action": 3218,
      "Fe": 3219,
      "K9": 3220,
      "LV": 3221,
      "Lh": 3222,
      "Nf": 3223,
      "Oe": 3224,
      "Pi": 3225,
      "Pm": 3226,
      "Pu": 3227,
      "QD": 3228,
      "Rd": 3229,
      "Sl": 3230,
      "So": 3231,
      "TV": 3232,
      "Z3": 3233,
      "_W": 3234,
      "ble": 3235,
      "fer": 3236,
      "jG": 3237,
      "jK": 3238,
      "nT": 3239,
      "qo": 3240,
      "r0": 3241,
      "sbb": 3242,
      "tcb": 3243,
      "u1": 3244,
      "msg": 3245,
      "urhe": 3246,
      "tra": 3247,
      "654": 3248,
      "27oJ5o": 3249,
      "images": 3250,
      "xxx": 3251,
      "kn27oJ5o": 3252,
      "dispatch": 3253,
      "1y": 3254,
      "5g": 3255,
      "Ai": 3256,
      "Dx": 3257,
      "JU": 3258,
      "K0": 3259,
      "Kw": 3260,
      "Nn": 3261,
      "O8": 3262,
      "Pr": 3263,
      "Ps": 3264,
      "R_": 3265,
      "V9": 3266,
      "VV": 3267,
      "Zc": 3268,
      "_source": 3269,
      "gad": 3270,
      "jS": 3271,
      "kT": 3272,
      "mV": 3273,
      "vers": 3274,
      "ont": 3275,
      "iluppo": 3276,
      "ansf": 3277,
      "ada": 3278,
      "haW": 3279,
      "682": 3280,
      "sviluppo": 3281,
      "group": 3282,
      "green": 3283,
      "211": 3284,
      "6g": 3285,
      "EU": 3286,
      "Fp": 3287,
      "Hy": 3288,
      "Ko": 3289,
      "Lp": 3290,
      "Mf": 3291,
      "Os": 3292,
      "Pn": 3293,
      "QG": 3294,
      "Qt": 3295,
      "Sp": 3296,
      "Xi": 3297,
      "ZL": 3298,
      "_2": 3299,
      "cance": 3300,
      "eh": 3301,
      "j8": 3302,
      "jB": 3303,
      "zW": 3304,
      "ind": 3305,
      "inst": 3306,
      "43937": 3307,
      "modu": 3308,
      "sant": 3309,
      "ZW50": 3310,
      "src": 3311,
      "Njcml": 3312,
      "O1xu": 3313,
      "assets": 3314,
      "131843937": 3315,
      "plugins": 3316,
      "lokalnie": 3317,
      "Njcmlwd": 3318,
      "1318439371": 3319,
      "0o": 3320,
      "498": 3321,
      "Go": 3322,
      "KI": 3323,
      "Kd": 3324,
      "Qn": 3325,
      "R7": 3326,
      "RI": 3327,
      "Ru": 3328,
      "S2": 3329,
      "TW": 3330,
      "U2": 3331,
      "Yo": 3332,
      "Zw": 3333,
      "ZT1": 3334,
      "_6": 3335,
      "cF": 3336,
      "gmail": 3337,
      "jV": 3338,
      "jan": 3339,
      "pen": 3340,
      "wcz": 3341,
      "reg": 3342,
      "ors": 3343,
      "ool": 3344,
      "chat": 3345,
      "vey": 3346,
      "shu": 3347,
      "bafkreib": 3348,
      "ification": 3349,
      "149": 3350,
      "YXJ": 3351,
      "files": 3352,
      "rural": 3353,
      "upgrade": 3354,
      "1w": 3355,
      "3H": 3356,
      "9n": 3357,
      "Af": 3358,
      "Cv": 3359,
      "DG": 3360,
      "EQ": 3361,
      "Es": 3362,
      "Gl": 3363,
      "JJ": 3364,
      "Jr": 3365,
      "Kf": 3366,
      "Lz": 3367,
      "Oq": 3368,
      "Pg": 3369,
      "Rj": 3370,
      "Sn": 3371,
      "Sr": 3372,
      "TT": 3373,
      "Ut": 3374,
      "air": 3375,
      "bT": 3376,
      "cle": 3377,
      "eo": 3378,
      "hJ": 3379,
      "ies": 3380,
      "ker": 3381,
      "king": 3382,
      "vZ": 3383,
      "illa": 3384,
      "aces": 3385,
      "ura": 3386,
      "urn": 3387,
      "250": 3388,
      "34q": 3389,
      "produ": 3390,
      "project": 3391,
      "central": 3392,
      "block": 3393,
      "market": 3394,
      "TrackConfirm": 3395,
      "ansfer": 3396,
      "TrackConfirmAction": 3397,
      "1t": 3398,
      "A3": 3399,
      "A_": 3400,
      "Aa": 3401,
      "Bt": 3402,
      "C6": 3403,
      "CV": 3404,
      "Ca": 3405,
      "Cm": 3406,
      "EW": 3407,
      "G6": 3408,
      "Gm": 3409,
      "Gu": 3410,
      "Lw": 3411,
      "Ot": 3412,
      "Qr": 3413,
      "R6": 3414,
      "Rf": 3415,
      "S7": 3416,
      "Sm": 3417,
      "TU": 3418,
      "Vud": 3419,
      "XI": 3420,
      "Xd": 3421,
      "Yu": 3422,
      "ZGV": 3423,
      "cry": 3424,
      "ide": 3425,
      "jD": 3426,
      "l1": 3427,
      "lnk": 3428,
      "ple": 3429,
      "rid": 3430,
      "tut": 3431,
      "vW": 3432,
      "wal": 3433,
      "wetr": 3434,
      "agr": 3435,
      "ata": 3436,
      "weba": 3437,
      "ics": 3438,
      "tri": 3439,
      "253": 3440,
      "191": 3441,
      "oney": 3442,
      "manager": 3443,
      "codeany": 3444,
      "resol": 3445,
      "sharepoint": 3446,
      "azure": 3447,
      "Y3JpcH": 3448,
      "codeanyapp": 3449,
      "0y": 3450,
      "467": 3451,
      "9m": 3452,
      "Ah": 3453,
      "Ci": 3454,
      "Fa": 3455,
      "Fz": 3456,
      "Gw": 3457,
      "Ht": 3458,
      "Kz": 3459,
      "Qe": 3460,
      "S4": 3461,
      "Xs": 3462,
      "YE": 3463,
      "Yg": 3464,
      "_8": 3465,
      "aba": 3466,
      "aae": 3467,
      "ist": 3468,
      "jc": 3469,
      "oU": 3470,
      "sW": 3471,
      "vid": 3472,
      "wil": 3473,
      "y4u": 3474,
      "ded": 3475,
      "bai": 3476,
      "_QIV": 3477,
      "message": 3478,
      "BU": 3479,
      "De": 3480,
      "E7": 3481,
      "G4": 3482,
      "ICA": 3483,
      "Kk": 3484,
      "Km": 3485,
      "Kt": 3486,
      "Kv": 3487,
      "N3": 3488,
      "Ok": 3489,
      "Sz": 3490,
      "V1": 3491,
      "Xq": 3492,
      "YF": 3493,
      "Yh": 3494,
      "aHR0": 3495,
      "bU": 3496,
      "don": 3497,
      "eV": 3498,
      "mal": 3499,
      "son": 3500,
      "thi": 3501,
      "uW": 3502,
      "rec": 3503,
      "reco": 3504,
      "agri": 3505,
      "bafybeier": 3506,
      "235": 3507,
      "180": 3508,
      "bafkreia": 3509,
      "cmd": 3510,
      "AQMjQ7T": 3511,
      "cIjpcI": 3512,
      "0B": 3513,
      "0w": 3514,
      "210": 3515,
      "6h": 3516,
      "948": 3517,
      "BF": 3518,
      "C7": 3519,
      "Cp": 3520,
      "Dh": 3521,
      "EO": 3522,
      "Eu": 3523,
      "Gh": 3524,
      "Gr": 3525,
      "Kh": 3526,
      "Ks": 3527,
      "O4": 3528,
      "RP": 3529,
      "U4": 3530,
      "XL": 3531,
      "Xx": 3532,
      "YI": 3533,
      "ZO": 3534,
      "alo": 3535,
      "bot": 3536,
      "c_": 3537,
      "cio": 3538,
      "tc": 3539,
      "vio": 3540,
      "yw": 3541,
      "band": 3542,
      "stn": 3543,
      "led": 3544,
      "fie": 3545,
      "acted": 3546,
      "id100": 3547,
      "ander": 3548,
      "liv": 3549,
      "usa": 3550,
      "Qmf": 3551,
      "177": 3552,
      "155": 3553,
      "board": 3554,
      "2e3": 3555,
      "odHR": 3556,
      "redacted": 3557,
      "roundcube": 3558,
      "kn27oJ5oY": 3559,
      "033": 3560,
      "2E": 3561,
      "2lu": 3562,
      "5cd": 3563,
      "625": 3564,
      "9g": 3565,
      "B3": 3566,
      "Bj": 3567,
      "Br": 3568,
      "DU": 3569,
      "Dw": 3570,
      "E3": 3571,
      "FO": 3572,
      "IW": 3573,
      "KO": 3574,
      "Kg": 3575,
      "Ki": 3576,
      "LO": 3577,
      "Ls": 3578,
      "MM": 3579,
      "PO": 3580,
      "T8": 3581,
      "Vx": 3582,
      "Win": 3583,
      "X0": 3584,
      "Xt": 3585,
      "Yv": 3586,
      "ZZ": 3587,
      "but": 3588,
      "cQ": 3589,
      "cer": 3590,
      "han": 3591,
      "j_": 3592,
      "kun": 3593,
      "m8": 3594,
      "tor": 3595,
      "w1": 3596,
      "bafybeigy": 3597,
      "websites": 3598,
      "appcheck": 3599,
      "asy": 3600,
      "242": 3601,
      "246": 3602,
      "dir": 3603,
      "club": 3604,
      "http": 3605,
      "zaW": 3606,
      "provin": 3607,
      "XCIsXCJ": 3608,
      "domappcheck": 3609,
      "hyperphp": 3610,
      "uploads": 3611,
      "known": 3612,
      "domappcheckome": 3613,
      "1H": 3614,
      "9v": 3615,
      "CI": 3616,
      "Di": 3617,
      "Ds": 3618,
      "E8": 3619,
      "F6": 3620,
      "Ge": 3621,
      "Gk": 3622,
      "H1": 3623,
      "JV": 3624,
      "Jh": 3625,
      "Jk": 3626,
      "Jq": 3627,
      "MFB": 3628,
      "Of": 3629,
      "PM": 3630,
      "Qx": 3631,
      "Rb": 3632,
      "SN": 3633,
      "U6": 3634,
      "Vh": 3635,
      "Wh": 3636,
      "away": 3637,
      "cam": 3638,
      "dT": 3639,
      "i9": 3640,
      "nte": 3641,
      "sum": 3642,
      "zL": 3643,
      "del": 3644,
      "desk": 3645,
      "arch": 3646,
      "bafybeibq": 3647,
      "spr": 3648,
      "rix": 3649,
      "281": 3650,
      "aaaa": 3651,
      "138": 3652,
      "dd7": 3653,
      "tttt": 3654,
      "XG48": 3655,
      "WN1": 3656,
      "zimbra": 3657,
      "authenticate": 3658,
      "gad_source": 3659,
      "0t": 3660,
      "7C": 3661,
      "Em": 3662,
      "F3": 3663,
      "Gq": 3664,
      "Hl": 3665,
      "Je": 3666,
      "Lg": 3667,
      "O__": 3668,
      "P_": 3669,
      "Pv": 3670,
      "Qk": 3671,
      "Ql": 3672,
      "Sq": 3673,
      "Ss": 3674,
      "UP": 3675,
      "Ul": 3676,
      "Vl": 3677,
      "We": 3678,
      "Xw": 3679,
      "_n": 3680,
      "dOQ": 3681,
      "her": 3682,
      "jam": 3683,
      "jud": 3684,
      "pc": 3685,
      "tal": 3686,
      "core": 3687,
      "iph": 3688,
      "seo": 3689,
      "ina": 3690,
      "sil": 3691,
      "sty": 3692,
      "stat": 3693,
      "fil": 3694,
      "med": 3695,
      "rol": 3696,
      "QmZ": 3697,
      "Qmb": 3698,
      "gne": 3699,
      "649": 3700,
      "cia": 3701,
      "1680": 3702,
      "aign": 3703,
      "a03": 3704,
      "IG5": 3705,
      "x_tr": 3706,
      "royal": 3707,
      "DQSIkWdsW0yxEjajBLZtrQAAAAAAAAAAAAO__": 3708,
      "wczov": 3709,
      "0x": 3710,
      "645": 3711,
      "9q": 3712,
      "Av": 3713,
      "DI": 3714,
      "E4": 3715,
      "EC": 3716,
      "Et": 3717,
      "F4": 3718,
      "Gd": 3719,
      "Gp": 3720,
      "I2": 3721,
      "Iu": 3722,
      "JW": 3723,
      "K3": 3724,
      "L4": 3725,
      "P6": 3726,
      "UT": 3727,
      "Ua": 3728,
      "Wn": 3729,
      "Xn": 3730,
      "Xv": 3731,
      "_x_tr": 3732,
      "cac": 3733,
      "ret": 3734,
      "agent": 3735,
      "ane": 3736,
      "ship": 3737,
      "65d": 3738,
      "brt": 3739,
      "contact": 3740,
      "FU5": 3741,
      "RSO": 3742,
      "servicio": 3743,
      "vD_BwE": 3744,
      "0XHR": 3745,
      "capt": 3746,
      "azurewebsites": 3747,
      "1BQ": 3748,
      "215": 3749,
      "9V": 3750,
      "9XCJ": 3751,
      "BE": 3752,
      "BO": 3753,
      "Bn": 3754,
      "D7": 3755,
      "ES": 3756,
      "Ed": 3757,
      "Gn": 3758,
      "Gv": 3759,
      "He": 3760,
      "J1": 3761,
      "Jn": 3762,
      "KM": 3763,
      "NR": 3764,
      "N_": 3765,
      "Qw": 3766,
      "R3": 3767,
      "SO": 3768,
      "S_": 3769,
      "Sd": 3770,
      "U5": 3771,
      "Xk": 3772,
      "YC": 3773,
      "ZSB": 3774,
      "c47": 3775,
      "drive": 3776,
      "gar": 3777,
      "nge": 3778,
      "o9": 3779,
      "oE": 3780,
      "rz": 3781,
      "sco": 3782,
      "sfr": 3783,
      "def": 3784,
      "sio": 3785,
      "siste": 3786,
      "dows": 3787,
      "west": 3788,
      "spk": 3789,
      "1090": 3790,
      "ssl": 3791,
      "add": 3792,
      "care": 3793,
      "uspd": 3794,
      "fea": 3795,
      "clNU": 3796,
      "attcom": 3797,
      "dhd": 3798,
      "zya": 3799,
      "7ep": 3800,
      "your": 3801,
      "T1JY": 3802,
      "NlRSO": 3803,
      "NENV": 3804,
      "wTy4u": 3805,
      "caseid100": 3806,
      "NSFU5": 3807,
      "swissp": 3808,
      "themes": 3809,
      "UEwTy4u": 3810,
      "OEdOQ": 3811,
      "campaign": 3812,
      "information": 3813,
      "studio": 3814,
      "MFBNSFU5": 3815,
      "WN1clNU": 3816,
      "DQSIkWdsW0yxEjajBLZtrQAAAAAAAAAAAAO__WN1clNU": 3817,
      "1BQNlRSO": 3818,
      "T1JYOEdOQ": 3819,
      "NENVT1JYOEdOQ": 3820,
      "MFBNSFU5NENVT1JYOEdOQ": 3821,
      "DQSIkWdsW0yxEjajBLZtrQAAAAAAAAAAAAO__WN1clNUMFBNSFU5NENVT1JYOEdOQ": 3822,
      "1BQNlRSOUEwTy4u": 3823,
      "DQSIkWdsW0yxEjajBLZtrQAAAAAAAAAAAAO__WN1clNUMFBNSFU5NENVT1JYOEdOQ1BQNlRSOUEwTy4u": 3824,
      "4W": 3825,
      "Bx": 3826,
      "E0": 3827,
      "Fm": 3828,
      "Fwi": 3829,
      "GC": 3830,
      "Hs": 3831,
      "Iz": 3832,
      "Jv": 3833,
      "Ku": 3834,
      "MZ": 3835,
      "P7": 3836,
      "Q6": 3837,
      "Ra": 3838,
      "SR": 3839,
      "X6": 3840,
      "Yp": 3841,
      "Z_": 3842,
      "_7": 3843,
      "ail": 3844,
      "cdn": 3845,
      "ham": 3846,
      "i0": 3847,
      "rcl": 3848,
      "t8": 3849,
      "stri": 3850,
      "lab": 3851,
      "nto": 3852,
      "1098": 3853,
      "ical": 3854,
      "ito": 3855,
      "236": 3856,
      "435": 3857,
      "657": 3858,
      "pot": 3859,
      "116": 3860,
      "354": 3861,
      "56d": 3862,
      "222": 3863,
      "dyn": 3864,
      "c2Vy": 3865,
      "syn": 3866,
      "g4g4": 3867,
      "YW1": 3868,
      "action": 3869,
      "XG5cd": 3870,
      "office365": 3871,
      "cHM6": 3872,
      "AWnogHe": 3873,
      "AME": 3874,
      "odHRwczov": 3875,
      "1n": 3876,
      "5cc": 3877,
      "9i": 3878,
      "9k": 3879,
      "Ab": 3880,
      "Az": 3881,
      "Bl": 3882,
      "Cj": 3883,
      "F5": 3884,
      "Fg": 3885,
      "Fj": 3886,
      "Hx": 3887,
      "Iq": 3888,
      "JB": 3889,
      "JQ": 3890,
      "Ja": 3891,
      "Jm": 3892,
      "Md": 3893,
      "NN": 3894,
      "Oh": 3895,
      "Qv": 3896,
      "VX": 3897,
      "XO": 3898,
      "YP": 3899,
      "Yd": 3900,
      "Zu": 3901,
      "ZG9": 3902,
      "bP": 3903,
      "i_": 3904,
      "jgw": 3905,
      "kar": 3906,
      "mat": 3907,
      "mud": 3908,
      "rc": 3909,
      "vol": 3910,
      "inte": 3911,
      "ora": 3912,
      "1029": 3913,
      "netflix": 3914,
      "230": 3915,
      "2345": 3916,
      "oll": 3917,
      "676": 3918,
      "serve": 3919,
      "kees": 3920,
      "763": 3921,
      "YWls": 3922,
      "aW9u": 3923,
      "helpid": 3924,
      "allegrolokalnie": 3925,
      "metamask": 3926,
      "resolve": 3927,
      "cHM6Ly": 3928,
      "0p": 3929,
      "8x": 3930,
      "827": 3931,
      "==": 3932,
      "Cf": 3933,
      "D4": 3934,
      "Dn": 3935,
      "Du": 3936,
      "EH": 3937,
      "Ez": 3938,
      "FK": 3939,
      "Ga": 3940,
      "I9": 3941,
      "Ie": 3942,
      "Im": 3943,
      "J8": 3944,
      "Jj": 3945,
      "Lv": 3946,
      "Rc": 3947,
      "U7": 3948,
      "Ve": 3949,
      "Vr": 3950,
      "Wy": 3951,
      "Xo": 3952,
      "YR": 3953,
      "Yj": 3954,
      "das": 3955,
      "emp": 3956,
      "epi": 3957,
      "hV": 3958,
      "hstn": 3959,
      "ile": 3960,
      "mup": 3961,
      "pB": 3962,
      "pli": 3963,
      "xcg": 3964,
      "inn": 3965,
      "fit": 3966,
      "1043": 3967,
      "1015": 3968,
      "1047": 3969,
      "1057": 3970,
      "1099": 3971,
      "men": 3972,
      "432": 3973,
      "434": 3974,
      "she": 3975,
      "252": 3976,
      "150": 3977,
      "283": 3978,
      "cyou": 3979,
      "saW": 3980,
      "XB0": 3981,
      "shared": 3982,
      "CHAME": 3983,
      "global": 3984,
      "cakeresume": 3985,
      "lation": 3986,
      "confirmation": 3987,
      "personal": 3988,
      "captcha": 3989,
      "CHAMELE": 3990,
      "098": 3991,
      "110": 3992,
      "165": 3993,
      "144": 3994,
      "2U": 3995,
      "537": 3996,
      "9o": 3997,
      "9r": 3998,
      "Al": 3999,
      "D0": 4000,
      "E2": 4001,
      "Ee": 4002,
      "GO": 4003,
      "H5": 4004,
      "LI": 4005,
      "LN": 4006,
      "L_": 4007,
      "Ll": 4008,
      "Na": 4009,
      "O5": 4010,
      "Pb": 4011,
      "Pj": 4012,
      "Pl": 4013,
      "S0": 4014,
      "TJ": 4015,
      "V_": 4016,
      "W4": 4017,
      "Wv": 4018,
      "bC": 4019,
      "cde": 4020,
      "flo": 4021,
      "m9": 4022,
      "pid": 4023,
      "pur": 4024,
      "pus": 4025,
      "ton": 4026,
      "vc2": 4027,
      "wit": 4028,
      "bad": 4029,
      "ami": 4030,
      "alert": 4031,
      "005": 4032,
      "sie": 4033,
      "bafybeiba": 4034,
      "bafybeiad": 4035,
      "bafybeigv": 4036,
      "optus": 4037,
      "urheb": 4038,
      "chan": 4039,
      "202": 4040,
      "209": 4041,
      "434e": 4042,
      "poste": 4043,
      "248": 4044,
      "675": 4045,
      "348": 4046,
      "640": 4047,
      "646": 4048,
      "able": 4049,
      "263": 4050,
      "485": 4051,
      "c3d": 4052,
      "princ": 4053,
      "hbWU": 4054,
      "849": 4055,
      "clien": 4056,
      "walletpage": 4057,
      "cIixcIm": 4058,
      "brizy": 4059,
      "replit": 4060,
      "system": 4061,
      "keepo": 4062,
      "0c2": 4063,
      "6v6": 4064,
      "D6": 4065,
      "EA": 4066,
      "Ek": 4067,
      "Eq": 4068,
      "GM": 4069,
      "Gi": 4070,
      "Gz": 4071,
      "Hh": 4072,
      "Hq": 4073,
      "KN": 4074,
      "Kl": 4075,
      "Pf": 4076,
      "Q4": 4077,
      "QR": 4078,
      "Qh": 4079,
      "Qq": 4080,
      "Qz": 4081,
      "R2": 4082,
      "Tx": 4083,
      "Ue": 4084,
      "Um": 4085,
      "VD": 4086,
      "VO": 4087,
      "Wm": 4088,
      "XN": 4089,
      "ZM": 4090,
      "_a": 4091,
      "_v": 4092,
      "c37": 4093,
      "gor": 4094,
      "kon": 4095,
      "num": 4096,
      "ric": 4097,
      "van": 4098,
      "invoice": 4099,
      "ams": 4100,
      "sti": 4101,
      "bafybeidf": 4102,
      "1067": 4103,
      "1055": 4104,
      "1038": 4105,
      "cher": 4106,
      "cky": 4107,
      "servi": 4108,
      "1573": 4109,
      "bafkreig": 4110,
      "edit": 4111,
      "confi": 4112,
      "162": 4113,
      "fait": 4114,
      "4d38": 4115,
      "1070": 4116,
      "contr": 4117,
      "servicefr": 4118,
      "GFy": 4119,
      "banrural": 4120,
      "validacion": 4121,
      "hotm": 4122,
      "WFpb": 4123,
      "correo": 4124,
      "community": 4125,
      "0T": 4126,
      "1B": 4127,
      "343": 4128,
      "4B": 4129,
      "425": 4130,
      "8q": 4131,
      "8w": 4132,
      "935": 4133,
      "=%": 4134,
      "Bq": 4135,
      "Bz": 4136,
      "Cu": 4137,
      "Dq": 4138,
      "Dr": 4139,
      "D5cb": 4140,
      "E6": 4141,
      "Er": 4142,
      "F7": 4143,
      "G5": 4144,
      "GS": 4145,
      "HE": 4146,
      "HI": 4147,
      "HN": 4148,
      "JX": 4149,
      "Js": 4150,
      "KA": 4151,
      "L9": 4152,
      "Net": 4153,
      "Ph": 4154,
      "Uf": 4155,
      "Uk": 4156,
      "W6": 4157,
      "Wa": 4158,
      "X4": 4159,
      "cgi": 4160,
      "dash": 4161,
      "gQ": 4162,
      "lle": 4163,
      "pbn": 4164,
      "too": 4165,
      "y4": 4166,
      "ipe": 4167,
      "amer": 4168,
      "amaz": 4169,
      "ari": 4170,
      "bafybeigp": 4171,
      "dos": 4172,
      "max": 4173,
      "udi": 4174,
      "1025": 4175,
      "1087": 4176,
      "ups": 4177,
      "QmcU": 4178,
      "457": 4179,
      "isa": 4180,
      "uspe": 4181,
      "274": 4182,
      "gent": 4183,
      "195": 4184,
      "c2V0": 4185,
      "ski": 4186,
      "163": 4187,
      "eec6": 4188,
      "1005": 4189,
      "1007": 4190,
      "j5cb": 4191,
      "jb20": 4192,
      "finity": 4193,
      "utm_source": 4194,
      "widget": 4195,
      "9w": 4196,
      "BY": 4197,
      "Ew": 4198,
      "FN": 4199,
      "GG": 4200,
      "H4": 4201,
      "Hp": 4202,
      "Ia": 4203,
      "J5": 4204,
      "Kc": 4205,
      "LM": 4206,
      "Nc": 4207,
      "Q5": 4208,
      "Qp": 4209,
      "SX": 4210,
      "Su": 4211,
      "T2": 4212,
      "Te": 4213,
      "Us": 4214,
      "V2": 4215,
      "Vo": 4216,
      "_h": 4217,
      "_s": 4218,
      "_onedrive": 4219,
      "cY": 4220,
      "cfs": 4221,
      "fnt": 4222,
      "f44": 4223,
      "gW": 4224,
      "nor": 4225,
      "x8": 4226,
      "y2": 4227,
      "bab": 4228,
      "onsite": 4229,
      "lang": 4230,
      "ood": 4231,
      "1018": 4232,
      "1040": 4233,
      "wwx": 4234,
      "uri": 4235,
      "urt": 4236,
      "ansport": 4237,
      "rou": 4238,
      "trans": 4239,
      "virt": 4240,
      "113": 4241,
      "water": 4242,
      "293": 4243,
      "bt9": 4244,
      "214": 4245,
      "2a4d38": 4246,
      "pant": 4247,
      "jb25": 4248,
      "smart": 4249,
      "vzgs": 4250,
      "3p0c2": 4251,
      "medium": 4252,
      "A1gin": 4253,
      "ZXJzaW": 4254,
      "9876543": 4255,
      "1581573": 4256,
      "EAAYASAAEg": 4257,
      "customer": 4258,
      "f73eec6": 4259,
      "_x_tr_": 4260,
      "CHAMELEON": 4261,
      "princip": 4262,
      "2a4d38f73eec6": 4263,
      "3p0c2bt9": 4264,
      "A1gina": 4265,
      "ZXJzaW9u": 4266,
      "15815732a4d38f73eec6": 4267,
      "15815732a4d38f73eec6434e": 4268,
      "##": 4269,
      "1r": 4270,
      "14b": 4271,
      "3R": 4272,
      "9x": 4273,
      "B7": 4274,
      "CC": 4275,
      "Dk": 4276,
      "H0": 4277,
      "H9": 4278,
      "HX": 4279,
      "Hm": 4280,
      "IR": 4281,
      "Il": 4282,
      "J2": 4283,
      "K4": 4284,
      "OF": 4285,
      "OK": 4286,
      "Om": 4287,
      "QX": 4288,
      "Qa": 4289,
      "RC": 4290,
      "Ur": 4291,
      "Uz": 4292,
      "V5": 4293,
      "V6": 4294,
      "Vv": 4295,
      "_d": 4296,
      "ain": 4297,
      "aXB0": 4298,
      "b45": 4299,
      "ead": 4300,
      "espace": 4301,
      "event": 4302,
      "fae": 4303,
      "gla": 4304,
      "money": 4305,
      "deo": 4306,
      "report": 4307,
      "inf": 4308,
      "inch": 4309,
      "eb2": 4310,
      "lobal": 4311,
      "orte": 4312,
      "ong": 4313,
      "ago": 4314,
      "bafybeibn": 4315,
      "bafybeif2": 4316,
      "websrc": 4317,
      "udx": 4318,
      "1017": 4319,
      "ani": 4320,
      "ante": 4321,
      "iti": 4322,
      "437": 4323,
      "43e": 4324,
      "117": 4325,
      "uspb": 4326,
      "352": 4327,
      "179": 4328,
      "abc": 4329,
      "290": 4330,
      "nel": 4331,
      "aaa": 4332,
      "904": 4333,
      "proto": 4334,
      "z74": 4335,
      "3Bcontinue": 4336,
      "zdH": 4337,
      "vate": 4338,
      "4yx": 4339,
      "lx0XHR": 4340,
      "drop": 4341,
      "XCIg": 4342,
      "NyaXB0": 4343,
      "43015815732a4d38f73eec6434e": 4344,
      "3A16794": 4345,
      "session": 4346,
      "iphone": 4347,
      "1x": 4348,
      "847": 4349,
      "App": 4350,
      "B4": 4351,
      "BB": 4352,
      "Bi": 4353,
      "Bw": 4354,
      "DA": 4355,
      "Hd": 4356,
      "J6": 4357,
      "Kj": 4358,
      "LA": 4359,
      "Ld": 4360,
      "O9": 4361,
      "OC": 4362,
      "Ou": 4363,
      "Pd": 4364,
      "Sb": 4365,
      "Td": 4366,
      "Tm": 4367,
      "VC": 4368,
      "Vd": 4369,
      "Vf": 4370,
      "W9": 4371,
      "Zb": 4372,
      "_r": 4373,
      "cus": 4374,
      "dse": 4375,
      "ej": 4376,
      "fun": 4377,
      "lcn": 4378,
      "pal": 4379,
      "pap": 4380,
      "zCe": 4381,
      "dee": 4382,
      "bell": 4383,
      "store": 4384,
      "apis": 4385,
      "bafybeiby": 4386,
      "anel": 4387,
      "char": 4388,
      "raw": 4389,
      "die": 4390,
      "447": 4391,
      "288": 4392,
      "cmFt": 4393,
      "hau": 4394,
      "1008": 4395,
      "irs": 4396,
      "mua": 4397,
      "XG5cb": 4398,
      "smbc": 4399,
      "mailer": 4400,
      "utm_medium": 4401,
      "letter": 4402,
      "protect": 4403,
      "XCI6XCJ": 4404,
      "aHR0cHM6Ly": 4405,
      "principal": 4406,
      "0n": 4407,
      "0q": 4408,
      "125": 4409,
      "147": 4410,
      "427": 4411,
      "8D": 4412,
      "848": 4413,
      "9p": 4414,
      "?#": 4415,
      "Ea": 4416,
      "Fb": 4417,
      "G3": 4418,
      "HF": 4419,
      "HY": 4420,
      "Hn": 4421,
      "IX": 4422,
      "Ib": 4423,
      "Iv": 4424,
      "JS": 4425,
      "Ji": 4426,
      "Jo": 4427,
      "Od": 4428,
      "PN": 4429,
      "PC9": 4430,
      "Qi": 4431,
      "Tt": 4432,
      "UZ": 4433,
      "Uo": 4434,
      "Vj": 4435,
      "WI": 4436,
      "Wj": 4437,
      "Wr": 4438,
      "Wz": 4439,
      "Way": 4440,
      "Zo": 4441,
      "_m": 4442,
      "b48": 4443,
      "cK": 4444,
      "cgd": 4445,
      "din": 4446,
      "dpd": 4447,
      "f34q": 4448,
      "ive": 4449,
      "jR": 4450,
      "tac": 4451,
      "dest": 4452,
      "baru": 4453,
      "loy": 4454,
      "ats": 4455,
      "bafybeiho": 4456,
      "bafybeifr": 4457,
      "bafybeiay": 4458,
      "bafybeicw": 4459,
      "ope": 4460,
      "ils": 4461,
      "ac76": 4462,
      "1045": 4463,
      "1044": 4464,
      "life": 4465,
      "CXzCe": 4466,
      "457e": 4467,
      "heonsite": 4468,
      "173": 4469,
      "verif": 4470,
      "193": 4471,
      "199": 4472,
      "136": 4473,
      "authu": 4474,
      "jdEo": 4475,
      "GVnP": 4476,
      "af_": 4477,
      "v7y": 4478,
      "6sZJ": 4479,
      "uhkees": 4480,
      "ZyFy": 4481,
      "SWZyFy": 4482,
      "PBSWZyFy": 4483,
      "rhN4": 4484,
      "mytrackingr": 4485,
      "zHrhN4": 4486,
      "colle": 4487,
      "18596": 4488,
      "G2CXzCe": 4489,
      "subf": 4490,
      "univer": 4491,
      "domappcheckomeg": 4492,
      "QmcUzHrhN4": 4493,
      "pantheonsite": 4494,
      "udxG2CXzCe": 4495,
      "iphoneX": 4496,
      "f34qpm": 4497,
      "jdEoPBSWZyFy": 4498,
      "GVnPjdEoPBSWZyFy": 4499,
      "6sZJf34qpm": 4500,
      "uhkeesvd": 4501,
      "QmcUzHrhN4GVnPjdEoPBSWZyFy": 4502,
      "udxG2CXzCe6sZJf34qpm": 4503,
      "QmcUzHrhN4GVnPjdEoPBSWZyFyudxG2CXzCe6sZJf34qpm": 4504,
      "-%": 4505,
      "0u": 4506,
      "146": 4507,
      "140": 4508,
      "2ww": 4509,
      "225": 4510,
      "567": 4511,
      "8h": 4512,
      "8n": 4513,
      "8u": 4514,
      "897": 4515,
      "B6": 4516,
      "Ck": 4517,
      "Dp": 4518,
      "FL": 4519,
      "Fv": 4520,
      "HG": 4521,
      "Hi": 4522,
      "Hk": 4523,
      "Hv": 4524,
      "Hw": 4525,
      "Ir": 4526,
      "SK": 4527,
      "T7": 4528,
      "TM": 4529,
      "Tn": 4530,
      "Ty": 4531,
      "Uh": 4532,
      "V4": 4533,
      "WP": 4534,
      "Wd": 4535,
      "Wp": 4536,
      "bip": 4537,
      "b182": 4538,
      "f65": 4539,
      "gE": 4540,
      "hP": 4541,
      "jer": 4542,
      "mid": 4543,
      "pop": 4544,
      "tun": 4545,
      "vdh": 4546,
      "de12": 4547,
      "rea": 4548,
      "sed": 4549,
      "lom": 4550,
      "long": 4551,
      "tex": 4552,
      "sic": 4553,
      "leon": 4554,
      "bafybeieb": 4555,
      "bafybeife": 4556,
      "bafybeiae": 4557,
      "oot": 4558,
      "1065": 4559,
      "1064": 4560,
      "idad": 4561,
      "csb": 4562,
      "hoto": 4563,
      "239": 4564,
      "ckvzgs": 4565,
      "656": 4566,
      "cae": 4567,
      "647": 4568,
      "982e3": 4569,
      "187": 4570,
      "18a03": 4571,
      "175": 4572,
      "287": 4573,
      "887": 4574,
      "ukh": 4575,
      "hajud": 4576,
      "mxv": 4577,
      "ular": 4578,
      "lui": 4579,
      "autent": 4580,
      "60ca": 4581,
      "dential": 4582,
      "intern": 4583,
      "acess": 4584,
      "banca": 4585,
      "loading": 4586,
      "Transport": 4587,
      "utm_campaign": 4588,
      "correos": 4589,
      "Label": 4590,
      "119de12": 4591,
      "management": 4592,
      "jklckvzgs": 4593,
      "module": 4594,
      "Y3JpcHQ": 4595,
      "033982e3": 4596,
      "jgwjklckvzgs": 4597,
      "wwxhajud": 4598,
      "virtual": 4599,
      "Waybill": 4600,
      "authuser": 4601,
      "18a03119de12": 4602,
      "wwxhajudjgwjklckvzgs": 4603,
      "1h": 4604,
      "124": 4605,
      "8s": 4606,
      "947": 4607,
      "AP": 4608,
      "CM": 4609,
      "CZ": 4610,
      "Cb": 4611,
      "Df": 4612,
      "FF": 4613,
      "FM": 4614,
      "Fl": 4615,
      "H2": 4616,
      "HD": 4617,
      "H_": 4618,
      "IA": 4619,
      "Ju": 4620,
      "Nb": 4621,
      "Nld": 4622,
      "QK": 4623,
      "RZ": 4624,
      "SC": 4625,
      "TQ": 4626,
      "To": 4627,
      "UU": 4628,
      "Ud": 4629,
      "VK": 4630,
      "VP": 4631,
      "VY": 4632,
      "YK": 4633,
      "_q": 4634,
      "b4e": 4635,
      "cP": 4636,
      "dzp": 4637,
      "est": 4638,
      "fly": 4639,
      "fcu": 4640,
      "got": 4641,
      "gmx": 4642,
      "hor": 4643,
      "lng": 4644,
      "n9": 4645,
      "vap": 4646,
      "rez": 4647,
      "redi": 4648,
      "sec": 4649,
      "bae": 4650,
      "love": 4651,
      "tec": 4652,
      "ala": 4653,
      "ety": 4654,
      "bafybeibe": 4655,
      "bafybeidn": 4656,
      "bafybeicd": 4657,
      "bafybeicv": 4658,
      "wep": 4659,
      "ille": 4660,
      "googleapis": 4661,
      "ione": 4662,
      "1088": 4663,
      "1036": 4664,
      "1058": 4665,
      "ioCx": 4666,
      "ador": 4667,
      "208": 4668,
      "hoster": 4669,
      "4376": 4670,
      "exp": 4671,
      "658": 4672,
      "244": 4673,
      "ctt": 4674,
      "377": 4675,
      "44e": 4676,
      "184": 4677,
      "172": 4678,
      "266": 4679,
      "bbre": 4680,
      "777": 4681,
      "hi2": 4682,
      "bnQu": 4683,
      "404": 4684,
      "prod": 4685,
      "xel": 4686,
      "1d20": 4687,
      "a056d": 4688,
      "MDAw": 4689,
      "ID0": 4690,
      "BHioCx": 4691,
      "chase": 4692,
      "finance": 4693,
      "centr": 4694,
      "messager": 4695,
      "broad": 4696,
      "pancake": 4697,
      "fleek": 4698,
      "NjcmlwdD5cb": 4699,
      "swisspass": 4700,
      "optusnet": 4701,
      "contract": 4702,
      "Netflix": 4703,
      "amazon": 4704,
      "ac761d20": 4705,
      "a056d88": 4706,
      "0l": 4707,
      "1T": 4708,
      "1m": 4709,
      "1q": 4710,
      "145": 4711,
      "227": 4712,
      "3ri": 4713,
      "8o": 4714,
      "8y": 4715,
      "Bu": 4716,
      "Cg": 4717,
      "DR": 4718,
      "Da": 4719,
      "EP": 4720,
      "GZ": 4721,
      "Gs": 4722,
      "Ha": 4723,
      "II": 4724,
      "J3": 4725,
      "Jw": 4726,
      "Lb": 4727,
      "Lf": 4728,
      "O7": 4729,
      "QA": 4730,
      "RM": 4731,
      "Rpb": 4732,
      "SF": 4733,
      "Sv": 4734,
      "UO": 4735,
      "Ui": 4736,
      "V7": 4737,
      "VA": 4738,
      "Wl": 4739,
      "Ws": 4740,
      "Wt": 4741,
      "Xa": 4742,
      "YM": 4743,
      "_9": 4744,
      "_f": 4745,
      "_start": 4746,
      "_type": 4747,
      "a34": 4748,
      "eur": 4749,
      "fbe": 4750,
      "fad": 4751,
      "gD": 4752,
      "gol": 4753,
      "ire": 4754,
      "ier": 4755,
      "mor": 4756,
      "mul": 4757,
      "pin": 4758,
      "sbs": 4759,
      "tas": 4760,
      "yam": 4761,
      "cool": 4762,
      "demo": 4763,
      "debi": 4764,
      "design": 4765,
      "ree": 4766,
      "lou": 4767,
      "ben": 4768,
      "sity": 4769,
      "etcloud": 4770,
      "bafybeice": 4771,
      "oper": 4772,
      "1035": 4773,
      "1048": 4774,
      "1019": 4775,
      "1077": 4776,
      "mailvalidation": 4777,
      "ssh": 4778,
      "ssue": 4779,
      "cho": 4780,
      "206": 4781,
      "ue4": 4782,
      "hos": 4783,
      "454": 4784,
      "45e": 4785,
      "trade": 4786,
      "677": 4787,
      "index1": 4788,
      "hey": 4789,
      "fran": 4790,
      "474": 4791,
      "280": 4792,
      "56y": 4793,
      "forma": 4794,
      "jky": 4795,
      "control": 4796,
      "bsud": 4797,
      "YW1l": 4798,
      "Vyc2": 4799,
      "clicketcloud": 4800,
      "servic": 4801,
      "sparkasse": 4802,
      "odHRwczovL": 4803,
      "5cc43015815732a4d38f73eec6434e": 4804,
      "dashboard": 4805,
      "0hi": 4806,
      "135": 4807,
      "1cI": 4808,
      "1haW": 4809,
      "218": 4810,
      "216": 4811,
      "8T": 4812,
      "AZ": 4813,
      "BW": 4814,
      "Bd": 4815,
      "Bo": 4816,
      "Cc": 4817,
      "Cd": 4818,
      "Db": 4819,
      "EY": 4820,
      "Hz": 4821,
      "Npb": 4822,
      "O3": 4823,
      "Op": 4824,
      "QM": 4825,
      "Qd": 4826,
      "Rg": 4827,
      "SL": 4828,
      "Sf": 4829,
      "T9": 4830,
      "Tk": 4831,
      "UX": 4832,
      "Uq": 4833,
      "Vq": 4834,
      "b33": 4835,
      "cri": 4836,
      "did": 4837,
      "far": 4838,
      "fact": 4839,
      "jot": 4840,
      "mart": 4841,
      "mis": 4842,
      "mum": 4843,
      "nC": 4844,
      "nat": 4845,
      "pon": 4846,
      "pat": 4847,
      "rad": 4848,
      "sS": 4849,
      "sing": 4850,
      "u9": 4851,
      "vhs": 4852,
      "zip": 4853,
      "cod": 4854,
      "search": 4855,
      "sier": 4856,
      "stu": 4857,
      "bafybeico": 4858,
      "bafybeiew": 4859,
      "bafybeib3": 4860,
      "bafybeic2": 4861,
      "bafybeicm": 4862,
      "bafybeic5": 4863,
      "down": 4864,
      "wel": 4865,
      "spy": 4866,
      "ilder": 4867,
      "ational": 4868,
      "list": 4869,
      "light": 4870,
      "ves": 4871,
      "Qmc": 4872,
      "how": 4873,
      "45aae": 4874,
      "249": 4875,
      "644": 4876,
      "cto": 4877,
      "dfgh": 4878,
      "986": 4879,
      "cbf": 4880,
      "attt": 4881,
      "ffar": 4882,
      "cc5": 4883,
      "990": 4884,
      "901": 4885,
      "cy9": 4886,
      "f3r": 4887,
      "mm7": 4888,
      "gICB": 4889,
      "steam": 4890,
      "G9y": 4891,
      "e722": 4892,
      "connection": 4893,
      "clients": 4894,
      "KTtcb": 4895,
      "next": 4896,
      "wards": 4897,
      "gareza": 4898,
      "santander": 4899,
      "ac761d20e722": 4900,
      "0v": 4901,
      "057": 4902,
      "164": 4903,
      "634": 4904,
      "60000": 4905,
      "899": 4906,
      "934": 4907,
      "BM": 4908,
      "BR": 4909,
      "CN": 4910,
      "CY": 4911,
      "D2": 4912,
      "DP": 4913,
      "H7": 4914,
      "Hf": 4915,
      "Hlw": 4916,
      "I7": 4917,
      "Ik": 4918,
      "JG": 4919,
      "Jz": 4920,
      "KP": 4921,
      "NZ": 4922,
      "O6": 4923,
      "Oo": 4924,
      "Oz": 4925,
      "Page": 4926,
      "PTE": 4927,
      "QE": 4928,
      "TS": 4929,
      "Tq": 4930,
      "Tv": 4931,
      "UY": 4932,
      "Uw": 4933,
      "Vg": 4934,
      "W7": 4935,
      "WR": 4936,
      "Yb": 4937,
      "_I": 4938,
      "_t": 4939,
      "_x": 4940,
      "aff": 4941,
      "aws": 4942,
      "bde": 4943,
      "b47": 4944,
      "cX": 4945,
      "cbe": 4946,
      "cit": 4947,
      "c45": 4948,
      "c44": 4949,
      "cale": 4950,
      "dan": 4951,
      "fan": 4952,
      "f48": 4953,
      "jap": 4954,
      "jet": 4955,
      "jc3": 4956,
      "map": 4957,
      "mtt": 4958,
      "o5q": 4959,
      "p9": 4960,
      "pack": 4961,
      "rus": 4962,
      "sop": 4963,
      "san": 4964,
      "sxd": 4965,
      "w_": 4966,
      "was": 4967,
      "x9": 4968,
      "yar": 4969,
      "zio": 4970,
      "fse": 4971,
      "bed": 4972,
      "bene": 4973,
      "007": 4974,
      "stre": 4975,
      "bafybeibi": 4976,
      "bafybeifn": 4977,
      "bafybeibk": 4978,
      "spar": 4979,
      "1096": 4980,
      "1037": 4981,
      "1060": 4982,
      "ict": 4983,
      "urke": 4984,
      "urvac": 4985,
      "mails": 4986,
      "usg": 4987,
      "chi": 4988,
      "challe": 4989,
      "ad3b": 4990,
      "hou": 4991,
      "433": 4992,
      "exo": 4993,
      "logi": 4994,
      "da5": 4995,
      "673": 4996,
      "cay": 4997,
      "64e": 4998,
      "968": 4999,
      "fed": 5000,
      "188": 5001,
      "157": 5002,
      "291": 5003,
      "links": 5004,
      "AAE": 5005,
      "ccr": 5006,
      "56d4": 5007,
      "grup": 5008,
      "gfd": 5009,
      "160": 5010,
      "eee": 5011,
      "ahu": 5012,
      "944376": 5013,
      "va2": 5014,
      "hqp": 5015,
      "b9197": 5016,
      "super": 5017,
      "HJl": 5018,
      "rectify": 5019,
      "5fgfgf": 5020,
      "3c56d4": 5021,
      "VmVyc2": 5022,
      "quest": 5023,
      "682ad3b": 5024,
      "65d944376": 5025,
      "XG5cdFx": 5026,
      "protocol": 5027,
      "zdHls": 5028,
      "45aae3c56d4": 5029,
      "challenge": 5030,
      "b919745aae3c56d4": 5031,
      "682ad3b65d944376": 5032,
      "682ad3b65d944376b919745aae3c56d4": 5033,
      "0P": 5034,
      "121": 5035,
      "220": 5036,
      "243": 5037,
      "3_": 5038,
      "Be": 5039,
      "Bk": 5040,
      "DM": 5041,
      "DS": 5042,
      "DY": 5043,
      "D_": 5044,
      "Dd": 5045,
      "Dj": 5046,
      "En": 5047,
      "Ff": 5048,
      "Ho": 5049,
      "J4": 5050,
      "J9": 5051,
      "JE": 5052,
      "JO": 5053,
      "Jx": 5054,
      "Mb": 5055,
      "Ov": 5056,
      "TK": 5057,
      "TO": 5058,
      "Ta": 5059,
      "UM": 5060,
      "UN": 5061,
      "Up": 5062,
      "VS": 5063,
      "Wg": 5064,
      "WZXJzaW9u": 5065,
      "XZ": 5066,
      "YN": 5067,
      "_url": 5068,
      "b56": 5069,
      "cce": 5070,
      "c43": 5071,
      "eki": 5072,
      "ffi": 5073,
      "h9": 5074,
      "lD": 5075,
      "pak": 5076,
      "qcv": 5077,
      "ran": 5078,
      "sam": 5079,
      "sad": 5080,
      "ude": 5081,
      "xQ": 5082,
      "dele": 5083,
      "bee": 5084,
      "onlin": 5085,
      "stan": 5086,
      "lah": 5087,
      "device": 5088,
      "bafybeiex": 5089,
      "bafybeibb": 5090,
      "bafybeibo": 5091,
      "bafybeigr": 5092,
      "bafybeigf": 5093,
      "bafybeib5": 5094,
      "bafybeifk": 5095,
      "dod": 5096,
      "oom": 5097,
      "cf6": 5098,
      "spo": 5099,
      "spaces": 5100,
      "1030": 5101,
      "ano": 5102,
      "lie": 5103,
      "upport": 5104,
      "254": 5105,
      "oto": 5106,
      "df0": 5107,
      "980": 5108,
      "cb7": 5109,
      "297": 5110,
      "ing_": 5111,
      "578": 5112,
      "487": 5113,
      "south": 5114,
      "190": 5115,
      "adow": 5116,
      "today": 5117,
      "forfait": 5118,
      "997": 5119,
      "tifi": 5120,
      "hite": 5121,
      "360": 5122,
      "fax": 5123,
      "join": 5124,
      "2e6": 5125,
      "cw7": 5126,
      "950": 5127,
      "qyni": 5128,
      "c1wi": 5129,
      "ight": 5130,
      "desco": 5131,
      "3D1": 5132,
      "PVwic": 5133,
      "Z2V0": 5134,
      "Wxl": 5135,
      "case100": 5136,
      "wordpress": 5137,
      "1R": 5138,
      "1W": 5139,
      "137": 5140,
      "224": 5141,
      "8i": 5142,
      "8p": 5143,
      "B0": 5144,
      "Bg": 5145,
      "D3": 5146,
      "D5": 5147,
      "Dv": 5148,
      "GP": 5149,
      "HS": 5150,
      "IS": 5151,
      "IZ": 5152,
      "If": 5153,
      "Io": 5154,
      "JZ": 5155,
      "Jvd": 5156,
      "MN": 5157,
      "O2": 5158,
      "T3": 5159,
      "V3": 5160,
      "VL": 5161,
      "WX": 5162,
      "Wb": 5163,
      "_S": 5164,
      "_c": 5165,
      "_o": 5166,
      "_u": 5167,
      "cR": 5168,
      "cco": 5169,
      "c46": 5170,
      "fen": 5171,
      "f37": 5172,
      "fhx": 5173,
      "hon": 5174,
      "hab": 5175,
      "hjk": 5176,
      "hash": 5177,
      "jdf": 5178,
      "j48": 5179,
      "kok": 5180,
      "pes": 5181,
      "uZ": 5182,
      "usi": 5183,
      "vbn": 5184,
      "xmx": 5185,
      "zen": 5186,
      "zum": 5187,
      "zcv": 5188,
      "zfea": 5189,
      "ipdzp": 5190,
      "de7": 5191,
      "requi": 5192,
      "sea": 5193,
      "see": 5194,
      "loo": 5195,
      "arn": 5196,
      "lex": 5197,
      "nta": 5198,
      "bafybeick": 5199,
      "bafybeict": 5200,
      "bafybeidh": 5201,
      "bafybeigx": 5202,
      "bafybeig5": 5203,
      "dot": 5204,
      "opo": 5205,
      "ma4yx": 5206,
      "udhi2": 5207,
      "ions": 5208,
      "1034": 5209,
      "1027": 5210,
      "1028": 5211,
      "1056": 5212,
      "1066": 5213,
      "pres": 5214,
      "lier": 5215,
      "logn": 5216,
      "shar": 5217,
      "251": 5218,
      "258": 5219,
      "hes": 5220,
      "64d": 5221,
      "uspc": 5222,
      "960": 5223,
      "gdHlw": 5224,
      "476": 5225,
      "nou": 5226,
      "ael": 5227,
      "mos": 5228,
      "192": 5229,
      "fb4g": 5230,
      "login_": 5231,
      "563": 5232,
      "terra": 5233,
      "999": 5234,
      "fyv": 5235,
      "imp": 5236,
      "vous": 5237,
      "joxg": 5238,
      "usspaq": 5239,
      "process": 5240,
      "mxudhi2": 5241,
      "folder": 5242,
      "hdl": 5243,
      "buff": 5244,
      "h6zfea": 5245,
      "you": 5246,
      "4kjoxg": 5247,
      "srvr": 5248,
      "tax": 5249,
      "YXV0": 5250,
      "acesso": 5251,
      "WVud": 5252,
      "gPSB": 5253,
      "YAi": 5254,
      "solution": 5255,
      "seguridad": 5256,
      "Windows": 5257,
      "xcgfb4g": 5258,
      "bafybeiadxcgfb4g": 5259,
      "tacma4yx": 5260,
      "vdh4kjoxg": 5261,
      "bsudmxudhi2": 5262,
      "qynivdh4kjoxg": 5263,
      "ipdzptacma4yx": 5264,
      "bafybeiadxcgfb4gqynivdh4kjoxg": 5265,
      "bsudmxudhi2h6zfea": 5266,
      "ipdzptacma4yxbsudmxudhi2h6zfea": 5267,
      "bafybeiadxcgfb4gqynivdh4kjoxgipdzptacma4yxbsudmxudhi2h6zfea": 5268,
      "1E": 5269,
      "143": 5270,
      "4c7": 5271,
      "6E": 5272,
      "665": 5273,
      "8r": 5274,
      "945": 5275,
      "938": 5276,
      "AY": 5277,
      "BX": 5278,
      "Hg": 5279,
      "IL": 5280,
      "IHR": 5281,
      "LZ": 5282,
      "MK": 5283,
      "OI": 5284,
      "Oj": 5285,
      "Ow": 5286,
      "PK": 5287,
      "QO": 5288,
      "Qf": 5289,
      "Qj": 5290,
      "UA": 5291,
      "UK": 5292,
      "W2": 5293,
      "Wf": 5294,
      "Wk": 5295,
      "Wo": 5296,
      "Wu": 5297,
      "Xg": 5298,
      "Y2F": 5299,
      "Zhb": 5300,
      "bbe": 5301,
      "bor": 5302,
      "bce": 5303,
      "bf3": 5304,
      "cA": 5305,
      "cad": 5306,
      "ctr": 5307,
      "e34": 5308,
      "fon": 5309,
      "fab": 5310,
      "hD": 5311,
      "hZ": 5312,
      "hwr": 5313,
      "jas": 5314,
      "jes": 5315,
      "kZW": 5316,
      "l9": 5317,
      "ning": 5318,
      "qwe": 5319,
      "uim": 5320,
      "vF": 5321,
      "wap": 5322,
      "wb3": 5323,
      "x0": 5324,
      "xH": 5325,
      "xfinity": 5326,
      "cou": 5327,
      "corp": 5328,
      "dew": 5329,
      "rem": 5330,
      "rer": 5331,
      "inv": 5332,
      "bage": 5333,
      "lock": 5334,
      "ara": 5335,
      "aro": 5336,
      "002": 5337,
      "003": 5338,
      "009": 5339,
      "sto": 5340,
      "less": 5341,
      "ato": 5342,
      "bafybeici": 5343,
      "bafybeifo": 5344,
      "bafybeicy": 5345,
      "bafybeigt": 5346,
      "oooo": 5347,
      "appurl": 5348,
      "ility": 5349,
      "1020": 5350,
      "1023": 5351,
      "1026": 5352,
      "1013": 5353,
      "1097": 5354,
      "1080": 5355,
      "1069": 5356,
      "msd": 5357,
      "ioi": 5358,
      "204": 5359,
      "asd": 5360,
      "asf": 5361,
      "vie": 5362,
      "240": 5363,
      "257": 5364,
      "648": 5365,
      "oth": 5366,
      "275": 5367,
      "fe7": 5368,
      "176": 5369,
      "attnet": 5370,
      "aee": 5371,
      "336": 5372,
      "460": 5373,
      "boj": 5374,
      "888": 5375,
      "889": 5376,
      "54e": 5377,
      "img": 5378,
      "4b7": 5379,
      "rty": 5380,
      "jsu": 5381,
      "cIj48": 5382,
      "naW": 5383,
      "lux": 5384,
      "linea": 5385,
      "8508": 5386,
      "zom": 5387,
      "vrl": 5388,
      "mini": 5389,
      "dkb": 5390,
      "userid": 5391,
      "maile": 5392,
      "generator": 5393,
      "urest": 5394,
      "place": 5395,
      "bonus": 5396,
      "cancelar": 5397,
      "agram": 5398,
      "kn27oJ5oY7ep": 5399,
      "1859628": 5400,
      "messagerie": 5401,
      "127": 5402,
      "2cf": 5403,
      "213": 5404,
      "367": 5405,
      "3b3": 5406,
      "4df": 5407,
      "5E": 5408,
      "557": 5409,
      "6281": 5410,
      "9l": 5411,
      "B9": 5412,
      "BA": 5413,
      "DN": 5414,
      "Dm": 5415,
      "Eb": 5416,
      "FA": 5417,
      "Gg": 5418,
      "Post": 5419,
      "RA": 5420,
      "TX": 5421,
      "WD": 5422,
      "WM": 5423,
      "WS": 5424,
      "_4": 5425,
      "_F": 5426,
      "_w": 5427,
      "cub": 5428,
      "cue": 5429,
      "c23": 5430,
      "dge": 5431,
      "fgh": 5432,
      "hen": 5433,
      "hlp": 5434,
      "iba": 5435,
      "jen": 5436,
      "jay": 5437,
      "jc7": 5438,
      "kur": 5439,
      "lda": 5440,
      "n0": 5441,
      "nH": 5442,
      "sor": 5443,
      "vmi": 5444,
      "zer": 5445,
      "cole": 5446,
      "rewards": 5447,
      "sel": 5448,
      "ines": 5449,
      "ba7": 5450,
      "bang": 5451,
      "onn": 5452,
      "sting": 5453,
      "apo": 5454,
      "bafybeidi": 5455,
      "bafybeib7": 5456,
      "bafybeia5": 5457,
      "1050": 5458,
      "0008508": 5459,
      "lish": 5460,
      "sss": 5461,
      "458": 5462,
      "65e": 5463,
      "65y": 5464,
      "24d": 5465,
      "isy": 5466,
      "969": 5467,
      "359": 5468,
      "444": 5469,
      "26e": 5470,
      "gouv": 5471,
      "linked": 5472,
      "ffd": 5473,
      "480": 5474,
      "bb5": 5475,
      "221": 5476,
      "force": 5477,
      "907": 5478,
      "autop": 5479,
      "gaW": 5480,
      "profile": 5481,
      "jhj": 5482,
      "cpu": 5483,
      "878": 5484,
      "3e5cc43015815732a4d38f73eec6434e": 5485,
      "zdCB": 5486,
      "hq2": 5487,
      "jt6": 5488,
      "buck": 5489,
      "builder": 5490,
      "young": 5491,
      "w3spaces": 5492,
      "CA9": 5493,
      "srv2": 5494,
      "mainnet": 5495,
      "bafybeifl": 5496,
      "ID0g": 5497,
      "rxSt": 5498,
      "XBl": 5499,
      "swap": 5500,
      "flip": 5501,
      "Y29u": 5502,
      "maila": 5503,
      "company": 5504,
      "Mail": 5505,
      "particu": 5506,
      "LmNvbS9": 5507,
      "1320008508": 5508,
      "servicios": 5509,
      "3A1679418": 5510,
      "university": 5511,
      "3rivers": 5512,
      "VmVyc2lv": 5513,
      "required": 5514,
      "0k": 5515,
      "126": 5516,
      "223": 5517,
      "4zp": 5518,
      "8m": 5519,
      "8z": 5520,
      "9U": 5521,
      "CwT": 5522,
      "DL": 5523,
      "EK": 5524,
      "El": 5525,
      "HK": 5526,
      "IM": 5527,
      "Ii": 5528,
      "JK": 5529,
      "Mc": 5530,
      "OL": 5531,
      "OR": 5532,
      "QN": 5533,
      "QP": 5534,
      "QZ": 5535,
      "Qs": 5536,
      "T6": 5537,
      "Tf": 5538,
      "Ww": 5539,
      "_3": 5540,
      "bfe": 5541,
      "bdd": 5542,
      "bc5": 5543,
      "cid": 5544,
      "ete": 5545,
      "esp": 5546,
      "fat": 5547,
      "fcc": 5548,
      "fls": 5549,
      "fgs": 5550,
      "g23": 5551,
      "hal": 5552,
      "hus": 5553,
      "ien": 5554,
      "iuy": 5555,
      "lms": 5556,
      "ner": 5557,
      "nce": 5558,
      "nab": 5559,
      "oma": 5560,
      "oil": 5561,
      "ob3": 5562,
      "pet": 5563,
      "ped": 5564,
      "ptt": 5565,
      "pich": 5566,
      "snow": 5567,
      "wH": 5568,
      "wub": 5569,
      "wan": 5570,
      "x64": 5571,
      "yc": 5572,
      "zmy": 5573,
      "zbn": 5574,
      "zbs": 5575,
      "dea056d88": 5576,
      "bay": 5577,
      "eblog": 5578,
      "lor": 5579,
      "als": 5580,
      "bet": 5581,
      "ons": 5582,
      "sts": 5583,
      "late": 5584,
      "uble": 5585,
      "bafybeiam": 5586,
      "bafybeiar": 5587,
      "bafybeiht": 5588,
      "bafybeiap": 5589,
      "bafybeich": 5590,
      "bafybeift": 5591,
      "bafybeidy": 5592,
      "bafybeif5": 5593,
      "bafybeibp": 5594,
      "doo": 5595,
      "made": 5596,
      "appe": 5597,
      "1011": 5598,
      "icm": 5599,
      "clone": 5600,
      "ved": 5601,
      "unde": 5602,
      "daz": 5603,
      "67e": 5604,
      "rain": 5605,
      "340": 5606,
      "cts": 5607,
      "276": 5608,
      "357": 5609,
      "154": 5610,
      "574": 5611,
      "555": 5612,
      "33e": 5613,
      "hish": 5614,
      "880": 5615,
      "905": 5616,
      "contest": 5617,
      "bi5": 5618,
      "bir": 5619,
      "53e": 5620,
      "ha4": 5621,
      "4bk": 5622,
      "ga5": 5623,
      "jsjh": 5624,
      "cpanel": 5625,
      "bmFt": 5626,
      "b6d": 5627,
      "wn4": 5628,
      "cIj5cb": 5629,
      "bafybeihhl": 5630,
      "wofi": 5631,
      "ments": 5632,
      "YXNz": 5633,
      "bitrix": 5634,
      "51ac761d20e722": 5635,
      "M9XCJ": 5636,
      "password": 5637,
      "Y29tL": 5638,
      "_D_BwE": 5639,
      "first": 5640,
      "black": 5641,
      "wetransfer": 5642,
      "third": 5643,
      "kunden": 5644,
      "saW5r": 5645,
      "channel": 5646,
      "download": 5647,
      "kZW1v": 5648,
      "dea056d8851ac761d20e722": 5649,
      "0z": 5650,
      "1U": 5651,
      "311": 5652,
      "4ad": 5653,
      "4fd": 5654,
      "543": 5655,
      "5mm": 5656,
      "62e": 5657,
      "919": 5658,
      "Aj": 5659,
      "Aut": 5660,
      "BP": 5661,
      "Ec": 5662,
      "Eh": 5663,
      "GI": 5664,
      "Gc": 5665,
      "HA": 5666,
      "HZ": 5667,
      "J0": 5668,
      "J7": 5669,
      "JD": 5670,
      "JH": 5671,
      "JR": 5672,
      "Jf": 5673,
      "Mon": 5674,
      "Oa": 5675,
      "QC": 5676,
      "Qb": 5677,
      "T5": 5678,
      "Th": 5679,
      "Tl": 5680,
      "UC": 5681,
      "UD": 5682,
      "Uv": 5683,
      "Xb": 5684,
      "Xf": 5685,
      "Xh": 5686,
      "XHR": 5687,
      "YZ": 5688,
      "ZGF": 5689,
      "_g": 5690,
      "_AI": 5691,
      "aeb": 5692,
      "bfb": 5693,
      "b2b": 5694,
      "b66": 5695,
      "bG9": 5696,
      "cms": 5697,
      "d4e": 5698,
      "fc5": 5699,
      "gan": 5700,
      "gjk": 5701,
      "game": 5702,
      "hid": 5703,
      "hgf": 5704,
      "jgd": 5705,
      "jak": 5706,
      "jz7": 5707,
      "kge": 5708,
      "kcy": 5709,
      "mF": 5710,
      "nic": 5711,
      "nik": 5712,
      "oQ": 5713,
      "pac": 5714,
      "rD": 5715,
      "rut": 5716,
      "ute": 5717,
      "uam": 5718,
      "vun": 5719,
      "wL": 5720,
      "wV": 5721,
      "y1": 5722,
      "zpr": 5723,
      "com_": 5724,
      "sett": 5725,
      "sell": 5726,
      "ebu": 5727,
      "lol": 5728,
      "006": 5729,
      "agg": 5730,
      "las": 5731,
      "aty": 5732,
      "atual": 5733,
      "bafybeifs": 5734,
      "bafybeiag": 5735,
      "bafybeicl": 5736,
      "bafybeiab": 5737,
      "bafybeia6": 5738,
      "bafybeifq": 5739,
      "double": 5740,
      "ilf": 5741,
      "ac7": 5742,
      "1076": 5743,
      "arth": 5744,
      "QmN": 5745,
      "house": 5746,
      "ens": 5747,
      "450": 5748,
      "24e": 5749,
      "dai": 5750,
      "ift": 5751,
      "iso": 5752,
      "isu": 5753,
      "115": 5754,
      "272": 5755,
      "27wq": 5756,
      "dff": 5757,
      "dft": 5758,
      "wait": 5759,
      "984": 5760,
      "356": 5761,
      "dik": 5762,
      "diz": 5763,
      "378": 5764,
      "ft27wq": 5765,
      "446": 5766,
      "448": 5767,
      "57n": 5768,
      "289": 5769,
      "kvy": 5770,
      "dd5": 5771,
      "993": 5772,
      "366": 5773,
      "54d": 5774,
      "ghv": 5775,
      "538": 5776,
      "fa2": 5777,
      "saffar": 5778,
      "2d7": 5779,
      "386": 5780,
      "387": 5781,
      "978": 5782,
      "posts": 5783,
      "vxq": 5784,
      "wyv": 5785,
      "ameleon": 5786,
      "hbpb": 5787,
      "303": 5788,
      "jnr": 5789,
      "dark": 5790,
      "752": 5791,
      "Index": 5792,
      "ZXh0": 5793,
      "vrx": 5794,
      "woy": 5795,
      "woax": 5796,
      "jxz": 5797,
      "gID": 5798,
      "g2u": 5799,
      "l6dd7": 5800,
      "0dHB": 5801,
      "d5ft27wq": 5802,
      "***": 5803,
      "kass": 5804,
      "andbox": 5805,
      "verified": 5806,
      "validar": 5807,
      "banking": 5808,
      "swift": 5809,
      "EJ5": 5810,
      "HTML": 5811,
      "L3NjcmlwdD5cb": 5812,
      "PD_BwE": 5813,
      "Q9XCJ": 5814,
      "p1ai": 5815,
      "Frame": 5816,
      "hyperfollow": 5817,
      "ASKXGp": 5818,
      "consult": 5819,
      "ridd5ft27wq": 5820,
      "wetrans": 5821,
      "6v6ahu": 5822,
      "jb25zdCB": 5823,
      "ukhcw7": 5824,
      "autenti": 5825,
      "o5qi": 5826,
      "zbsridd5ft27wq": 5827,
      "bafybeihhl6v6ahu": 5828,
      "saffarzbsridd5ft27wq": 5829,
      "hbpbsaffarzbsridd5ft27wq": 5830,
      "woaxo5qi": 5831,
      "l6dd7ukhcw7": 5832,
      "bafybeihhl6v6ahuhbpbsaffarzbsridd5ft27wq": 5833,
      "l6dd7ukhcw7woaxo5qi": 5834,
      "bafybeihhl6v6ahuhbpbsaffarzbsridd5ft27wql6dd7ukhcw7woaxo5qi": 5835,
      "040": 5836,
      "1Y": 5837,
      "1j": 5838,
      "2ab": 5839,
      "3cb": 5840,
      "586": 5841,
      "7uu": 5842,
      "8k": 5843,
      "8t": 5844,
      "977": 5845,
      "AN": 5846,
      "Dl": 5847,
      "EF": 5848,
      "EM": 5849,
      "Gb": 5850,
      "HO": 5851,
      "Hu": 5852,
      "JL": 5853,
      "JM": 5854,
      "Lml": 5855,
      "New": 5856,
      "Q_": 5857,
      "SA": 5858,
      "SZ": 5859,
      "T0": 5860,
      "WG": 5861,
      "W1l": 5862,
      "_O": 5863,
      "_index": 5864,
      "aer": 5865,
      "a26": 5866,
      "a9e": 5867,
      "bur": 5868,
      "b34": 5869,
      "bcb": 5870,
      "bc3": 5871,
      "cV": 5872,
      "c64": 5873,
      "c35": 5874,
      "c22": 5875,
      "ccess": 5876,
      "fB": 5877,
      "fhqp": 5878,
      "gon": 5879,
      "gut": 5880,
      "gc4": 5881,
      "hM": 5882,
      "ium": 5883,
      "jL": 5884,
      "jsp": 5885,
      "jis": 5886,
      "jim": 5887,
      "kN": 5888,
      "kub": 5889,
      "kot": 5890,
      "mQ": 5891,
      "mR": 5892,
      "mus": 5893,
      "nort": 5894,
      "oie": 5895,
      "oj7": 5896,
      "pcs": 5897,
      "pto": 5898,
      "pwt": 5899,
      "qQ": 5900,
      "rW": 5901,
      "sce": 5902,
      "vdy": 5903,
      "wld": 5904,
      "zR": 5905,
      "zac": 5906,
      "det": 5907,
      "dey": 5908,
      "deta": 5909,
      "inpost": 5910,
      "bak": 5911,
      "lop": 5912,
      "sig": 5913,
      "htan": 5914,
      "nty": 5915,
      "erjr": 5916,
      "erung": 5917,
      "eta": 5918,
      "bafybeihe": 5919,
      "bafybeicu": 5920,
      "bafybeicb": 5921,
      "bafybeifp": 5922,
      "mad": 5923,
      "mabage": 5924,
      "apptut": 5925,
      "1024": 5926,
      "1089": 5927,
      "ids": 5928,
      "cloudser": 5929,
      "ann": 5930,
      "ital": 5931,
      "roh": 5932,
      "ced": 5933,
      "vel": 5934,
      "utf": 5935,
      "end": 5936,
      "under": 5937,
      "unite": 5938,
      "ck5": 5939,
      "ray": 5940,
      "heal": 5941,
      "642": 5942,
      "uspr": 5943,
      "273": 5944,
      "277": 5945,
      "27e": 5946,
      "duy": 5947,
      "fe4": 5948,
      "983": 5949,
      "353": 5950,
      "374": 5951,
      "376": 5952,
      "fry": 5953,
      "gog": 5954,
      "576": 5955,
      "556": 5956,
      "httpshttps": 5957,
      "330": 5958,
      "339": 5959,
      "kvsecure": 5960,
      "774": 5961,
      "brand": 5962,
      "mira": 5963,
      "99e": 5964,
      "tiwofi": 5965,
      "c4e": 5966,
      "c4f": 5967,
      "4e9d": 5968,
      "saf": 5969,
      "vos": 5970,
      "2dp": 5971,
      "john": 5972,
      "rtjan": 5973,
      "syf": 5974,
      "sys": 5975,
      "mxe": 5976,
      "cpy": 5977,
      "vd2": 5978,
      "aki": 5979,
      "ahrtjan": 5980,
      "bdr": 5981,
      "jdW1l": 5982,
      "bafybeih7": 5983,
      "142": 5984,
      "j5r": 5985,
      "vyy": 5986,
      "mkt": 5987,
      "YWdl": 5988,
      "srv": 5989,
      "full": 5990,
      "aW5n": 5991,
      "onent": 5992,
      "3Fgad_source": 5993,
      "mich": 5994,
      "snip": 5995,
      "desserver": 5996,
      "XCIp": 5997,
      "7t5": 5998,
      "HJpbm": 5999,
      "domainhosting": 6000,
      "grom": 6001,
      "creator": 6002,
      "coinbase": 6003,
      "ative": 6004,
      "11125": 6005,
      "from": 6006,
      "claim": 6007,
      "YXJhb": 6008,
      "recovery": 6009,
      "6256281": 6010,
      "ZG9jdW1l": 6011,
      "cliente": 6012,
      "tunahrtjan": 6013,
      "centrum": 6014,
      "broadband": 6015,
      "vhsfhqp": 6016,
      "5fgfgfgf": 6017,
      "YXV0a": 6018,
      "YAiAAEg": 6019,
      "generatorjsjh": 6020,
      "thirdweb": 6021,
      "XHRcd": 6022,
      "mabagecloudser": 6023,
      "apptuts": 6024,
      "desservermabagecloudser": 6025,
      "tunahrtjanza": 6026,
      "vhsfhqpdhd": 6027,
      "generatorjsjherjr": 6028,
      "desservermabagecloudsergeneratorjsjherjr": 6029,
      "0i": 6030,
      "1K": 6031,
      "1i": 6032,
      "1s": 6033,
      "133": 6034,
      "2df": 6035,
      "3V": 6036,
      "533": 6037,
      "8Q": 6038,
      "BC": 6039,
      "CK": 6040,
      "DF": 6041,
      "DZ": 6042,
      "DAB": 6043,
      "ICh": 6044,
      "Moz": 6045,
      "Mjky": 6046,
      "OG": 6047,
      "OP": 6048,
      "OY": 6049,
      "O_": 6050,
      "Oc": 6051,
      "RWx": 6052,
      "SY": 6053,
      "Sg": 6054,
      "Ts": 6055,
      "Tz": 6056,
      "Ug": 6057,
      "VM": 6058,
      "XA": 6059,
      "XK": 6060,
      "_C": 6061,
      "_base": 6062,
      "ast": 6063,
      "a4e": 6064,
      "afn": 6065,
      "a86": 6066,
      "bba": 6067,
      "boo": 6068,
      "bmy": 6069,
      "b65": 6070,
      "bf7": 6071,
      "c24": 6072,
      "c34": 6073,
      "c77": 6074,
      "eli": 6075,
      "easy": 6076,
      "fce": 6077,
      "f47": 6078,
      "fdd": 6079,
      "fnk": 6080,
      "g45": 6081,
      "hG": 6082,
      "hK": 6083,
      "hW": 6084,
      "hc3": 6085,
      "ius": 6086,
      "iri": 6087,
      "kla": 6088,
      "lN0": 6089,
      "oS": 6090,
      "omi": 6091,
      "play": 6092,
      "pad": 6093,
      "pai": 6094,
      "qA": 6095,
      "ras": 6096,
      "sbc": 6097,
      "u0": 6098,
      "uYW1l": 6099,
      "vam": 6100,
      "wY": 6101,
      "xcj": 6102,
      "zG": 6103,
      "decentral": 6104,
      "los": 6105,
      "tem": 6106,
      "tet": 6107,
      "be7": 6108,
      "ario": 6109,
      "arna": 6110,
      "sis": 6111,
      "lem": 6112,
      "lax": 6113,
      "apro": 6114,
      "bafybeido": 6115,
      "bafybeifi": 6116,
      "bafybeias": 6117,
      "bafybeihi": 6118,
      "bafybeiee": 6119,
      "bafybeia4": 6120,
      "doy": 6121,
      "ma8": 6122,
      "may": 6123,
      "sp2": 6124,
      "uds": 6125,
      "acme": 6126,
      "cs6": 6127,
      "csgo": 6128,
      "mel": 6129,
      "ural": 6130,
      "ssss": 6131,
      "itau": 6132,
      "roid": 6133,
      "adk": 6134,
      "2022": 6135,
      "uete": 6136,
      "23e": 6137,
      "23849": 6138,
      "438": 6139,
      "43k": 6140,
      "ene": 6141,
      "459": 6142,
      "via": 6143,
      "674": 6144,
      "indexjs": 6145,
      "rae": 6146,
      "uspt": 6147,
      "dfg": 6148,
      "35i": 6149,
      "37e": 6150,
      "clt": 6151,
      "fts": 6152,
      "2938": 6153,
      "fru": 6154,
      "260": 6155,
      "261": 6156,
      "gob": 6157,
      "geh": 6158,
      "ned": 6159,
      "55q": 6160,
      "468": 6161,
      "skin": 6162,
      "166": 6163,
      "bnl": 6164,
      "umn": 6165,
      "405": 6166,
      "409": 6167,
      "sai": 6168,
      "haWx": 6169,
      "vocale": 6170,
      "uyi": 6171,
      "jou": 6172,
      "llc": 6173,
      "provi": 6174,
      "974": 6175,
      "a78": 6176,
      "zez": 6177,
      "94a": 6178,
      "gwt": 6179,
      "gir": 6180,
      "1006": 6181,
      "gvw": 6182,
      "ppt": 6183,
      "by4": 6184,
      "32y": 6185,
      "Inicio": 6186,
      "3d3": 6187,
      "3dl": 6188,
      "GVt": 6189,
      "pem": 6190,
      "839": 6191,
      "2tq": 6192,
      "secure_": 6193,
      "MDYx": 6194,
      "serverauth": 6195,
      "DtH": 6196,
      "Y3Nz": 6197,
      "YSV": 6198,
      "bradesco": 6199,
      "iAgICAgICA": 6200,
      "credential": 6201,
      "fD_BwE": 6202,
      "VzZXJ": 6203,
      "PVwiaHR0cHM6Ly": 6204,
      "survey": 6205,
      "pory": 6206,
      "XG4gICA": 6207,
      "ZT1cIn": 6208,
      "violation": 6209,
      "liveblog": 6210,
      "james": 6211,
      "moduleID": 6212,
      "benefi": 6213,
      "AAEgI": 6214,
      "XG5cdFx0": 6215,
      "Mozilla": 6216,
      "liveblog365": 6217,
      "1S": 6218,
      "2v6": 6219,
      "2MDYx": 6220,
      "3ce": 6221,
      "3Nl": 6222,
      "423": 6223,
      "5ou": 6224,
      "619": 6225,
      "6QV": 6226,
      "7Q": 6227,
      "9Q": 6228,
      "9gp": 6229,
      "?=": 6230,
      "Bs": 6231,
      "D_BwE": 6232,
      "FY": 6233,
      "Hb": 6234,
      "Hj": 6235,
      "IN": 6236,
      "Ic": 6237,
      "JA": 6238,
      "Kb": 6239,
      "Og": 6240,
      "Oi": 6241,
      "QY": 6242,
      "TD": 6243,
      "TL": 6244,
      "UI": 6245,
      "Vb": 6246,
      "Xl": 6247,
      "Y2t": 6248,
      "_H": 6249,
      "_k": 6250,
      "a67": 6251,
      "bR": 6252,
      "b29": 6253,
      "b4b": 6254,
      "bul": 6255,
      "bhd": 6256,
      "cdf": 6257,
      "came": 6258,
      "dtr": 6259,
      "fca": 6260,
      "fcb": 6261,
      "f46": 6262,
      "gfb": 6263,
      "hbe": 6264,
      "hop": 6265,
      "hit": 6266,
      "hgs": 6267,
      "ifs": 6268,
      "ise": 6269,
      "jC": 6270,
      "jur": 6271,
      "kz7": 6272,
      "konto": 6273,
      "mD": 6274,
      "mS": 6275,
      "meb": 6276,
      "mun": 6277,
      "n8": 6278,
      "nco": 6279,
      "ndi": 6280,
      "none": 6281,
      "pV": 6282,
      "ppr": 6283,
      "q9": 6284,
      "qY": 6285,
      "q81": 6286,
      "r9": 6287,
      "rJ": 6288,
      "rT": 6289,
      "ram": 6290,
      "sht": 6291,
      "smo": 6292,
      "szr": 6293,
      "t0": 6294,
      "t1": 6295,
      "u33": 6296,
      "veb": 6297,
      "vor": 6298,
      "v34": 6299,
      "wJ": 6300,
      "wK": 6301,
      "wco": 6302,
      "w2x": 6303,
      "xW": 6304,
      "zA": 6305,
      "zcm": 6306,
      "zbq": 6307,
      "cook": 6308,
      "fsx": 6309,
      "decl": 6310,
      "reX": 6311,
      "rew": 6312,
      "iny": 6313,
      "lone": 6314,
      "amo": 6315,
      "beservicios": 6316,
      "onx": 6317,
      "sive": 6318,
      "aging": 6319,
      "hty": 6320,
      "bafybeian": 6321,
      "bafybeic6": 6322,
      "bafybeiax": 6323,
      "opost": 6324,
      "webhost": 6325,
      "ooo": 6326,
      "spam": 6327,
      "1046": 6328,
      "1054": 6329,
      "1085": 6330,
      "msn": 6331,
      "mailbox": 6332,
      "lief": 6333,
      "ita": 6334,
      "rog": 6335,
      "change": 6336,
      "ading": 6337,
      "vev": 6338,
      "vest": 6339,
      "QmbG": 6340,
      "436": 6341,
      "wiPlxu": 6342,
      "455": 6343,
      "trust": 6344,
      "firebasestorage": 6345,
      "index3": 6346,
      "114": 6347,
      "dfd": 6348,
      "dfe": 6349,
      "358": 6350,
      "44n": 6351,
      "abo": 6352,
      "29y": 6353,
      "fron": 6354,
      "472": 6355,
      "26f": 6356,
      "linktr": 6357,
      "570": 6358,
      "sos": 6359,
      "559e": 6360,
      "56x": 6361,
      "toy": 6362,
      "368": 6363,
      "909": 6364,
      "fdk": 6365,
      "cy5": 6366,
      "ghg": 6367,
      "usspao": 6368,
      "2a3": 6369,
      "2a9": 6370,
      "979": 6371,
      "mxl": 6372,
      "b63": 6373,
      "a74": 6374,
      "mpt": 6375,
      "bdb": 6376,
      "958": 6377,
      "bafybeiek": 6378,
      "bafybeiey": 6379,
      "dsr": 6380,
      "zdWJ": 6381,
      "subeservicios": 6382,
      "ZWJt": 6383,
      "iyv": 6384,
      "4kron": 6385,
      "c8d": 6386,
      "hhj": 6387,
      "lbXB": 6388,
      "lbWVud": 6389,
      "SBB": 6390,
      "ovh": 6391,
      "ization": 6392,
      "ZVwiOlwi": 6393,
      "Gxl": 6394,
      "intication": 6395,
      "AQMjQ7S": 6396,
      "GJnC": 6397,
      "U3Q": 6398,
      "east": 6399,
      "billing": 6400,
      "docusign": 6401,
      "DHL": 6402,
      "Ym1haW": 6403,
      "ZCYSV": 6404,
      "nameserver": 6405,
      "LPq81": 6406,
      "YnJvd": 6407,
      "component": 6408,
      "hardest": 6409,
      "NxGJnC": 6410,
      "plan": 6411,
      "N6DtH": 6412,
      "notification": 6413,
      "error": 6414,
      "iWCwT": 6415,
      "zOi8": 6416,
      "tree": 6417,
      "cebji": 6418,
      "XG4gICAgICA": 6419,
      "instagram": 6420,
      "BjNxGJnC": 6421,
      "provincia": 6422,
      "widgets": 6423,
      "NyaXB0Plxu": 6424,
      "luiza": 6425,
      "multi": 6426,
      "PTE2MDYx": 6427,
      "0dHBzOi8": 6428,
      "ZG9jdW1lbnQu": 6429,
      "DAB6QV": 6430,
      "MjkyMz": 6431,
      "RWxlbWVud": 6432,
      "serverauthintication": 6433,
      "QmbGLPq81": 6434,
      "ZWJtYWls": 6435,
      "4kronDAB6QV": 6436,
      "ZCYSVreX": 6437,
      "YnJvd3Nl": 6438,
      "N6DtHiWCwT": 6439,
      "BjNxGJnC4kronDAB6QV": 6440,
      "PTE2MDYxMjkyMz": 6441,
      "serverauthinticationrequired": 6442,
      "QmbGLPq81N6DtHiWCwT": 6443,
      "BjNxGJnC4kronDAB6QVZCYSVreX": 6444,
      "QmbGLPq81N6DtHiWCwTBjNxGJnC4kronDAB6QVZCYSVreX": 6445,
      "+(": 6446,
      "1M": 6447,
      "1Z": 6448,
      "1o": 6449,
      "1z": 6450,
      "196": 6451,
      "1b3": 6452,
      "1c5": 6453,
      "1a0": 6454,
      "2cs": 6455,
      "2ce": 6456,
      "2ve": 6457,
      "217": 6458,
      "3C": 6459,
      "3mail": 6460,
      "445": 6461,
      "534": 6462,
      "564": 6463,
      "721": 6464,
      "8L": 6465,
      "8W": 6466,
      "8g": 6467,
      "8l": 6468,
      "830": 6469,
      "9j": 6470,
      "936": 6471,
      "BK": 6472,
      "Ba": 6473,
      "EL": 6474,
      "EN": 6475,
      "E_": 6476,
      "FP": 6477,
      "Gj": 6478,
      "Ghv": 6479,
      "Ijo": 6480,
      "JF": 6481,
      "Kit": 6482,
      "Lmd": 6483,
      "OM": 6484,
      "PZ": 6485,
      "Pc": 6486,
      "Pro": 6487,
      "QoJ": 6488,
      "S3": 6489,
      "TA": 6490,
      "TH": 6491,
      "Tu": 6492,
      "UR": 6493,
      "WA": 6494,
      "Xc": 6495,
      "Xz": 6496,
      "_U": 6497,
      "_i": 6498,
      "ahy": 6499,
      "buy": 6500,
      "b4d": 6501,
      "bwy": 6502,
      "cwe": 6503,
      "ccf": 6504,
      "cart": 6505,
      "cro": 6506,
      "cun": 6507,
      "c56": 6508,
      "dA": 6509,
      "dho": 6510,
      "em3": 6511,
      "fF": 6512,
      "fS": 6513,
      "feb": 6514,
      "fra": 6515,
      "fdf": 6516,
      "f19": 6517,
      "fc7": 6518,
      "fjw": 6519,
      "gop": 6520,
      "hil": 6521,
      "has": 6522,
      "haa": 6523,
      "hqu": 6524,
      "hcmFt": 6525,
      "ije": 6526,
      "issue": 6527,
      "jaa": 6528,
      "jcv": 6529,
      "jbk": 6530,
      "kZ": 6531,
      "kct": 6532,
      "kay": 6533,
      "kie": 6534,
      "kir": 6535,
      "ltr": 6536,
      "lfd": 6537,
      "mU": 6538,
      "moo": 6539,
      "mbo": 6540,
      "mbx": 6541,
      "mult": 6542,
      "nin": 6543,
      "nbr": 6544,
      "oK": 6545,
      "ode": 6546,
      "own": 6547,
      "owr": 6548,
      "pZ": 6549,
      "photo": 6550,
      "rar": 6551,
      "sin": 6552,
      "tan": 6553,
      "tad": 6554,
      "uP": 6555,
      "uer": 6556,
      "ull": 6557,
      "var": 6558,
      "vcm": 6559,
      "vbl": 6560,
      "vcw": 6561,
      "vg3": 6562,
      "wP": 6563,
      "wQ": 6564,
      "wwe": 6565,
      "xE": 6566,
      "xhy": 6567,
      "zC": 6568,
      "zar": 6569,
      "z43": 6570,
      "zgk": 6571,
      "compr": 6572,
      "deu": 6573,
      "dew4": 6574,
      "seu": 6575,
      "sex": 6576,
      "sele": 6577,
      "ini": 6578,
      "indd": 6579,
      "be2": 6580,
      "bep": 6581,
      "argo": 6582,
      "00000": 6583,
      "atu": 6584,
      "apr": 6585,
      "apv": 6586,
      "ub4": 6587,
      "bafybeiet": 6588,
      "bafybeibt": 6589,
      "bafybeies": 6590,
      "bafybeiak": 6591,
      "bafybeigk": 6592,
      "bafybeia3": 6593,
      "opy": 6594,
      "wen": 6595,
      "cfe": 6596,
      "cfr": 6597,
      "spv": 6598,
      "udy": 6599,
      "ili": 6600,
      "acade": 6601,
      "10d": 6602,
      "ici": 6603,
      "icit": 6604,
      "anz": 6605,
      "000webhost": 6606,
      "lix": 6607,
      "usu": 6608,
      "us2w": 6609,
      "20c3d": 6610,
      "uee": 6611,
      "453": 6612,
      "video": 6613,
      "shi": 6614,
      "650": 6615,
      "652": 6616,
      "po4": 6617,
      "pol": 6618,
      "porez": 6619,
      "256": 6620,
      "670": 6621,
      "cast": 6622,
      "gno": 6623,
      "isse": 6624,
      "ister": 6625,
      "11c5": 6626,
      "heart": 6627,
      "270": 6628,
      "982": 6629,
      "985": 6630,
      "350": 6631,
      "dia": 6632,
      "cby": 6633,
      "151": 6634,
      "frr": 6635,
      "26d": 6636,
      "488": 6637,
      "ke91": 6638,
      "338": 6639,
      "33b": 6640,
      "56t": 6641,
      "139": 6642,
      "1320": 6643,
      "775": 6644,
      "mizu": 6645,
      "grace": 6646,
      "cd5": 6647,
      "gfv": 6648,
      "xxxxx": 6649,
      "f74": 6650,
      "c63": 6651,
      "2d2": 6652,
      "383": 6653,
      "rtg": 6654,
      "2e7": 6655,
      "aktu": 6656,
      "930": 6657,
      "932": 6658,
      "postale": 6659,
      "hu5": 6660,
      "guv": 6661,
      "306": 6662,
      "v6o": 6663,
      "4yl": 6664,
      "4yn": 6665,
      "ltu": 6666,
      "5yu": 6667,
      "hl9gp": 6668,
      "2ye": 6669,
      "lrn": 6670,
      "6yw": 6671,
      "m5v": 6672,
      "infos": 6673,
      "jjj": 6674,
      "z2n": 6675,
      "Dtcb": 6676,
      "rectification": 6677,
      "zjz": 6678,
      "android": 6679,
      "mhjj": 6680,
      "hotfer": 6681,
      "FBhcmFt": 6682,
      "sjri": 6683,
      "LKGR": 6684,
      "grate": 6685,
      "rong": 6686,
      "element": 6687,
      "garena": 6688,
      "spring": 6689,
      "seoul": 6690,
      "dynv6": 6691,
      "2345678": 6692,
      "tools": 6693,
      "lx0XHRjb25zdCB": 6694,
      "college": 6695,
      "international": 6696,
      "wepik": 6697,
      "Rpb24": 6698,
      "paket": 6699,
      "standar": 6700,
      "Z2V0RWxlbWVud": 6701,
      "bucket": 6702,
      "ZG9jdW1lbnQuZ2V0RWxlbWVud": 6703,
      "compras": 6704,
      "000webhostapp": 6705,
      "porezna": 6706,
      "hl9gpha4": 6707,
      "0F": 6708,
      "0h": 6709,
      "1cm": 6710,
      "325": 6711,
      "3fd": 6712,
      "4L": 6713,
      "428": 6714,
      "7M": 6715,
      "8C": 6716,
      "8N": 6717,
      "890": 6718,
      "921": 6719,
      ";+": 6720,
      "==&": 6721,
      "BG": 6722,
      "BN": 6723,
      "BS": 6724,
      "EZ": 6725,
      "Ev": 6726,
      "H3": 6727,
      "OZ": 6728,
      "QL": 6729,
      "RK": 6730,
      "SM": 6731,
      "TF": 6732,
      "TR": 6733,
      "TZ": 6734,
      "Ti": 6735,
      "Tj": 6736,
      "UF": 6737,
      "UG": 6738,
      "XP": 6739,
      "_form": 6740,
      "aM": 6741,
      "avi": 6742,
      "a28": 6743,
      "b25": 6744,
      "b77": 6745,
      "b8e": 6746,
      "cO": 6747,
      "ccb": 6748,
      "cgp": 6749,
      "dry": 6750,
      "earth": 6751,
      "ffs": 6752,
      "f64": 6753,
      "f22": 6754,
      "f4e": 6755,
      "ful": 6756,
      "gG": 6757,
      "gV": 6758,
      "gam": 6759,
      "gas": 6760,
      "hgn": 6761,
      "h27": 6762,
      "h35": 6763,
      "hame": 6764,
      "hwt": 6765,
      "ico": 6766,
      "ira": 6767,
      "jin": 6768,
      "jab": 6769,
      "jsk": 6770,
      "jlk": 6771,
      "j2y": 6772,
      "kit": 6773,
      "lb3": 6774,
      "lbn": 6775,
      "mA": 6776,
      "mJ": 6777,
      "mfd": 6778,
      "njr": 6779,
      "oY": 6780,
      "oce": 6781,
      "odd": 6782,
      "pF": 6783,
      "pul": 6784,
      "pjq": 6785,
      "pqy": 6786,
      "qU": 6787,
      "rQ": 6788,
      "sO": 6789,
      "say": 6790,
      "tag": 6791,
      "uid": 6792,
      "vic": 6793,
      "vot": 6794,
      "vlogin": 6795,
      "vzn": 6796,
      "vpn": 6797,
      "wN": 6798,
      "wR": 6799,
      "wat": 6800,
      "wol": 6801,
      "wbm": 6802,
      "xS": 6803,
      "xU": 6804,
      "xup": 6805,
      "zZ": 6806,
      "zoo": 6807,
      "zwp": 6808,
      "znn": 6809,
      "colo": 6810,
      "reu": 6811,
      "reurl": 6812,
      "lot": 6813,
      "local": 6814,
      "tew": 6815,
      "amu": 6816,
      "bern": 6817,
      "arf": 6818,
      "araba": 6819,
      "004": 6820,
      "stru": 6821,
      "lawy": 6822,
      "bafybeial": 6823,
      "bafybeidd": 6824,
      "bafybeibs": 6825,
      "spn": 6826,
      "1093": 6827,
      "1095": 6828,
      "icia": 6829,
      "urs": 6830,
      "chg": 6831,
      "cee": 6832,
      "cesk": 6833,
      "uey": 6834,
      "hol": 6835,
      "4314b": 6836,
      "asn": 6837,
      "45d": 6838,
      "try": 6839,
      "tran": 6840,
      "olution": 6841,
      "dae": 6842,
      "dawn": 6843,
      "ca5": 6844,
      "caq": 6845,
      "caix": 6846,
      "rai": 6847,
      "iff": 6848,
      "isFrame": 6849,
      "hea": 6850,
      "344": 6851,
      "347": 6852,
      "966": 6853,
      "fei": 6854,
      "351": 6855,
      "370": 6856,
      "373": 6857,
      "clic": 6858,
      "44d": 6859,
      "186": 6860,
      "17e": 6861,
      "ingre": 6862,
      "479": 6863,
      "version": 6864,
      "river": 6865,
      "ae6": 6866,
      "nee": 6867,
      "ness": 6868,
      "nels": 6869,
      "553": 6870,
      "fb6": 6871,
      "466": 6872,
      "46e": 6873,
      "c3a": 6874,
      "c3Ri": 6875,
      "1324": 6876,
      "13682": 6877,
      "terms": 6878,
      "770": 6879,
      "b3gu": 6880,
      "eds": 6881,
      "grap": 6882,
      "gfy": 6883,
      "88e": 6884,
      "886256281": 6885,
      "c42": 6886,
      "c4d": 6887,
      "foP": 6888,
      "fd5": 6889,
      "import": 6890,
      "c74": 6891,
      "cz9z": 6892,
      "cmV": 6893,
      "haze": 6894,
      "crw": 6895,
      "ee3": 6896,
      "jom": 6897,
      "4d3": 6898,
      "21haW": 6899,
      "oken": 6900,
      "97e": 6901,
      "jhq": 6902,
      "jey": 6903,
      "nd63": 6904,
      "93d": 6905,
      "93c2Vy": 6906,
      "a7e": 6907,
      "mpz": 6908,
      "zek": 6909,
      "ky6": 6910,
      "808": 6911,
      "809": 6912,
      "areautenti": 6913,
      "by2": 6914,
      "wsf": 6915,
      "a62b": 6916,
      "3Bsd": 6917,
      "3A1680": 6918,
      "just": 6919,
      "hqe": 6920,
      "hsn": 6921,
      "85d": 6922,
      "gpw": 6923,
      "GVy": 6924,
      "GVud": 6925,
      "zqx": 6926,
      "HRlbXB": 6927,
      "9d20c3d": 6928,
      "zs4": 6929,
      "xdW": 6930,
      "kx3": 6931,
      "bWF": 6932,
      "0eXBl": 6933,
      "NlYXJ": 6934,
      "sb2dp": 6935,
      "Z2lu": 6936,
      "Z2Vud": 6937,
      "klarna": 6938,
      "helps": 6939,
      "theme": 6940,
      "FRNT": 6941,
      "licy": 6942,
      "Jyb3": 6943,
      "centre": 6944,
      "kfurt": 6945,
      "******": 6946,
      "restore": 6947,
      "newsletter": 6948,
      "cancel": 6949,
      "kingly": 6950,
      "blockchain": 6951,
      "agricole": 6952,
      "field": 6953,
      "strikingly": 6954,
      "g4g4gh": 6955,
      "muddy": 6956,
      "7639d20c3d": 6957,
      "pushtan": 6958,
      "config": 6959,
      "WFpbGhv": 6960,
      "Apple": 6961,
      "ID0gd": 6962,
      "frankfurt": 6963,
      "odHRwczovL3dl": 6964,
      "sparkass": 6965,
      "linkedin": 6966,
      "wubWFpbGhv": 6967,
      "icm93c2Vy": 6968,
      "4e9d559e": 6969,
      "YXJhbXM": 6970,
      "Ym1haWwubWFpbGhv": 6971,
      "11c54314b": 6972,
      "c3Rib3gu": 6973,
      "886256281mn": 6974,
      "cz9zPTE2MDYxMjkyMz": 6975,
      "NlYXJja": 6976,
      "7639d20c3d13682": 6977,
      "odHRwczovL3dlYm1haWwubWFpbGhv": 6978,
      "4e9d559e11c54314b": 6979,
      "odHRwczovL3dlYm1haWwubWFpbGhvc3Rib3gu": 6980,
      "4e9d559e11c54314b7639d20c3d13682": 6981,
      "0S": 6982,
      "0U": 6983,
      "1X": 6984,
      "2R": 6985,
      "2cu": 6986,
      "229": 6987,
      "2f3": 6988,
      "2f4": 6989,
      "3G": 6990,
      "3S": 6991,
      "323": 6992,
      "324": 6993,
      "3lh": 6994,
      "424": 6995,
      "4dd": 6996,
      "4f3": 6997,
      "5J": 6998,
      "525": 6999,
      "636": 7000,
      "7J": 7001,
      "7U": 7002,
      "7we": 7003,
      "7ck": 7004,
      "7fe": 7005,
      "7gp": 7006,
      "8v": 7007,
      "895": 7008,
      "967": 7009,
      "946": 7010,
      "9b3": 7011,
      "953": 7012,
      "Bf": 7013,
      "DC": 7014,
      "DX": 7015,
      "Dz": 7016,
      "Ij": 7017,
      "IHJ": 7018,
      "Pay": 7019,
      "Rle": 7020,
      "T4": 7021,
      "TG": 7022,
      "TY": 7023,
      "Tp": 7024,
      "UL": 7025,
      "Uni": 7026,
      "Va": 7027,
      "_R": 7028,
      "_office": 7029,
      "_credential": 7030,
      "afs": 7031,
      "abe": 7032,
      "aab": 7033,
      "afb": 7034,
      "a38": 7035,
      "af4": 7036,
      "bud": 7037,
      "bid": 7038,
      "bdf": 7039,
      "b18": 7040,
      "b55": 7041,
      "bfd": 7042,
      "bcp": 7043,
      "b89": 7044,
      "bc0": 7045,
      "cjq": 7046,
      "c9d": 7047,
      "cash": 7048,
      "dal": 7049,
      "d57": 7050,
      "djq": 7051,
      "eWxl": 7052,
      "fR": 7053,
      "fX": 7054,
      "fcf": 7055,
      "f23": 7056,
      "f43": 7057,
      "fas": 7058,
      "f27": 7059,
      "f56": 7060,
      "f77": 7061,
      "fum": 7062,
      "f4d": 7063,
      "fcw": 7064,
      "gA": 7065,
      "g_": 7066,
      "gio": 7067,
      "gls": 7068,
      "hQ": 7069,
      "hhi": 7070,
      "hbn": 7071,
      "hum": 7072,
      "iD": 7073,
      "iQ": 7074,
      "jX": 7075,
      "jfs": 7076,
      "jew": 7077,
      "jit": 7078,
      "jhp": 7079,
      "kL": 7080,
      "kor": 7081,
      "knn": 7082,
      "lwy": 7083,
      "mN": 7084,
      "mW": 7085,
      "mfs": 7086,
      "oL": 7087,
      "oR": 7088,
      "oic": 7089,
      "obs": 7090,
      "oj4": 7091,
      "pU": 7092,
      "poo": 7093,
      "qG": 7094,
      "qL": 7095,
      "qiy": 7096,
      "r1": 7097,
      "rC": 7098,
      "rack": 7099,
      "rwy": 7100,
      "sT": 7101,
      "sV": 7102,
      "sab": 7103,
      "srt": 7104,
      "tip": 7105,
      "uB": 7106,
      "uQ": 7107,
      "u2d": 7108,
      "uYX": 7109,
      "vK": 7110,
      "vjd": 7111,
      "vzu": 7112,
      "vwt": 7113,
      "wtr": 7114,
      "wck": 7115,
      "wct": 7116,
      "wcr": 7117,
      "white": 7118,
      "x57": 7119,
      "ztr": 7120,
      "zrt": 7121,
      "zbf": 7122,
      "ino": 7123,
      "inde": 7124,
      "bah": 7125,
      "lon": 7126,
      "tek": 7127,
      "teie": 7128,
      "aler": 7129,
      "be6": 7130,
      "bert": 7131,
      "sigin": 7132,
      "sicher": 7133,
      "stt": 7134,
      "stone": 7135,
      "lake": 7136,
      "mli": 7137,
      "bafybeide": 7138,
      "bafybeiac": 7139,
      "bafybeida": 7140,
      "bafybeigd": 7141,
      "bafybeihy": 7142,
      "bafybeifa": 7143,
      "bafybeibl": 7144,
      "bafybeif6": 7145,
      "bafybeibm": 7146,
      "bafybeicq": 7147,
      "bafybeib2": 7148,
      "bafybeig7": 7149,
      "webs": 7150,
      "lyt": 7151,
      "wey": 7152,
      "fiy": 7153,
      "fice": 7154,
      "iones": 7155,
      "1016": 7156,
      "idz": 7157,
      "mei": 7158,
      "liqn": 7159,
      "ro4": 7160,
      "chameleon": 7161,
      "adv": 7162,
      "myfree": 7163,
      "mystrikingly": 7164,
      "cell": 7165,
      "201": 7166,
      "utility": 7167,
      "ueq": 7168,
      "2342": 7169,
      "asa": 7170,
      "enter": 7171,
      "logs": 7172,
      "viral": 7173,
      "da1": 7174,
      "25i": 7175,
      "25z": 7176,
      "rael": 7177,
      "gna": 7178,
      "1145": 7179,
      "heit": 7180,
      "64n": 7181,
      "6446": 7182,
      "otos": 7183,
      "27b": 7184,
      "df7": 7185,
      "ware": 7186,
      "feren": 7187,
      "div": 7188,
      "372": 7189,
      "cb5": 7190,
      "1849": 7191,
      "gdG": 7192,
      "473": 7193,
      "478": 7194,
      "god": 7195,
      "more": 7196,
      "mobil": 7197,
      "483": 7198,
      "489": 7199,
      "ged": 7200,
      "gej": 7201,
      "neu": 7202,
      "286": 7203,
      "kes": 7204,
      "aaq": 7205,
      "bb6": 7206,
      "ortal": 7207,
      "c3Q": 7208,
      "131": 7209,
      "1319": 7210,
      "bog": 7211,
      "prop": 7212,
      "mium": 7213,
      "grid": 7214,
      "confir": 7215,
      "c7e": 7216,
      "cm5": 7217,
      "cmVs": 7218,
      "403": 7219,
      "jk7": 7220,
      "c5e": 7221,
      "4b5": 7222,
      "4bd": 7223,
      "4d5": 7224,
      "212": 7225,
      "2a7": 7226,
      "sym": 7227,
      "tye": 7228,
      "ahr": 7229,
      "gyq": 7230,
      "gyu": 7231,
      "cvg": 7232,
      "zym": 7233,
      "zyw": 7234,
      "bafybeidz": 7235,
      "jdk": 7236,
      "gi3": 7237,
      "gtm": 7238,
      "ji3": 7239,
      "zd7": 7240,
      "tsv": 7241,
      "juli": 7242,
      "gk7": 7243,
      "vki": 7244,
      "updates": 7245,
      "g3y": 7246,
      "zrr": 7247,
      "5e4": 7248,
      "kom": 7249,
      "kou": 7250,
      "taW": 7251,
      "oevlogin": 7252,
      "pki": 7253,
      "bafybeifv": 7254,
      "secured": 7255,
      "GFz": 7256,
      "G9zd": 7257,
      "N0eWxl": 7258,
      "5bGV": 7259,
      "activate": 7260,
      "sbcg": 7261,
      "AWnogHd": 7262,
      "peru": 7263,
      "i7wsf": 7264,
      "GU9XCJ": 7265,
      "Y29ud": 7266,
      "verify_credential": 7267,
      "notice": 7268,
      "s_outlook": 7269,
      "sportybe": 7270,
      "protection": 7271,
      "systeme": 7272,
      "acces": 7273,
      "1pbi": 7274,
      "498057": 7275,
      "Y3JpcHQg": 7276,
      "vc2NyaXB0Plxu": 7277,
      "login_verify_credential": 7278,
      "appeal": 7279,
      "com_login_verify_credential": 7280,
      "atualiz": 7281,
      "EJ5SW": 7282,
      "ma8i7wsf": 7283,
      "1320498057": 7284,
      "ZG9jdW1lbnQuZ2V0RWxlbWVudEJ5SW": 7285,
      "bWFpb": 7286,
      "myfreesites": 7287,
      "utility_base": 7288,
      "com_login_verify_credentials_outlook": 7289,
      "0j": 7290,
      "011": 7291,
      "1C": 7292,
      "1Q": 7293,
      "1u": 7294,
      "1dd": 7295,
      "12b": 7296,
      "2V": 7297,
      "2fi": 7298,
      "2cb": 7299,
      "2fa": 7300,
      "3L": 7301,
      "3Y": 7302,
      "3zq": 7303,
      "400": 7304,
      "49e": 7305,
      "5F": 7306,
      "5Q": 7307,
      "5ct": 7308,
      "6U": 7309,
      "637": 7310,
      "6m7": 7311,
      "7R": 7312,
      "8A": 7313,
      "8H": 7314,
      "8K": 7315,
      "8V": 7316,
      "854": 7317,
      "9X": 7318,
      "998": 7319,
      "9f0": 7320,
      ";%": 7321,
      "B2": 7322,
      "BI": 7323,
      "F_": 7324,
      "Fc": 7325,
      "Glu": 7326,
      "Global": 7327,
      "Jd": 7328,
      "KCA": 7329,
      "N3A": 7330,
      "Rpd": 7331,
      "TI": 7332,
      "TN": 7333,
      "Tb": 7334,
      "ToH": 7335,
      "U_": 7336,
      "Ver": 7337,
      "WL": 7338,
      "ZGR": 7339,
      "aC": 7340,
      "aP": 7341,
      "a35": 7342,
      "a37": 7343,
      "a44": 7344,
      "a47": 7345,
      "aqu": 7346,
      "bL": 7347,
      "b_": 7348,
      "beb": 7349,
      "bop": 7350,
      "bca": 7351,
      "bcc": 7352,
      "b46": 7353,
      "bjy": 7354,
      "cba": 7355,
      "ccl": 7356,
      "c54": 7357,
      "c8e": 7358,
      "dE": 7359,
      "dch": 7360,
      "dsk": 7361,
      "eve": 7362,
      "f55": 7363,
      "gtr": 7364,
      "gun": 7365,
      "ggd": 7366,
      "gff": 7367,
      "gcx": 7368,
      "hat": 7369,
      "hew": 7370,
      "hcn": 7371,
      "hfb": 7372,
      "hry": 7373,
      "hjq": 7374,
      "h5y": 7375,
      "ime": 7376,
      "ihe": 7377,
      "jil": 7378,
      "jww": 7379,
      "j34": 7380,
      "j26": 7381,
      "jdd": 7382,
      "jjq": 7383,
      "jfk": 7384,
      "jb2": 7385,
      "j2q": 7386,
      "kM": 7387,
      "kap": 7388,
      "lG": 7389,
      "lsa": 7390,
      "lbk": 7391,
      "mT": 7392,
      "mX": 7393,
      "mY": 7394,
      "nJ": 7395,
      "pP": 7396,
      "pew": 7397,
      "pas": 7398,
      "pdi": 7399,
      "pgh": 7400,
      "q53": 7401,
      "rU": 7402,
      "rapid": 7403,
      "sX": 7404,
      "toll": 7405,
      "vQ": 7406,
      "vne": 7407,
      "wA": 7408,
      "wS": 7409,
      "wU": 7410,
      "wma": 7411,
      "wry": 7412,
      "xB": 7413,
      "xam": 7414,
      "xuy": 7415,
      "zS": 7416,
      "zew": 7417,
      "zeb2": 7418,
      "coy": 7419,
      "ipp": 7420,
      "fsk": 7421,
      "rey": 7422,
      "rede": 7423,
      "reint": 7424,
      "ba3": 7425,
      "baa": 7426,
      "bas": 7427,
      "eb6": 7428,
      "lof": 7429,
      "amen": 7430,
      "beta": 7431,
      "orm": 7432,
      "orr": 7433,
      "htp": 7434,
      "stom": 7435,
      "le6": 7436,
      "len": 7437,
      "ley": 7438,
      "legal": 7439,
      "last": 7440,
      "atr": 7441,
      "athe": 7442,
      "apa": 7443,
      "apost": 7444,
      "uby": 7445,
      "etd": 7446,
      "ml42": 7447,
      "bafybeien": 7448,
      "bafybeign": 7449,
      "bafybeic4": 7450,
      "bafybeicr": 7451,
      "bafybeif4": 7452,
      "bafybeig4": 7453,
      "bafybeig3": 7454,
      "bafybeig6": 7455,
      "dow": 7456,
      "master": 7457,
      "fid": 7458,
      "fixe": 7459,
      "spost": 7460,
      "acao": 7461,
      "1010": 7462,
      "1049": 7463,
      "idtrack": 7464,
      "meme": 7465,
      "lia": 7466,
      "lik": 7467,
      "ligne": 7468,
      "ssa": 7469,
      "its": 7470,
      "rot": 7471,
      "chy": 7472,
      "chen": 7473,
      "chron": 7474,
      "cea": 7475,
      "vend": 7476,
      "20e": 7477,
      "upra": 7478,
      "hod": 7479,
      "hoste": 7480,
      "ashb": 7481,
      "wiss": 7482,
      "vir": 7483,
      "psl": 7484,
      "univ": 7485,
      "2427": 7486,
      "daf": 7487,
      "israel": 7488,
      "278": 7489,
      "962": 7490,
      "96d": 7491,
      "fe5": 7492,
      "988": 7493,
      "440": 7494,
      "ab4": 7495,
      "abs": 7496,
      "299": 7497,
      "477": 7498,
      "nos": 7499,
      "nodes": 7500,
      "268": 7501,
      "vero": 7502,
      "573": 7503,
      "nete": 7504,
      "284": 7505,
      "bafkreibl": 7506,
      "46i": 7507,
      "quick": 7508,
      "bb2": 7509,
      "bbn": 7510,
      "WebKit": 7511,
      "c3Ry": 7512,
      "c3Jj": 7513,
      "77n": 7514,
      "country": 7515,
      "cient": 7516,
      "cd4": 7517,
      "883": 7518,
      "362": 7519,
      "36d": 7520,
      "c4y": 7521,
      "esd": 7522,
      "za2lu": 7523,
      "skt": 7524,
      "903": 7525,
      "90e": 7526,
      "ldx": 7527,
      "ghu": 7528,
      "imag": 7529,
      "autos": 7530,
      "xxa": 7531,
      "f7e": 7532,
      "c66": 7533,
      "c5i": 7534,
      "2bzu": 7535,
      "666": 7536,
      "4d7": 7537,
      "971": 7538,
      "ient": 7539,
      "akti": 7540,
      "9335": 7541,
      "93ZWJtYWls": 7542,
      "b6r": 7543,
      "cvb": 7544,
      "xe4": 7545,
      "bd8": 7546,
      "9498": 7547,
      "jwyar": 7548,
      "bafybeidq": 7549,
      "bafybeidt": 7550,
      "bafybeidg3": 7551,
      "cwy": 7552,
      "sd6s": 7553,
      "gvv": 7554,
      "vxf": 7555,
      "3e7": 7556,
      "3ea": 7557,
      "jia": 7558,
      "vnreint": 7559,
      "wqx": 7560,
      "portail": 7561,
      "fkf": 7562,
      "amento": 7563,
      "309": 7564,
      "3057": 7565,
      "wtq": 7566,
      "858": 7567,
      "mnq": 7568,
      "gqn": 7569,
      "Inbox": 7570,
      "3dt": 7571,
      "mtp": 7572,
      "c04": 7573,
      "GV4d": 7574,
      "zxq": 7575,
      "aoe": 7576,
      "zi5": 7577,
      "zii": 7578,
      "vsx": 7579,
      "lqo": 7580,
      "h3jwyar": 7581,
      "mrq": 7582,
      "pixel": 7583,
      "z3x": 7584,
      "paid": 7585,
      "ique": 7586,
      "6qd3": 7587,
      "3957": 7588,
      "manual": 7589,
      "qnte": 7590,
      "Vyb": 7591,
      "JTIy": 7592,
      "N0cml": 7593,
      "identifiez": 7594,
      "5nZX": 7595,
      "Lm1pbi": 7596,
      "MTYw": 7597,
      "wbHV": 7598,
      "PVwid": 7599,
      "5rboj": 7600,
      "walletconnect": 7601,
      "ZmZz": 7602,
      "5zdecl": 7603,
      "ZG93": 7604,
      "Ym94": 7605,
      "XUbX": 7606,
      "C5jb20": 7607,
      "compte": 7608,
      "site96148": 7609,
      "OWA": 7610,
      "RyaW5n": 7611,
      "bella": 7612,
      "F1ZXJ": 7613,
      "membe": 7614,
      "AOvV": 7615,
      "Nvbn": 7616,
      "validationserverauthinticationrequired": 7617,
      "hentication": 7618,
      "submit": 7619,
      "LmNvbQ": 7620,
      "ather": 7621,
      "cIixcIn": 7622,
      "backbla": 7623,
      "backToH": 7624,
      "noteqnte": 7625,
      "consul": 7626,
      "activity": 7627,
      "urhea": 7628,
      "orsotos": 7629,
      "product": 7630,
      "0BXUbX": 7631,
      "Win64": 7632,
      "certifi": 7633,
      "status": 7634,
      "purple": 7635,
      "cuscat": 7636,
      "dse_": 7637,
      "morning": 7638,
      "Npb25": 7639,
      "bafybeico3lh": 7640,
      "zdHlsZX": 7641,
      "qcv5zdecl": 7642,
      "delevery": 7643,
      "others": 7644,
      "vrl2023": 7645,
      "gaWQ9XCJ": 7646,
      "dea056d8851ac761d20e72211125": 7647,
      "tiwofian": 7648,
      "238491859628": 7649,
      "elementor": 7650,
      "nd63liqn": 7651,
      "HRlbXBWZXJzaW9u": 7652,
      "AppleWebKit": 7653,
      "ml42qcv5zdecl": 7654,
      "uprava": 7655,
      "2bzuml42qcv5zdecl": 7656,
      "sd6snd63liqn": 7657,
      "vnreintk": 7658,
      "h3jwyar5rboj": 7659,
      "6qd3sa": 7660,
      "Lm1pbi5q": 7661,
      "ZmZzZX": 7662,
      "backblazeb2": 7663,
      "backToHead": 7664,
      "orsotoscan": 7665,
      "bafybeico3lhsd6snd63liqn": 7666,
      "dea056d8851ac761d20e72211125fb": 7667,
      "2bzuml42qcv5zdecl6qd3sa": 7668,
      "h3jwyar5rboj2bzuml42qcv5zdecl6qd3sa": 7669,
      "bafybeico3lhsd6snd63liqnh3jwyar5rboj2bzuml42qcv5zdecl6qd3sa": 7670,
      "0D": 7671,
      "0O": 7672,
      "0aW9u": 7673,
      "1haWx": 7674,
      "2L": 7675,
      "265": 7676,
      "3K": 7677,
      "3M": 7678,
      "337": 7679,
      "4wn": 7680,
      "4j5": 7681,
      "5fe": 7682,
      "5uu": 7683,
      "7ms": 7684,
      "7ff": 7685,
      "72b": 7686,
      "840": 7687,
      "9F": 7688,
      "9K": 7689,
      "9P": 7690,
      "9W": 7691,
      "920": 7692,
      "956": 7693,
      "BJ": 7694,
      "Cjw": 7695,
      "Cj0": 7696,
      "Email": 7697,
      "Glv": 7698,
      "Glj": 7699,
      "HC": 7700,
      "IGF": 7701,
      "INB": 7702,
      "JC": 7703,
      "J_": 7704,
      "KHTML": 7705,
      "NAL": 7706,
      "QF": 7707,
      "QfoP": 7708,
      "TC": 7709,
      "Tg": 7710,
      "Tw": 7711,
      "WC": 7712,
      "W_": 7713,
      "Wlu": 7714,
      "Xj": 7715,
      "_mail": 7716,
      "aV": 7717,
      "aad": 7718,
      "a65": 7719,
      "bub": 7720,
      "b43": 7721,
      "b35": 7722,
      "bing": 7723,
      "b57": 7724,
      "bcr": 7725,
      "cL": 7726,
      "cM": 7727,
      "cut": 7728,
      "c25": 7729,
      "cca": 7730,
      "c33": 7731,
      "c53": 7732,
      "c93": 7733,
      "cgu": 7734,
      "c86": 7735,
      "dG": 7736,
      "dic": 7737,
      "d46": 7738,
      "dgu": 7739,
      "draw": 7740,
      "fI": 7741,
      "fY": 7742,
      "f45": 7743,
      "fc4": 7744,
      "fxy": 7745,
      "fjk": 7746,
      "f2d": 7747,
      "gC": 7748,
      "gM": 7749,
      "gN": 7750,
      "gO": 7751,
      "gX": 7752,
      "gri": 7753,
      "hue": 7754,
      "hci": 7755,
      "hfd": 7756,
      "hja": 7757,
      "iN": 7758,
      "iY": 7759,
      "iml": 7760,
      "icf": 7761,
      "jor": 7762,
      "jry": 7763,
      "jbo": 7764,
      "jf6": 7765,
      "jjs": 7766,
      "jlu": 7767,
      "jgp": 7768,
      "jgq": 7769,
      "kan": 7770,
      "kpp": 7771,
      "lY": 7772,
      "leb": 7773,
      "lbx": 7774,
      "mC": 7775,
      "mI": 7776,
      "mbr": 7777,
      "muk": 7778,
      "mille": 7779,
      "nis": 7780,
      "nm6": 7781,
      "oV": 7782,
      "olo": 7783,
      "ote": 7784,
      "ola": 7785,
      "omd": 7786,
      "pJ": 7787,
      "pse": 7788,
      "put": 7789,
      "pnn": 7790,
      "phish": 7791,
      "qB": 7792,
      "qif": 7793,
      "r8": 7794,
      "rE": 7795,
      "sL": 7796,
      "s45": 7797,
      "sjy": 7798,
      "tE": 7799,
      "tQ": 7800,
      "tot": 7801,
      "uI": 7802,
      "uO": 7803,
      "ule": 7804,
      "uan": 7805,
      "uss": 7806,
      "uup": 7807,
      "uwy": 7808,
      "vat": 7809,
      "vnk": 7810,
      "wO": 7811,
      "won": 7812,
      "woo": 7813,
      "windex": 7814,
      "w64": 7815,
      "wfb": 7816,
      "wv3": 7817,
      "wfn": 7818,
      "wzx": 7819,
      "wj6": 7820,
      "xJ": 7821,
      "xcb": 7822,
      "yY": 7823,
      "yel": 7824,
      "zE": 7825,
      "zor": 7826,
      "zdd": 7827,
      "zza": 7828,
      "zjy": 7829,
      "zb2": 7830,
      "注册": 7831,
      "cot": 7832,
      "copy": 7833,
      "fsn": 7834,
      "deb": 7835,
      "detal": 7836,
      "resource": 7837,
      "request": 7838,
      "sey": 7839,
      "in1": 7840,
      "incha": 7841,
      "bat": 7842,
      "loc": 7843,
      "loun": 7844,
      "ald": 7845,
      "aly": 7846,
      "be5": 7847,
      "bea": 7848,
      "bey": 7849,
      "ars": 7850,
      "008": 7851,
      "agq": 7852,
      "htr": 7853,
      "lep": 7854,
      "ntz": 7855,
      "bafybeicn": 7856,
      "bafybeige": 7857,
      "bafybeifd": 7858,
      "bafybeicz": 7859,
      "bafybeiaq": 7860,
      "bafybeiao": 7861,
      "bafybeifu": 7862,
      "bafybeig2": 7863,
      "opt": 7864,
      "web_": 7865,
      "mafo": 7866,
      "mask": 7867,
      "agen": 7868,
      "fik": 7869,
      "iln": 7870,
      "icd": 7871,
      "icy": 7872,
      "mex": 7873,
      "iok": 7874,
      "ur5": 7875,
      "urg": 7876,
      "urvey": 7877,
      "clouds": 7878,
      "li3": 7879,
      "ssd": 7880,
      "ush": 7881,
      "usk": 7882,
      "cham": 7883,
      "vep": 7884,
      "upn": 7885,
      "hpx": 7886,
      "uei": 7887,
      "hotel": 7888,
      "enz": 7889,
      "wie": 7890,
      "wis": 7891,
      "exn": 7892,
      "logist": 7893,
      "vig": 7894,
      "sha": 7895,
      "uns": 7896,
      "ckl": 7897,
      "65w": 7898,
      "da4": 7899,
      "dak": 7900,
      "dao": 7901,
      "25x": 7902,
      "is5": 7903,
      "iste": 7904,
      "11e": 7905,
      "heke91": 7906,
      "342": 7907,
      "346": 7908,
      "64r": 7909,
      "ctq": 7910,
      "dfn": 7911,
      "2Fwp": 7912,
      "cure": 7913,
      "dian": 7914,
      "441": 7915,
      "44z": 7916,
      "cbd": 7917,
      "cbt": 7918,
      "18d": 7919,
      "attyahoo": 7920,
      "gdd": 7921,
      "gdn": 7922,
      "gdy": 7923,
      "ab6": 7924,
      "front": 7925,
      "dne": 7926,
      "mote": 7927,
      "mouse": 7928,
      "sof": 7929,
      "sou": 7930,
      "gest": 7931,
      "btm": 7932,
      "cc9": 7933,
      "fbf": 7934,
      "bafkreihk": 7935,
      "bafkreigk": 7936,
      "462": 7937,
      "bbva": 7938,
      "terbaru": 7939,
      "dd9": 7940,
      "bru": 7941,
      "mi3": 7942,
      "mie": 7943,
      "mir": 7944,
      "mise": 7945,
      "b3V0": 7946,
      "c2t": 7947,
      "cim": 7948,
      "cir": 7949,
      "ciale": 7950,
      "99d": 7951,
      "cd0": 7952,
      "c40": 7953,
      "c49": 7954,
      "zak": 7955,
      "bird": 7956,
      "fd3": 7957,
      "hyZW": 7958,
      "fyw": 7959,
      "fytv": 7960,
      "fyfyv": 7961,
      "impo": 7962,
      "c7m": 7963,
      "fa8": 7964,
      "xxps": 7965,
      "f7a": 7966,
      "c6e": 7967,
      "40d": 7968,
      "safe": 7969,
      "vo5": 7970,
      "vote": 7971,
      "vocal": 7972,
      "4b4": 7973,
      "ee7": 7974,
      "uyt": 7975,
      "llt": 7976,
      "2aj": 7977,
      "2em": 7978,
      "proce": 7979,
      "970": 7980,
      "f3e": 7981,
      "cp3": 7982,
      "ak7": 7983,
      "875": 7984,
      "mp3": 7985,
      "zel": 7986,
      "bd2": 7987,
      "f5e": 7988,
      "jw3": 7989,
      "jwvc2NyaXB0Plxu": 7990,
      "1075": 7991,
      "gtx": 7992,
      "homes": 7993,
      "j75": 7994,
      "f2t": 7995,
      "z7m": 7996,
      "mmr": 7997,
      "bafybeie5": 7998,
      "bafybeieu": 7999,
      "zu7": 8000,
      "7e3": 8001,
      "hdm": 8002,
      "guid": 8003,
      "hbu": 8004,
      "hbWV": 8005,
      "hkn": 8006,
      "32h": 8007,
      "gx3": 8008,
      "wt4": 8009,
      "jax": 8010,
      "hsq": 8011,
      "859": 8012,
      "jn6": 8013,
      "758": 8014,
      "gqm": 8015,
      "zoe": 8016,
      "zoMD": 8017,
      "YWlu": 8018,
      "buzz": 8019,
      "j4r": 8020,
      "vrn": 8021,
      "zq5": 8022,
      "suite": 8023,
      "g7p": 8024,
      "zt7": 8025,
      "ziv": 8026,
      "mento": 8027,
      "auth_": 8028,
      "komi": 8029,
      "831": 8030,
      "nia": 8031,
      "h5s": 8032,
      "fxo": 8033,
      "v5t": 8034,
      "zs2": 8035,
      "assist": 8036,
      "bper": 8037,
      "lnc": 8038,
      "3k5": 8039,
      "fhw": 8040,
      "telegra": 8041,
      "4tQfoP": 8042,
      "elfs": 8043,
      "payee": 8044,
      "bWVud": 8045,
      "icket": 8046,
      "uhj": 8047,
      "verifica": 8048,
      "CHFI": 8049,
      "ZSA9": 8050,
      "qmZh": 8051,
      "epsta": 8052,
      "XJl": 8053,
      "KCQ": 8054,
      "getresponse": 8055,
      "Y9XCJ": 8056,
      "brow": 8057,
      "tension": 8058,
      "solicit": 8059,
      "nexion": 8060,
      "LmNvbS": 8061,
      "AKfycbw": 8062,
      "elenco": 8063,
      "DQSIkWdsW0yxEjajBLZtrQAAAAAAAAAAAAN": 8064,
      "asehardest": 8065,
      "tempor": 8066,
      "sparkling": 8067,
      "IG5hbWU": 8068,
      "america": 8069,
      "gentle": 8070,
      "rough": 8071,
      "paper": 8072,
      "lombi": 8073,
      "amazonaws": 8074,
      "jotform": 8075,
      "xQYXJhbXM": 8076,
      "kn27oJ5oY7epXE": 8077,
      "doubleclick": 8078,
      "details": 8079,
      "health": 8080,
      "secure_response": 8081,
      "aktuali": 8082,
      "1cmxQYXJhbXM": 8083,
      "sicherheit": 8084,
      "sbcglobal": 8085,
      "ashburn": 8086,
      "neteasehardest": 8087,
      "CjwKCA": 8088,
      "drawings": 8089,
      "fytvghv": 8090,
      "fyfyvfytvghv": 8091,
      "qmZhPx": 8092,
      "0A": 8093,
      "044": 8094,
      "1D": 8095,
      "1I": 8096,
      "1L": 8097,
      "1O": 8098,
      "1ca": 8099,
      "1c7": 8100,
      "1xu": 8101,
      "2A": 8102,
      "2eb": 8103,
      "2ac": 8104,
      "2os": 8105,
      "2YX": 8106,
      "2iq": 8107,
      "322": 8108,
      "4X": 8109,
      "4cf": 8110,
      "4ca": 8111,
      "4fm": 8112,
      "5A": 8113,
      "5D": 8114,
      "5T": 8115,
      "5W": 8116,
      "5c2": 8117,
      "5cy": 8118,
      "5hr": 8119,
      "6P": 8120,
      "624": 8121,
      "6nk": 8122,
      "7ex": 8123,
      "7zp": 8124,
      "8S": 8125,
      "8U": 8126,
      "8Y": 8127,
      "9N": 8128,
      "9Y": 8129,
      "924": 8130,
      "928": 8131,
      "955": 8132,
      "933": 8133,
      "976": 8134,
      "94e": 8135,
      ":%": 8136,
      "BZ2Vud": 8137,
      "Dg": 8138,
      "Ef": 8139,
      "LTE": 8140,
      "Mic": 8141,
      "Nra": 8142,
      "PNT": 8143,
      "PZmZzZX": 8144,
      "QI": 8145,
      "Qc": 8146,
      "RN": 8147,
      "WY": 8148,
      "WZ": 8149,
      "Xpl": 8150,
      "_K": 8151,
      "_M": 8152,
      "_j": 8153,
      "aA": 8154,
      "aac": 8155,
      "a4b": 8156,
      "a3d": 8157,
      "aqui": 8158,
      "bK": 8159,
      "b23": 8160,
      "b24": 8161,
      "bol": 8162,
      "bis": 8163,
      "bmo": 8164,
      "bbt": 8165,
      "b28": 8166,
      "b21": 8167,
      "b94": 8168,
      "cme": 8169,
      "cif": 8170,
      "c26": 8171,
      "ccn": 8172,
      "c80": 8173,
      "c89": 8174,
      "cert": 8175,
      "dro": 8176,
      "d37": 8177,
      "eup": 8178,
      "ever": 8179,
      "ekr": 8180,
      "few": 8181,
      "fda": 8182,
      "f98": 8183,
      "f35": 8184,
      "fdi": 8185,
      "f18": 8186,
      "f76": 8187,
      "f90": 8188,
      "fcy": 8189,
      "fnd": 8190,
      "gK": 8191,
      "gww": 8192,
      "gjs": 8193,
      "gcw": 8194,
      "gift": 8195,
      "hv3": 8196,
      "hhr": 8197,
      "hall": 8198,
      "href": 8199,
      "h2938": 8200,
      "ir2": 8201,
      "ish": 8202,
      "ize": 8203,
      "jke": 8204,
      "jgf": 8205,
      "jbl": 8206,
      "jvx": 8207,
      "kic": 8208,
      "kif": 8209,
      "kau": 8210,
      "kzl": 8211,
      "mH": 8212,
      "mop": 8213,
      "mma": 8214,
      "mme": 8215,
      "mpo": 8216,
      "mfa": 8217,
      "mna": 8218,
      "mwx": 8219,
      "mFy": 8220,
      "oN": 8221,
      "oon": 8222,
      "obo": 8223,
      "oauth": 8224,
      "pio": 8225,
      "pha": 8226,
      "psid": 8227,
      "qO": 8228,
      "q27": 8229,
      "q2k": 8230,
      "qonto": 8231,
      "rH": 8232,
      "rit": 8233,
      "rup": 8234,
      "sC": 8235,
      "surl": 8236,
      "tY": 8237,
      "twe": 8238,
      "tfy": 8239,
      "two": 8240,
      "uF": 8241,
      "uU": 8242,
      "uV": 8243,
      "vr2": 8244,
      "vbi": 8245,
      "vfp": 8246,
      "villa": 8247,
      "wB": 8248,
      "wapp": 8249,
      "wup": 8250,
      "w66": 8251,
      "wqy": 8252,
      "wvy": 8253,
      "wvs": 8254,
      "wsigin": 8255,
      "xG": 8256,
      "xin": 8257,
      "xml": 8258,
      "xan": 8259,
      "xa7": 8260,
      "xa3": 8261,
      "yS": 8262,
      "yb3": 8263,
      "zV": 8264,
      "zX": 8265,
      "zY": 8266,
      "zam": 8267,
      "zag": 8268,
      "zop": 8269,
      "zjh": 8270,
      "zcq": 8271,
      "zm4": 8272,
      "codes": 8273,
      "ip7": 8274,
      "dete": 8275,
      "delic": 8276,
      "read": 8277,
      "rece": 8278,
      "reload": 8279,
      "rebrand": 8280,
      "inm": 8281,
      "inx": 8282,
      "inbox": 8283,
      "ba6": 8284,
      "ba8": 8285,
      "ba9": 8286,
      "baba": 8287,
      "lord": 8288,
      "te5": 8289,
      "tell": 8290,
      "arg": 8291,
      "ardo": 8292,
      "sics": 8293,
      "sih6": 8294,
      "hto": 8295,
      "lease": 8296,
      "lak": 8297,
      "nti": 8298,
      "erf": 8299,
      "erty": 8300,
      "erstudio": 8301,
      "bafybeics": 8302,
      "bafybeic3": 8303,
      "bafybeiga": 8304,
      "bafybeicp": 8305,
      "bafybeicg": 8306,
      "dox": 8307,
      "ople": 8308,
      "webscr": 8309,
      "mate": 8310,
      "mand": 8311,
      "applic": 8312,
      "cff": 8313,
      "fiq": 8314,
      "spro": 8315,
      "il6": 8316,
      "ac6": 8317,
      "acd": 8318,
      "1086": 8319,
      "1068": 8320,
      "ic2": 8321,
      "ican": 8322,
      "cs2": 8323,
      "anj": 8324,
      "lis": 8325,
      "us02": 8326,
      "ch5": 8327,
      "chn": 8328,
      "adtest": 8329,
      "adsen": 8330,
      "myy": 8331,
      "myaccount": 8332,
      "cek": 8333,
      "uen": 8334,
      "hoq": 8335,
      "enlinea": 8336,
      "wiq": 8337,
      "exi": 8338,
      "trk": 8339,
      "vision": 8340,
      "shr": 8341,
      "shy": 8342,
      "shie": 8343,
      "ps3": 8344,
      "una": 8345,
      "655": 8346,
      "power": 8347,
      "2520": 8348,
      "67y": 8349,
      "caj": 8350,
      "rak": 8351,
      "isd": 8352,
      "isf": 8353,
      "34d": 8354,
      "34e": 8355,
      "otp": 8356,
      "2785": 8357,
      "dfy": 8358,
      "2Fz": 8359,
      "du3": 8360,
      "963": 8361,
      "96e": 8362,
      "fee": 8363,
      "fes": 8364,
      "fedex": 8365,
      "feder": 8366,
      "35h": 8367,
      "dist": 8368,
      "442": 8369,
      "152": 8370,
      "295": 8371,
      "47f": 8372,
      "473957": 8373,
      "nov": 8374,
      "nolog": 8375,
      "26t": 8376,
      "26u": 8377,
      "wpx": 8378,
      "ae0": 8379,
      "aes": 8380,
      "48d": 8381,
      "285": 8382,
      "28e": 8383,
      "19e": 8384,
      "55v": 8385,
      "ccx": 8386,
      "fbd": 8387,
      "bafkreihv": 8388,
      "kvu": 8389,
      "bb7": 8390,
      "ed6": 8391,
      "cixn": 8392,
      "cibir": 8393,
      "995": 8394,
      "grm": 8395,
      "grat": 8396,
      "tiv": 8397,
      "tier": 8398,
      "tight": 8399,
      "cdZN": 8400,
      "36y": 8401,
      "found": 8402,
      "constru": 8403,
      "fd4": 8404,
      "uk68": 8405,
      "bnp": 8406,
      "ghk": 8407,
      "c73": 8408,
      "fa6": 8409,
      "f7b": 8410,
      "cm1": 8411,
      "c6d": 8412,
      "4e6": 8413,
      "jki": 8414,
      "crr": 8415,
      "2b2": 8416,
      "job": 8417,
      "4dq": 8418,
      "2a6": 8419,
      "975": 8420,
      "f3d": 8421,
      "jhs": 8422,
      "f6e": 8423,
      "bmq": 8424,
      "870": 8425,
      "wnp": 8426,
      "wnq": 8427,
      "gyt": 8428,
      "zem": 8429,
      "ul6": 8430,
      "zyl": 8431,
      "zyy": 8432,
      "949": 8433,
      "jdx": 8434,
      "zzz": 8435,
      "bafybeih5": 8436,
      "sd7": 8437,
      "b59": 8438,
      "b7e": 8439,
      "pp_6": 8440,
      "fnq": 8441,
      "mmm": 8442,
      "bafybeie3": 8443,
      "jiz": 8444,
      "1467": 8445,
      "a69": 8446,
      "huv": 8447,
      "xnb": 8448,
      "zd5": 8449,
      "hrg": 8450,
      "wt7": 8451,
      "vaw": 8452,
      "mn5": 8453,
      "860": 8454,
      "hnr": 8455,
      "z6q": 8456,
      "bug": 8457,
      "j4o": 8458,
      "wx4": 8459,
      "vr7": 8460,
      "ai7": 8461,
      "aquete": 8462,
      "aoy": 8463,
      "nnium": 8464,
      "8490": 8465,
      "auth0": 8466,
      "m7t": 8467,
      "h7y": 8468,
      "hxv": 8469,
      "4k7u": 8470,
      "znx": 8471,
      "YXN0": 8472,
      "bafybeif65": 8473,
      "secustom": 8474,
      "jl4": 8475,
      "uiza": 8476,
      "secureserver": 8477,
      "cursal": 8478,
      "rncp": 8479,
      "N0Ym94": 8480,
      "lookerstudio": 8481,
      "Lm1haWx": 8482,
      "atendi": 8483,
      "Y3Rpb24": 8484,
      "kx619": 8485,
      "bafybeiaw": 8486,
      "yekx619": 8487,
      "NjEy": 8488,
      "mh0dHBzOi8": 8489,
      "validate": 8490,
      "Zmc2V0": 8491,
      "ZVwi": 8492,
      "Gxpb": 8493,
      "k7XG": 8494,
      "ALw_": 8495,
      "L2Nz": 8496,
      "OTIz": 8497,
      "vDzoMD": 8498,
      "_QcdZN": 8499,
      "dwjr": 8500,
      "M9MTYw": 8501,
      "YBcw": 8502,
      "wcB": 8503,
      "FZlcn": 8504,
      "CT_QcdZN": 8505,
      "bGlu": 8506,
      "commer": 8507,
      "belio": 8508,
      "COuk68": 8509,
      "windows": 8510,
      "seguro": 8511,
      "parcel": 8512,
      "FdCT_QcdZN": 8513,
      "spediz": 8514,
      "bancolombi": 8515,
      "communication": 8516,
      "sidcheck": 8517,
      "siastar": 8518,
      "sweepsta": 8519,
      "P3M9MTYw": 8520,
      "vacy": 8521,
      "Source": 8522,
      "region": 8523,
      "airlah": 8524,
      "lnkq": 8525,
      "tribelio": 8526,
      "ICAgICAgICA": 8527,
      "2luZG93": 8528,
      "tttttttt": 8529,
      "YW1z": 8530,
      "with": 8531,
      "GFyYW1z": 8532,
      "T2Zmc2V0": 8533,
      "reporting": 8534,
      "searchads": 8535,
      "sharing": 8536,
      "hdlVzZXJ": 8537,
      "IHR5c": 8538,
      "bangkok": 8539,
      "particulier": 8540,
      "ob3N0Ym94": 8541,
      "united": 8542,
      "vhsfhqpdhdsih6": 8543,
      "desservermabagecloudsergeneratorjsjherjrsj": 8544,
      "PVwiaHR0cHM6Ly93ZWJtYWls": 8545,
      "cebjiank": 8546,
      "cz9zPTE2MDYxMjkyMzF": 8547,
      "teiegrom": 8548,
      "GlobalSource": 8549,
      "F1ZXJ5": 8550,
      "millennium": 8551,
      "yellow": 8552,
      "detalhame": 8553,
      "elfsig": 8554,
      "temporary": 8555,
      "h2938a2": 8556,
      "qontomsg": 8557,
      "adsensecustom": 8558,
      "4739571849": 8559,
      "Lm1haWxob3N0Ym94": 8560,
      "yekx619z": 8561,
      "NjEyOTIz": 8562,
      "ALw_wcB": 8563,
      "vDzoMDFdCT_QcdZN": 8564,
      "COuk68vDzoMDFdCT_QcdZN": 8565,
      "P3M9MTYwNjEyOTIz": 8566,
      "hdlVzZXJBZ2Vud": 8567,
      "PVwiaHR0cHM6Ly93ZWJtYWlsLm1haWxob3N0Ym94": 8568,
      "adsensecustomsearchads": 8569,
      "COuk68vDzoMDFdCT_QcdZNYBcw": 8570,
      "PVwiaHR0cHM6Ly93ZWJtYWlsLm1haWxob3N0Ym94LmNvbS9": 8571,
      "0ff": 8572,
      "0C_": 8573,
      "1A": 8574,
      "1c0": 8575,
      "1f0": 8576,
      "2J": 8577,
      "2M": 8578,
      "2_": 8579,
      "2c5": 8580,
      "2rd": 8581,
      "3Z": 8582,
      "320": 8583,
      "3mo": 8584,
      "3ky": 8585,
      "4ab": 8586,
      "5er": 8587,
      "5ur": 8588,
      "518": 8589,
      "5bx": 8590,
      "6F": 8591,
      "6G": 8592,
      "6J": 8593,
      "6g6": 8594,
      "6ny": 8595,
      "6i5": 8596,
      "8Z": 8597,
      "9R": 8598,
      "9_": 8599,
      "923": 8600,
      "917": 8601,
      "BZ": 8602,
      "Cgn": 8603,
      "Gly": 8604,
      "Ghp": 8605,
      "HL": 8606,
      "HP": 8607,
      "Lc": 8608,
      "LCB": 8609,
      "LI1": 8610,
      "Lmpz": 8611,
      "M2342": 8612,
      "Num": 8613,
      "N177": 8614,
      "NrxSt": 8615,
      "OA": 8616,
      "Sc": 8617,
      "Uwk": 8618,
      "Url": 8619,
      "_A": 8620,
      "_G": 8621,
      "_b": 8622,
      "_post": 8623,
      "_key": 8624,
      "aF": 8625,
      "aet": 8626,
      "awe": 8627,
      "a77": 8628,
      "a97": 8629,
      "bS": 8630,
      "bwp": 8631,
      "bfy": 8632,
      "bc7": 8633,
      "b9e": 8634,
      "cse": 8635,
      "csi": 8636,
      "cmy": 8637,
      "c65": 8638,
      "c67": 8639,
      "cgo": 8640,
      "c57": 8641,
      "c28": 8642,
      "cdy": 8643,
      "c88": 8644,
      "cxy": 8645,
      "dor": 8646,
      "dci": 8647,
      "djd": 8648,
      "ear": 8649,
      "fA": 8650,
      "fL": 8651,
      "fQ": 8652,
      "fam": 8653,
      "fc2": 8654,
      "fcd": 8655,
      "fuk": 8656,
      "f40": 8657,
      "fhk": 8658,
      "gZ": 8659,
      "gub": 8660,
      "gto": 8661,
      "ggf": 8662,
      "guk": 8663,
      "gjo": 8664,
      "ggy": 8665,
      "gbx": 8666,
      "gcontrol": 8667,
      "hB": 8668,
      "hF": 8669,
      "hO": 8670,
      "hR": 8671,
      "h_": 8672,
      "hte": 8673,
      "hun": 8674,
      "hdn": 8675,
      "hbr": 8676,
      "h54": 8677,
      "hmp": 8678,
      "hcv": 8679,
      "hzu": 8680,
      "hxn": 8681,
      "hg5": 8682,
      "hfh": 8683,
      "iG": 8684,
      "iO": 8685,
      "iwe": 8686,
      "isp": 8687,
      "ihd": 8688,
      "jM": 8689,
      "jP": 8690,
      "jht": 8691,
      "jst": 8692,
      "jcn": 8693,
      "jdy": 8694,
      "jnk": 8695,
      "jir": 8696,
      "jmk": 8697,
      "jmq": 8698,
      "jFx": 8699,
      "kD": 8700,
      "kY": 8701,
      "kam": 8702,
      "kb2": 8703,
      "kjn": 8704,
      "kgq": 8705,
      "kwo": 8706,
      "kpm": 8707,
      "klrn": 8708,
      "lN": 8709,
      "lT": 8710,
      "lZ": 8711,
      "ldn": 8712,
      "lc2": 8713,
      "lum": 8714,
      "lsy": 8715,
      "lbm": 8716,
      "lgw": 8717,
      "l3y": 8718,
      "mB": 8719,
      "mil": 8720,
      "mcc": 8721,
      "mpl": 8722,
      "ofi": 8723,
      "ows": 8724,
      "obk": 8725,
      "odoo": 8726,
      "pX": 8727,
      "pzt": 8728,
      "pZD": 8729,
      "qdi": 8730,
      "rR": 8731,
      "rqe": 8732,
      "sme": 8733,
      "sfe": 8734,
      "ske": 8735,
      "smp": 8736,
      "tB": 8737,
      "tG": 8738,
      "tR": 8739,
      "tur": 8740,
      "tak": 8741,
      "uE": 8742,
      "uce": 8743,
      "uaa": 8744,
      "uha": 8745,
      "vI": 8746,
      "von": 8747,
      "vas": 8748,
      "vbt": 8749,
      "vmx": 8750,
      "vwq": 8751,
      "valle": 8752,
      "wW": 8753,
      "whe": 8754,
      "wum": 8755,
      "xR": 8756,
      "xle": 8757,
      "x54": 8758,
      "xvs": 8759,
      "yI": 8760,
      "yan": 8761,
      "yun": 8762,
      "zF": 8763,
      "zI": 8764,
      "zN": 8765,
      "zon": 8766,
      "zap": 8767,
      "zvi": 8768,
      "zft": 8769,
      "zjp": 8770,
      "zky": 8771,
      "zjx": 8772,
      "zbz": 8773,
      "zY3JpcHQ": 8774,
      "cok": 8775,
      "cover": 8776,
      "fsg": 8777,
      "de6": 8778,
      "rex": 8779,
      "redir": 8780,
      "sem": 8781,
      "informa": 8782,
      "alk": 8783,
      "bex": 8784,
      "on7": 8785,
      "ond": 8786,
      "0026": 8787,
      "sib": 8788,
      "six": 8789,
      "aga": 8790,
      "agh": 8791,
      "st4": 8792,
      "leh": 8793,
      "lez": 8794,
      "ntcixn": 8795,
      "eru": 8796,
      "aps": 8797,
      "apes": 8798,
      "apore": 8799,
      "etm": 8800,
      "mlr": 8801,
      "bafybeiat": 8802,
      "bafybeicf": 8803,
      "bafybeihp": 8804,
      "bafybeigo": 8805,
      "bafybeiaa": 8806,
      "bafybeiah": 8807,
      "bafybeigw": 8808,
      "domail": 8809,
      "op5": 8810,
      "fall": 8811,
      "mant": 8812,
      "maci": 8813,
      "cf7": 8814,
      "spa": 8815,
      "ac8": 8816,
      "aca": 8817,
      "iont": 8818,
      "1021": 8819,
      "1063": 8820,
      "mson": 8821,
      "msvs": 8822,
      "id8": 8823,
      "idm": 8824,
      "csu": 8825,
      "csy": 8826,
      "urance": 8827,
      "arta": 8828,
      "flat": 8829,
      "ss5": 8830,
      "us03": 8831,
      "ad5": 8832,
      "ad9": 8833,
      "adp": 8834,
      "my_": 8835,
      "ce5": 8836,
      "ce7": 8837,
      "ces": 8838,
      "uto": 8839,
      "utlook": 8840,
      "hps5": 8841,
      "ho7": 8842,
      "holy": 8843,
      "hold": 8844,
      "4343": 8845,
      "asx": 8846,
      "ener": 8847,
      "451": 8848,
      "452": 8849,
      "exe": 8850,
      "shape": 8851,
      "une": 8852,
      "unic": 8853,
      "65r": 8854,
      "poly": 8855,
      "potus": 8856,
      "policy": 8857,
      "da2": 8858,
      "259": 8859,
      "25n": 8860,
      "67t": 8861,
      "ifh": 8862,
      "isx": 8863,
      "hed": 8864,
      "641": 8865,
      "ctor": 8866,
      "uspm": 8867,
      "2Fs": 8868,
      "35e": 8869,
      "3501": 8870,
      "37d": 8871,
      "cld": 8872,
      "cb2": 8873,
      "ab5": 8874,
      "abk": 8875,
      "292": 8876,
      "294": 8877,
      "fri": 8878,
      "frw": 8879,
      "47e": 8880,
      "veri": 8881,
      "rie": 8882,
      "riq": 8883,
      "rist": 8884,
      "aea": 8885,
      "moq": 8886,
      "moon": 8887,
      "ff6": 8888,
      "575": 8889,
      "486": 8890,
      "sok": 8891,
      "sosp": 8892,
      "AAYASAAEg": 8893,
      "554": 8894,
      "55d": 8895,
      "cc8": 8896,
      "cci": 8897,
      "bafkreihp": 8898,
      "ryt": 8899,
      "aa0": 8900,
      "aao": 8901,
      "46d": 8902,
      "56n": 8903,
      "22NrxSt": 8904,
      "772": 8905,
      "77a": 8906,
      "77y": 8907,
      "bov": 8908,
      "bodis": 8909,
      "aya": 8910,
      "ayo": 8911,
      "b3Jk": 8912,
      "cix": 8913,
      "hie": 8914,
      "hiu": 8915,
      "885": 8916,
      "369": 8917,
      "c4a": 8918,
      "xy5": 8919,
      "540": 8920,
      "908": 8921,
      "fd8": 8922,
      "ghb": 8923,
      "ghgh": 8924,
      "c7d": 8925,
      "auths": 8926,
      "ttg": 8927,
      "xxn": 8928,
      "f70": 8929,
      "f7d": 8930,
      "406": 8931,
      "408": 8932,
      "jkw": 8933,
      "c5f": 8934,
      "voq": 8935,
      "voy": 8936,
      "uy4": 8937,
      "uyr": 8938,
      "3839": 8939,
      "bl5": 8940,
      "2e4": 8941,
      "proxy": 8942,
      "nkq": 8943,
      "jhr": 8944,
      "js7": 8945,
      "cpt": 8946,
      "vdk": 8947,
      "vdm": 8948,
      "gyy": 8949,
      "a75": 8950,
      "cv2": 8951,
      "cvn": 8952,
      "bd4": 8953,
      "cIjo": 8954,
      "f50": 8955,
      "jwx": 8956,
      "bafybeidk": 8957,
      "posta": 8958,
      "postoffice": 8959,
      "jq7": 8960,
      "zzm": 8961,
      "1078": 8962,
      "b5a": 8963,
      "b5e": 8964,
      "lpmhjj": 8965,
      "lucky": 8966,
      "j7p": 8967,
      "fn3": 8968,
      "fnb": 8969,
      "fni": 8970,
      "z7y": 8971,
      "mmmm": 8972,
      "byy": 8973,
      "contro": 8974,
      "lko": 8975,
      "fk2": 8976,
      "fkk": 8977,
      "zdq": 8978,
      "cqn": 8979,
      "cqt": 8980,
      "hbq": 8981,
      "hrw": 8982,
      "3A170": 8983,
      "v62": 8984,
      "b2f": 8985,
      "b2tp": 8986,
      "850": 8987,
      "4y2": 8988,
      "4y6": 8989,
      "4y7": 8990,
      "fp4": 8991,
      "fqi": 8992,
      "fqkx3": 8993,
      "mu5": 8994,
      "g52": 8995,
      "6eh": 8996,
      "6eq": 8997,
      "buz": 8998,
      "42n": 8999,
      "a0e": 9000,
      "sucursal": 9001,
      "aou": 9002,
      "h6k": 9003,
      "nner": 9004,
      "5entcixn": 9005,
      "ZW5": 9006,
      "91e": 9007,
      "CAw0": 9008,
      "9d6": 9009,
      "5yq": 9010,
      "kosi": 9011,
      "2q3": 9012,
      "83N177": 9013,
      "format": 9014,
      "2t4": 9015,
      "piAJ": 9016,
      "v5hq2": 9017,
      "63o": 9018,
      "z3a": 9019,
      "tail": 9020,
      "j2vd": 9021,
      "b0e": 9022,
      "ther": 9023,
      "pkt": 9024,
      "xd4": 9025,
      "058": 9026,
      "cgz0": 9027,
      "8d6": 9028,
      "VyeV": 9029,
      "l4x": 9030,
      "object": 9031,
      "adminuser": 9032,
      "yyt": 9033,
      "IGhyZW": 9034,
      "paypal": 9035,
      "ized": 9036,
      "7aj": 9037,
      "3o5": 9038,
      "case1000": 9039,
      "finan": 9040,
      "USER": 9041,
      "brasil": 9042,
      "XVlcn": 9043,
      "tvUwk": 9044,
      "iAgICA": 9045,
      "creative": 9046,
      "5mw": 9047,
      "00000000": 9048,
      "N1bWVud": 9049,
      "refund": 9050,
      "doc_start": 9051,
      "Q0CAw0": 9052,
      "private": 9053,
      "send_form": 9054,
      "KG533": 9055,
      "EAAYAiAAEg": 9056,
      "Docu": 9057,
      "ASKXGp0": 9058,
      "I322NrxSt": 9059,
      "activation": 9060,
      "magic": 9061,
      "versal": 9062,
      "ledge": 9063,
      "sistema": 9064,
      "dynam": 9065,
      "push": 9066,
      "number": 9067,
      "isabella": 9068,
      "haufqkx3": 9069,
      "MDAwMDAw": 9070,
      "hossting": 9071,
      "mumbai": 9072,
      "pond": 9073,
      "japan": 9074,
      "Y2F0aW9u": 9075,
      "3e5cc43015815732a4d38f73eec6434e3e5cc43015815732a4d38f73eec6434e": 9076,
      "pichincha": 9077,
      "3113057": 9078,
      "jakarta": 9079,
      "kge1xu": 9080,
      "aern": 9081,
      "north": 9082,
      "pcsa": 9083,
      "xcjv5hq2": 9084,
      "lieferung": 9085,
      "lawyer": 9086,
      "Universal": 9087,
      "vjd5entcixn": 9088,
      "cmVsPVwic": 9089,
      "N3A0C_": 9090,
      "lofmsvs": 9091,
      "vendor": 9092,
      "46ilofmsvs": 9093,
      "N0cmlu": 9094,
      "dse_sign": 9095,
      "CHFINAL": 9096,
      "IG5hbWU9XCJ": 9097,
      "PNTQ0CAw0": 9098,
      "shield": 9099,
      "bafybeif65xcjv5hq2": 9100,
      "spedizione": 9101,
      "LI1cgz0": 9102,
      "M2342LI1cgz0": 9103,
      "gcontrol202": 9104,
      "0026amp": 9105,
      "hps5vjd5entcixn": 9106,
      "lpmhjjhaufqkx3": 9107,
      "83N177N3A0C_": 9108,
      "piAJKG533": 9109,
      "IGhyZWY9XCJ": 9110,
      "tvUwkpiAJKG533": 9111,
      "I322NrxStPNTQ0CAw0": 9112,
      "3113057640": 9113,
      "46ilofmsvs4i": 9114,
      "bafybeif65xcjv5hq2lpmhjjhaufqkx3": 9115,
      "M2342LI1cgz0tvUwkpiAJKG533": 9116,
      "hps5vjd5entcixn46ilofmsvs4i": 9117,
      "83N177N3A0C_I322NrxStPNTQ0CAw0": 9118,
      "bafybeif65xcjv5hq2lpmhjjhaufqkx3hps5vjd5entcixn46ilofmsvs4i": 9119,
      "83N177N3A0C_I322NrxStPNTQ0CAw0M2342LI1cgz0tvUwkpiAJKG533": 9120,
      "0J": 9121,
      "0Q": 9122,
      "0s": 9123,
      "050": 9124,
      "0ZXh0": 9125,
      "1G": 9126,
      "1N": 9127,
      "1ae": 9128,
      "1a8": 9129,
      "1bc": 9130,
      "2G": 9131,
      "2S": 9132,
      "2X": 9133,
      "2ba": 9134,
      "2gi": 9135,
      "3T": 9136,
      "3an": 9137,
      "3df": 9138,
      "3ed": 9139,
      "3gx": 9140,
      "4R": 9141,
      "4ly": 9142,
      "4a2": 9143,
      "5O": 9144,
      "5P": 9145,
      "5U": 9146,
      "5_": 9147,
      "593": 9148,
      "5b4": 9149,
      "5sq": 9150,
      "5sx": 9151,
      "5113": 9152,
      "6re": 9153,
      "6aa": 9154,
      "7K": 9155,
      "7L": 9156,
      "7Y": 9157,
      "7yo": 9158,
      "7oq": 9159,
      "8G": 9160,
      "8R": 9161,
      "864": 9162,
      "9C": 9163,
      "9M": 9164,
      "9S": 9165,
      "9ac": 9166,
      "964": 9167,
      "9gh": 9168,
      "92d": 9169,
      "9ee": 9170,
      "B1d": 9171,
      "BNL": 9172,
      "FwiLFwi": 9173,
      "GL": 9174,
      "Lgw": 9175,
      "MCx": 9176,
      "Nhb": 9177,
      "NcIiB": 9178,
      "Ob": 9179,
      "Qjk": 9180,
      "T_": 9181,
      "Uc": 9182,
      "UX_": 9183,
      "WK": 9184,
      "Wc": 9185,
      "W5z": 9186,
      "_N": 9187,
      "_mi": 9188,
      "aS": 9189,
      "a_": 9190,
      "aan": 9191,
      "a24": 9192,
      "a25": 9193,
      "a48": 9194,
      "a40": 9195,
      "a2a": 9196,
      "bli": 9197,
      "b67": 9198,
      "b11": 9199,
      "b98": 9200,
      "b44": 9201,
      "b19": 9202,
      "bha": 9203,
      "bdh": 9204,
      "bzk": 9205,
      "bc8": 9206,
      "c55": 9207,
      "cje": 9208,
      "cjy": 9209,
      "cjd": 9210,
      "cacion": 9211,
      "dB": 9212,
      "dJ": 9213,
      "dS": 9214,
      "d_": 9215,
      "ddo": 9216,
      "dma": 9217,
      "dus": 9218,
      "dun": 9219,
      "dhi": 9220,
      "eS": 9221,
      "eU": 9222,
      "eX": 9223,
      "fC": 9224,
      "fK": 9225,
      "fde": 9226,
      "fdo": 9227,
      "f24": 9228,
      "f26": 9229,
      "f54": 9230,
      "f53": 9231,
      "f66": 9232,
      "f87": 9233,
      "fv6": 9234,
      "f86": 9235,
      "f9e": 9236,
      "fmt": 9237,
      "fvq": 9238,
      "f1e": 9239,
      "face": 9240,
      "gue": 9241,
      "g43": 9242,
      "g24": 9243,
      "gfr": 9244,
      "g47": 9245,
      "gci": 9246,
      "gky": 9247,
      "hL": 9248,
      "hS": 9249,
      "hY": 9250,
      "h64": 9251,
      "hgv": 9252,
      "hf2": 9253,
      "hmt": 9254,
      "hzq": 9255,
      "hZ2": 9256,
      "hication": 9257,
      "iC": 9258,
      "iI": 9259,
      "iX": 9260,
      "iet": 9261,
      "i5x": 9262,
      "jY": 9263,
      "jZ": 9264,
      "jml": 9265,
      "jop": 9266,
      "jcs": 9267,
      "jup": 9268,
      "jck": 9269,
      "jol": 9270,
      "j44": 9271,
      "jcb": 9272,
      "jri": 9273,
      "jkv": 9274,
      "jgr": 9275,
      "jmn": 9276,
      "jmu": 9277,
      "jzo": 9278,
      "jbx": 9279,
      "kC": 9280,
      "kF": 9281,
      "kat": 9282,
      "kut": 9283,
      "kas": 9284,
      "kwp": 9285,
      "kl4": 9286,
      "l8": 9287,
      "lR": 9288,
      "lU": 9289,
      "lco": 9290,
      "lly": 9291,
      "lud": 9292,
      "lus": 9293,
      "l27": 9294,
      "lgo": 9295,
      "lky": 9296,
      "mco": 9297,
      "mms": 9298,
      "mho": 9299,
      "mbm": 9300,
      "mgv": 9301,
      "mwk": 9302,
      "mvs": 9303,
      "mzn": 9304,
      "nU": 9305,
      "nW": 9306,
      "nan": 9307,
      "ncu": 9308,
      "nzt": 9309,
      "oC": 9310,
      "oD": 9311,
      "oX": 9312,
      "oZ": 9313,
      "osi": 9314,
      "ole": 9315,
      "oac": 9316,
      "obl": 9317,
      "ocx": 9318,
      "pC": 9319,
      "pK": 9320,
      "pN": 9321,
      "pde": 9322,
      "pps": 9323,
      "pft": 9324,
      "p77": 9325,
      "pao": 9326,
      "qH": 9327,
      "qV": 9328,
      "qW": 9329,
      "q45": 9330,
      "q34": 9331,
      "qm3": 9332,
      "ql5": 9333,
      "rK": 9334,
      "rV": 9335,
      "rX": 9336,
      "roo": 9337,
      "r47": 9338,
      "rhr": 9339,
      "r6e": 9340,
      "sA": 9341,
      "sas": 9342,
      "sno": 9343,
      "slp": 9344,
      "tJ": 9345,
      "tat": 9346,
      "tny": 9347,
      "uM": 9348,
      "ufs": 9349,
      "ums": 9350,
      "u34": 9351,
      "uzp": 9352,
      "vre": 9353,
      "vca": 9354,
      "vhy": 9355,
      "vsd": 9356,
      "wC": 9357,
      "wF": 9358,
      "wG": 9359,
      "wcl": 9360,
      "wke": 9361,
      "wjo": 9362,
      "wv7": 9363,
      "wall": 9364,
      "xgf": 9365,
      "xcx": 9366,
      "x86": 9367,
      "xz6": 9368,
      "xmq": 9369,
      "xw5": 9370,
      "yC": 9371,
      "ysd": 9372,
      "zK": 9373,
      "zat": 9374,
      "zve": 9375,
      "z25": 9376,
      "zwa": 9377,
      "zge": 9378,
      "covk": 9379,
      "ipr": 9380,
      "de3": 9381,
      "repl": 9382,
      "ba5": 9383,
      "bakc": 9384,
      "ebs": 9385,
      "tewp": 9386,
      "amy": 9387,
      "ames": 9388,
      "alu": 9389,
      "al5d": 9390,
      "be0": 9391,
      "orig": 9392,
      "si2": 9393,
      "agt": 9394,
      "stp": 9395,
      "lement": 9396,
      "lawn": 9397,
      "nt5": 9398,
      "ntyt": 9399,
      "ature": 9400,
      "ubi": 9401,
      "ubm": 9402,
      "ubs": 9403,
      "ubmit": 9404,
      "etry": 9405,
      "bafybeiff": 9406,
      "bafybeigs": 9407,
      "bafybeib4": 9408,
      "bafybeibu": 9409,
      "bafybeibx": 9410,
      "do5": 9411,
      "opx": 9412,
      "ools": 9413,
      "mavi": 9414,
      "wee": 9415,
      "cfk": 9416,
      "cfz": 9417,
      "fis": 9418,
      "fish": 9419,
      "acx": 9420,
      "aceb": 9421,
      "1033": 9422,
      "1053": 9423,
      "icpp": 9424,
      "idk": 9425,
      "csk": 9426,
      "mein": 9427,
      "io5": 9428,
      "anet": 9429,
      "ancient": 9430,
      "r2y": 9431,
      "mailupdate": 9432,
      "ssy": 9433,
      "ewv": 9434,
      "usus": 9435,
      "us04": 9436,
      "ith": 9437,
      "row": 9438,
      "robot": 9439,
      "mygreen": 9440,
      "20A": 9441,
      "2010": 9442,
      "2055": 9443,
      "utl": 9444,
      "upd": 9445,
      "upq": 9446,
      "uper": 9447,
      "updat": 9448,
      "hpo": 9449,
      "Qmcb": 9450,
      "23h": 9451,
      "23m": 9452,
      "439": 9453,
      "43a": 9454,
      "43t": 9455,
      "43x": 9456,
      "enj": 9457,
      "enn": 9458,
      "enza": 9459,
      "wi6": 9460,
      "wi7": 9461,
      "wiz": 9462,
      "wise": 9463,
      "expen": 9464,
      "truth": 9465,
      "trial": 9466,
      "shs": 9467,
      "pso": 9468,
      "cks": 9469,
      "653": 9470,
      "65b7": 9471,
      "pos": 9472,
      "241": 9473,
      "24o": 9474,
      "olu": 9475,
      "oluiza": 9476,
      "da3": 9477,
      "da6": 9478,
      "da8": 9479,
      "25e": 9480,
      "25q": 9481,
      "ca4": 9482,
      "ca7": 9483,
      "27ru": 9484,
      "2Fk": 9485,
      "dum": 9486,
      "dust": 9487,
      "9638": 9488,
      "lowing": 9489,
      "375": 9490,
      "clq": 9491,
      "clwiOlwi": 9492,
      "cliont": 9493,
      "18e": 9494,
      "17d": 9495,
      "iceiy": 9496,
      "ab7": 9497,
      "ab8": 9498,
      "abiy": 9499,
      "fr7": 9500,
      "frt": 9501,
      "470": 9502,
      "noisy": 9503,
      "26q": 9504,
      "goy": 9505,
      "mo3": 9506,
      "moy": 9507,
      "ffm": 9508,
      "57y": 9509,
      "48e": 9510,
      "soci": 9511,
      "btt": 9512,
      "btconnect": 9513,
      "nei": 9514,
      "nes": 9515,
      "ney": 9516,
      "cc_key": 9517,
      "fb8": 9518,
      "kea": 9519,
      "bafkreig7": 9520,
      "aaqq": 9521,
      "ados": 9522,
      "bby": 9523,
      "56a": 9524,
      "c3R": 9525,
      "toky": 9526,
      "term": 9527,
      "terbai": 9528,
      "ddd": 9529,
      "brf": 9530,
      "brook": 9531,
      "boat": 9532,
      "dye": 9533,
      "migrate": 9534,
      "c21": 9535,
      "c2NyaXB0": 9536,
      "ci7": 9537,
      "9915": 9538,
      "grt": 9539,
      "grub": 9540,
      "tim": 9541,
      "ti6l": 9542,
      "cds": 9543,
      "jpkur": 9544,
      "36h": 9545,
      "forest": 9546,
      "biy": 9547,
      "fdx": 9548,
      "cyh": 9549,
      "cyn": 9550,
      "cyv": 9551,
      "ukr": 9552,
      "hye": 9553,
      "ldr7": 9554,
      "fye": 9555,
      "fyy": 9556,
      "tty": 9557,
      "faP": 9558,
      "xx6yw": 9559,
      "cm6": 9560,
      "cmk": 9561,
      "cmVm": 9562,
      "4e3": 9563,
      "4e5": 9564,
      "webmailserver": 9565,
      "c58": 9566,
      "vok": 9567,
      "2d6": 9568,
      "2b5": 9569,
      "2b7": 9570,
      "joy": 9571,
      "66ltr": 9572,
      "ll3": 9573,
      "384": 9574,
      "1vQv": 9575,
      "dhu": 9576,
      "2ai": 9577,
      "1vSn": 9578,
      "syl": 9579,
      "ogi": 9580,
      "v3t": 9581,
      "jsc": 9582,
      "ieh": 9583,
      "ndr": 9584,
      "876543": 9585,
      "93e": 9586,
      "b6oj7": 9587,
      "gye": 9588,
      "a7y": 9589,
      "mpe": 9590,
      "cvm": 9591,
      "xej": 9592,
      "zedaz": 9593,
      "jwspv": 9594,
      "bafybeid5": 9595,
      "bafybeid7": 9596,
      "zzr": 9597,
      "cw6": 9598,
      "gior": 9599,
      "bafybeih2": 9600,
      "bafybeih7p": 9601,
      "1004": 9602,
      "1073": 9603,
      "gvq": 9604,
      "area": 9605,
      "aust": 9606,
      "auid": 9607,
      "homepage": 9608,
      "vxz": 9609,
      "3e4h": 9610,
      "z7d": 9611,
      "mmd": 9612,
      "bafybeiem": 9613,
      "conta": 9614,
      "contat": 9615,
      "jik": 9616,
      "jiu": 9617,
      "vn2427": 9618,
      "pgp": 9619,
      "7e6": 9620,
      "fkp": 9621,
      "fkr": 9622,
      "j5e": 9623,
      "xnm": 9624,
      "xnmr": 9625,
      "zdHJpbm": 9626,
      "cqx": 9627,
      "tsl": 9628,
      "zpy": 9629,
      "hbj": 9630,
      "v6m": 9631,
      "jnp": 9632,
      "fpq": 9633,
      "fqq": 9634,
      "fqal5d": 9635,
      "75e": 9636,
      "1d5": 9637,
      "mute": 9638,
      "mtk": 9639,
      "hnsosp": 9640,
      "ltd": 9641,
      "c06": 9642,
      "GVtc": 9643,
      "wrx": 9644,
      "g4xx6yw": 9645,
      "6e3": 9646,
      "buo": 9647,
      "j4i": 9648,
      "j4q": 9649,
      "zrq": 9650,
      "zrv": 9651,
      "a0d": 9652,
      "aqd": 9653,
      "h63": 9654,
      "ZWF": 9655,
      "ZW1w": 9656,
      "732785": 9657,
      "afae": 9658,
      "ztu": 9659,
      "2xhc3": 9660,
      "vs7uu": 9661,
      "author": 9662,
      "koPy": 9663,
      "2qt": 9664,
      "hlh": 9665,
      "mdk": 9666,
      "bfw": 9667,
      "2y6v": 9668,
      "mine": 9669,
      "h3y": 9670,
      "wua": 9671,
      "wu7q": 9672,
      "XG4g": 9673,
      "v4i": 9674,
      "lx2y6v": 9675,
      "lrjwspv": 9676,
      "z4s": 9677,
      "YXRl": 9678,
      "w4wu7q": 9679,
      "uuu": 9680,
      "stepp": 9681,
      "6yi": 9682,
      "z5a": 9683,
      "dental": 9684,
      "bafybeifm": 9685,
      "wvu2d": 9686,
      "----": 9687,
      "krq": 9688,
      "krxmx": 9689,
      "zmfcc": 9690,
      "jmg": 9691,
      "3948": 9692,
      "snx": 9693,
      "z2z": 9694,
      "4qx": 9695,
      "pm4k7u": 9696,
      "bafybeigago": 9697,
      "52m": 9698,
      "jvu": 9699,
      "l7x": 9700,
      "xkx": 9701,
      "fresh": 9702,
      "IGNs": 9703,
      "3rhl": 9704,
      "telegar": 9705,
      "ARIs": 9706,
      "sgz": 9707,
      "ground": 9708,
      "Transfer": 9709,
      "chains": 9710,
      "XRs": 9711,
      "dpbm": 9712,
      "GUg": 9713,
      "fined": 9714,
      "helpdesk": 9715,
      "glitter": 9716,
      "npv7y": 9717,
      "KSg": 9718,
      "U3Q1": 9719,
      "clickfun": 9720,
      "billowing": 9721,
      "YAy": 9722,
      "1l1l": 9723,
      "tgadminuser": 9724,
      "dress": 9725,
      "response_type": 9726,
      "98765": 9727,
      "QWdl": 9728,
      "yaho": 9729,
      "Zhci": 9730,
      "plat": 9731,
      "broken": 9732,
      "notifi": 9733,
      "W1hZ2": 9734,
      "anti": 9735,
      "Y29tKSg": 9736,
      "panda": 9737,
      "YASAAEgI": 9738,
      "prime": 9739,
      "disk": 9740,
      "salad": 9741,
      "Account": 9742,
      "YlN0": 9743,
      "msgcmVsPVwic": 9744,
      "NjcmlwdCB": 9745,
      "marketing": 9746,
      "crypto": 9747,
      "lnkd": 9748,
      "webapp": 9749,
      "cIjpcIk": 9750,
      "buton": 9751,
      "button": 9752,
      "summer": 9753,
      "sprzedaz": 9754,
      "c2VyQWdl": 9755,
      "clientes": 9756,
      "pbnB1d": 9757,
      "glade": 9758,
      "bellsouth": 9759,
      "tastewp": 9760,
      "1cImh0dHBzOi8": 9761,
      "student": 9762,
      "mttpm4k7u": 9763,
      "nouve": 9764,
      "fonts": 9765,
      "msdzmfcc": 9766,
      "cIj48L3NjcmlwdD5cb": 9767,
      "jc744": 9768,
      "ga5covk": 9769,
      "Monoto": 9770,
      "hidden": 9771,
      "settings": 9772,
      "752msdzmfcc": 9773,
      "syfvn2427": 9774,
      "domainhostinghossting": 9775,
      "zcmM9XCJ": 9776,
      "zdWJzdHJpbm": 9777,
      "components": 9778,
      "Lmdld": 9779,
      "fjw5sq": 9780,
      "olutions": 9781,
      "Jyb3dz": 9782,
      "******@": 9783,
      "odHRwczovL3dlYm1haWwubWFpbGhvc3Rib3guY29tL": 9784,
      "gdGhl": 9785,
      "1319732785": 9786,
      "tsvb6oj7": 9787,
      "bafybeidg3npv7y": 9788,
      "Npb25PZmZzZX": 9789,
      "Cj0KCQ": 9790,
      "assistance": 9791,
      "application": 9792,
      "2Fzc2V0": 9793,
      "GxpbmsgcmVsPVwic": 9794,
      "FZlcnNpb25PZmZzZX": 9795,
      "IHR5cGU9XCJ": 9796,
      "GlobalSources": 9797,
      "detalhament": 9798,
      "hdlVzZXJBZ2VudC5": 9799,
      "Number": 9800,
      "N1bWVudC": 9801,
      "origin": 9802,
      "icpp752msdzmfcc": 9803,
      "mygreenagent": 9804,
      "27ruwvu2d": 9805,
      "terbaiik": 9806,
      "ti6lg4xx6yw": 9807,
      "jpkurmttpm4k7u": 9808,
      "ldr7fjw5sq": 9809,
      "66ltrfqal5d": 9810,
      "bafybeih7p66ltrfqal5d": 9811,
      "3e4hsyfvn2427": 9812,
      "hnsospvs7uu": 9813,
      "GVtcFZlcnNpb25PZmZzZX": 9814,
      "ZW1wVmVyc2lv": 9815,
      "lx2y6vjpkurmttpm4k7u": 9816,
      "lrjwspvw4wu7q": 9817,
      "krxmxlrjwspvw4wu7q": 9818,
      "bafybeigagohnsospvs7uu": 9819,
      "IGNsYXNz": 9820,
      "clickfunnels": 9821,
      "ga5covk27ruwvu2d": 9822,
      "tsvb6oj7icpp752msdzmfcc": 9823,
      "bafybeidg3npv7yti6lg4xx6yw": 9824,
      "ldr7fjw5sqtsvb6oj7icpp752msdzmfcc": 9825,
      "bafybeih7p66ltrfqal5dldr7fjw5sqtsvb6oj7icpp752msdzmfcc": 9826,
      "3e4hsyfvn2427lx2y6vjpkurmttpm4k7u": 9827,
      "krxmxlrjwspvw4wu7qsai": 9828,
      "bafybeigagohnsospvs7uuga5covk27ruwvu2d": 9829,
      "bafybeidg3npv7yti6lg4xx6yw3e4hsyfvn2427lx2y6vjpkurmttpm4k7u": 9830,
      "bafybeih7p66ltrfqal5dldr7fjw5sqtsvb6oj7icpp752msdzmfccjc744": 9831,
      "bafybeigagohnsospvs7uuga5covk27ruwvu2dkrxmxlrjwspvw4wu7qsai": 9832,
      "0r": 9833,
      "046": 9834,
      "1J": 9835,
      "1V": 9836,
      "1g": 9837,
      "1ac": 9838,
      "1cIm": 9839,
      "2H": 9840,
      "2W": 9841,
      "2ps": 9842,
      "298": 9843,
      "219": 9844,
      "2mk": 9845,
      "3ma": 9846,
      "3ll": 9847,
      "3b2": 9848,
      "3hs": 9849,
      "3rk": 9850,
      "4E": 9851,
      "4K": 9852,
      "4N": 9853,
      "4P": 9854,
      "4Q": 9855,
      "4ae": 9856,
      "4f2": 9857,
      "5wp": 9858,
      "5nq": 9859,
      "5xk": 9860,
      "6D": 9861,
      "6K": 9862,
      "6V": 9863,
      "600": 9864,
      "6fb": 9865,
      "6ld": 9866,
      "6vy": 9867,
      "6gq": 9868,
      "6g2": 9869,
      "7E": 9870,
      "7H": 9871,
      "7W": 9872,
      "767": 9873,
      "7ab": 9874,
      "755": 9875,
      "7ak": 9876,
      "787": 9877,
      "7pm": 9878,
      "8E": 9879,
      "8O": 9880,
      "856": 9881,
      "83e": 9882,
      "9G": 9883,
      "925": 9884,
      "922": 9885,
      "??": 9886,
      "Bv": 9887,
      "C5t": 9888,
      "Clone": 9889,
      "EI": 9890,
      "FXS": 9891,
      "Jc": 9892,
      "Lz5": 9893,
      "LCJ": 9894,
      "Lea": 9895,
      "Not": 9896,
      "RcIiB": 9897,
      "Ub": 9898,
      "VI": 9899,
      "VN": 9900,
      "YFG": 9901,
      "aG": 9902,
      "aar": 9903,
      "acf": 9904,
      "a98": 9905,
      "a76": 9906,
      "af6": 9907,
      "ajd": 9908,
      "azz": 9909,
      "a14": 9910,
      "bA": 9911,
      "bY": 9912,
      "bun": 9913,
      "b15": 9914,
      "bxy": 9915,
      "b16": 9916,
      "bv5": 9917,
      "cC": 9918,
      "cZ": 9919,
      "cud": 9920,
      "cve": 9921,
      "cup": 9922,
      "cvi": 9923,
      "cis": 9924,
      "cno": 9925,
      "c87": 9926,
      "cgy": 9927,
      "c84": 9928,
      "c91": 9929,
      "cjb": 9930,
      "dI": 9931,
      "dwn": 9932,
      "ese": 9933,
      "eMail": 9934,
      "fM": 9935,
      "fO": 9936,
      "fP": 9937,
      "fut": 9938,
      "f34": 9939,
      "fcn": 9940,
      "f33": 9941,
      "fort": 9942,
      "fwn": 9943,
      "fvy": 9944,
      "fju": 9945,
      "fg4": 9946,
      "gF": 9947,
      "gfs": 9948,
      "gba": 9949,
      "gid": 9950,
      "gpl": 9951,
      "gry": 9952,
      "gvo": 9953,
      "g2b": 9954,
      "gie": 9955,
      "gjq": 9956,
      "gb7": 9957,
      "gm3": 9958,
      "glb": 9959,
      "hE": 9960,
      "hN": 9961,
      "hX": 9962,
      "hip": 9963,
      "hap": 9964,
      "hud": 9965,
      "hve": 9966,
      "hut": 9967,
      "hdh": 9968,
      "hng": 9969,
      "hvk": 9970,
      "hand": 9971,
      "iF": 9972,
      "iP": 9973,
      "iin": 9974,
      "iro": 9975,
      "iad": 9976,
      "iis": 9977,
      "i22": 9978,
      "ih3": 9979,
      "jI": 9980,
      "jac": 9981,
      "jad": 9982,
      "jgo": 9983,
      "j57": 9984,
      "jge": 9985,
      "jcc": 9986,
      "jcd": 9987,
      "jxy": 9988,
      "j2e": 9989,
      "jmp": 9990,
      "jjd": 9991,
      "jzu": 9992,
      "jzp": 9993,
      "j4y": 9994,
      "jfh": 9995,
      "k_": 9996,
      "keb": 9997,
      "kra": 9998,
      "kis": 9999,
      "kgd": 10000,
      "kbi": 10001,
      "kqy": 10002,
      "kjt": 10003,
      "kii": 10004,
      "lB": 10005,
      "lJ": 10006,
      "lam": 10007,
      "lag": 10008,
      "lst": 10009,
      "lso": 10010,
      "lhs": 10011,
      "lmk": 10012,
      "mweb": 10013,
      "mbt": 10014,
      "mb3": 10015,
      "m76": 10016,
      "mxx": 10017,
      "mcr": 10018,
      "mzo": 10019,
      "nQ": 10020,
      "nV": 10021,
      "nX": 10022,
      "nho": 10023,
      "nz4": 10024,
      "oud": 10025,
      "ods": 10026,
      "pD": 10027,
      "pS": 10028,
      "plo": 10029,
      "pic": 10030,
      "pci": 10031,
      "phs": 10032,
      "pjt": 10033,
      "pwd": 10034,
      "pine": 10035,
      "q0": 10036,
      "qC": 10037,
      "qI": 10038,
      "qM": 10039,
      "qP": 10040,
      "qX": 10041,
      "qdy": 10042,
      "qcd": 10043,
      "q2b": 10044,
      "qqy": 10045,
      "qny": 10046,
      "q7d": 10047,
      "qwl": 10048,
      "rB": 10049,
      "rS": 10050,
      "rag": 10051,
      "ris": 10052,
      "sB": 10053,
      "shtml": 10054,
      "sac": 10055,
      "sus": 10056,
      "sve": 10057,
      "sft": 10058,
      "s13": 10059,
      "tL": 10060,
      "t_": 10061,
      "tgs": 10062,
      "uG": 10063,
      "uN": 10064,
      "uX": 10065,
      "u65": 10066,
      "uae": 10067,
      "uwn": 10068,
      "u0026amp": 10069,
      "v_": 10070,
      "vle": 10071,
      "vps": 10072,
      "vjk": 10073,
      "vws": 10074,
      "vpy": 10075,
      "wD": 10076,
      "wZ": 10077,
      "wcom": 10078,
      "wst": 10079,
      "wla": 10080,
      "wgq": 10081,
      "wh6": 10082,
      "w5y": 10083,
      "wood": 10084,
      "xO": 10085,
      "xX": 10086,
      "xY": 10087,
      "xex": 10088,
      "xbb": 10089,
      "xim": 10090,
      "xg6": 10091,
      "yee": 10092,
      "zus": 10093,
      "zcb": 10094,
      "zdn": 10095,
      "zgh": 10096,
      "z2b": 10097,
      "znd": 10098,
      "zbk": 10099,
      "zmk": 10100,
      "zj3": 10101,
      "cold": 10102,
      "ipk": 10103,
      "de5": 10104,
      "dela": 10105,
      "debt": 10106,
      "dell": 10107,
      "baq": 10108,
      "ba35": 10109,
      "eb7": 10110,
      "ebc": 10111,
      "ebd": 10112,
      "loin": 10113,
      "amg": 10114,
      "amask": 10115,
      "ory": 10116,
[...]
