{
  "version": "1.0",
  "truncation": null,
  "padding": null,
  "added_tokens": [
    {
      "id": 0,
      "content": "[UNK]",
      "single_word": false,
      "lstrip": false,
      "rstrip": false,
      "normalized": false,
      "special": true
    },
    {
      "id": 1,
      "content": "[CLS]",
      "single_word": false,
      "lstrip": false,
      "rstrip": false,
      "normalized": false,
      "special": true
    },
    {
      "id": 2,
      "content": "[SEP]",
      "single_word": false,
      "lstrip": false,
      "rstrip": false,
      "normalized": false,
      "special": true
    },
    {
      "id": 3,
      "content": "[PAD]",
      "single_word": false,
      "lstrip": false,
      "rstrip": false,
      "normalized": false,
      "special": true
    },
    {
      "id": 4,
      "content": "[MASK]",
      "single_word": false,
      "lstrip": false,
      "rstrip": false,
      "normalized": false,
      "special": true
    }
  ],
  "normalizer": null,
  "pre_tokenizer": {
    "type": "Whitespace"
  },
  "post_processor": null,
  "decoder": null,
  "model": {
    "type": "BPE",
    "dropout": null,
    "unk_token": "[UNK]",
    "continuing_subword_prefix": null,
    "end_of_word_suffix": null,
    "fuse_unk": false,
    "byte_fallback": false,
    "ignore_merges": false,
    "vocab": {
      "[UNK]": 0,
      "[CLS]": 1,
      "[SEP]": 2,
      "[PAD]": 3,
      "[MASK]": 4,
      "!": 5,
      "\"": 6,
      "#": 7,
      "$": 8,
      "%": 9,
      "&": 10,
      "'": 11,
      "(": 12,
      ")": 13,
      "*": 14,
      "+": 15,
      ",": 16,
      "-": 17,
      ".": 18,
      "/": 19,
      "0": 20,
      "1": 21,
      "2": 22,
      "3": 23,
      "4": 24,
      "5": 25,
      "6": 26,
      "7": 27,
      "8": 28,
      "9": 29,
      ":": 30,
      ";": 31,
      "<": 32,
      "=": 33,
      ">": 34,
      "?": 35,
      "@": 36,
      "A": 37,
      "B": 38,
      "C": 39,
      "D": 40,
      "E": 41,
      "F": 42,
      "G": 43,
      "H": 44,
      "I": 45,
      "J": 46,
      "K": 47,
      "L": 48,
      "M": 49,
      "N": 50,
      "O": 51,
      "P": 52,
      "Q": 53,
      "R": 54,
      "S": 55,
      "T": 56,
      "U": 57,
      "V": 58,
      "W": 59,
      "X": 60,
      "Y": 61,
      "Z": 62,
      "[": 63,
      "\\": 64,
      "]": 65,
      "^": 66,
      "_": 67,
      "`": 68,
      "a": 69,
      "b": 70,
      "c": 71,
      "d": 72,
      "e": 73,
      "f": 74,
      "g": 75,
      "h": 76,
      "i": 77,
      "j": 78,
      "k": 79,
      "l": 80,
      "m": 81,
      "n": 82,
      "o": 83,
      "p": 84,
      "q": 85,
      "r": 86,
      "s": 87,
      "t": 88,
      "u": 89,
      "v": 90,
      "w": 91,
      "x": 92,
      "y": 93,
      "z": 94,
      "{": 95,
      "|": 96,
      "}": 97,
      "~": 98,
      "on": 99,
      "\\\\": 100,
      "in": 101,
      "er": 102,
      "=\"": 103,
      "le": 104,
      "\":": 105,
      "or": 106,
      "ti": 107,
      "en": 108,
      "ar": 109,
      "la": 110,
      ",\"": 111,
      "re": 112,
      "an": 113,
      "te": 114,
      "00": 115,
      "di": 116,
      "25": 117,
      "co": 118,
      "st": 119,
      "><": 120,
      "id": 121,
      "ss": 122,
      "al": 123,
      "ht": 124,
      "th": 125,
      "tion": 126,
      "ta": 127,
      "ent": 128,
      "se": 129,
      "\",\"": 130,
      "\":\"": 131,
      "li": 132,
      "ro": 133,
      "ac": 134,
      "sp": 135,
      "ont": 136,
      "me": 137,
      "ot": 138,
      "ad": 139,
      "cla": 140,
      "un": 141,
      ">\\": 142,
      "class": 143,
      "ig": 144,
      "ge": 145,
      "20": 146,
      "de": 147,
      "tr": 148,
      "px": 149,
      "\\'": 150,
      "--": 151,
      "si": 152,
      "ch": 153,
      "ma": 154,
      "to": 155,
      "</": 156,
      "lo": 157,
      "ing": 158,
      "0x": 159,
      "ur": 160,
      "div": 161,
      "da": 162,
      "\\\\/": 163,
      "com": 164,
      "33": 165,
      "u00": 166,
      "qu": 167,
      "\\\\\"": 168,
      "tp": 169,
      "></": 170,
      "32": 171,
      "lin": 172,
      "http": 173,
      "it": 174,
      "he": 175,
      "ic": 176,
      "na": 177,
      "AA": 178,
      "//": 179,
      "https": 180,
      "ight": 181,
      "col": 182,
      "font": 183,
      "35": 184,
      "}.": 185,
      "__": 186,
      "il": 187,
      "pe": 188,
      "ut": 189,
      "ul": 190,
      "ca": 191,
      "do": 192,
      "{\"": 193,
      "data": 194,
      ");": 195,
      "10": 196,
      "ri": 197,
      "quot": 198,
      "://": 199,
      "for": 200,
      "ra": 201,
      "we": 202,
      "wid": 203,
      "ty": 204,
      "span": 205,
      "12": 206,
      "be": 207,
      "ue": 208,
      "is": 209,
      "sc": 210,
      "ve": 211,
      "ref": 212,
      "ction": 213,
      "bo": 214,
      "ter": 215,
      "75": 216,
      "width": 217,
      "\"><": 218,
      "ce": 219,
      "mp": 220,
      "24": 221,
      "16": 222,
      "xt": 223,
      "color": 224,
      "){": 225,
      "href": 226,
      "3d": 227,
      "mo": 228,
      "ww": 229,
      "us": 230,
      "cont": 231,
      "ite": 232,
      "var": 233,
      "ff": 234,
      "mar": 235,
      "15": 236,
      "pk": 237,
      "lay": 238,
      "26": 239,
      "Vf": 240,
      "ack": 241,
      "pa": 242,
      "es": 243,
      "po": 244,
      "36": 245,
      "Ppk": 246,
      "Ppkd": 247,
      "VfPpkd": 248,
      "um": 249,
      "at": 250,
      "link": 251,
      "ew": 252,
      "22": 253,
      "34": 254,
      "as": 255,
      "content": 256,
      "con": 257,
      "ver": 258,
      "der": 259,
      "ck": 260,
      "18": 261,
      "wi": 262,
      "14": 263,
      "\":{\"": 264,
      "_0x": 265,
      "ans": 266,
      "-.": 267,
      "ed": 268,
      "30": 269,
      "ho": 270,
      "\">": 271,
      "pp": 272,
      "tic": 273,
      "text": 274,
      "2F": 275,
      "fa": 276,
      "ct": 277,
      "gin": 278,
      "height": 279,
      "type": 280,
      "et": 281,
      "web": 282,
      "ub": 283,
      "ki": 284,
      "item": 285,
      "17": 286,
      "66": 287,
      "19": 288,
      "ble": 289,
      ",.": 290,
      "dia": 291,
      "\">\\": 292,
      "u003d": 293,
      "ng": 294,
      "line": 295,
      "},": 296,
      "op": 297,
      "ima": 298,
      "37": 299,
      "pro": 300,
      "tle": 301,
      "nav": 302,
      "so": 303,
      "),": 304,
      "doc": 305,
      "rc": 306,
      "men": 307,
      "fun": 308,
      "el": 309,
      "and": 310,
      "og": 311,
      "},\"": 312,
      "gro": 313,
      "ull": 314,
      "title": 315,
      "function": 316,
      "38": 317,
      "11": 318,
      "74": 319,
      "\",": 320,
      "04": 321,
      "vi": 322,
      "go": 323,
      "top": 324,
      "AAAA": 325,
      "\\\\\\\\": 326,
      "margin": 327,
      "yb": 328,
      "up": 329,
      "fo": 330,
      "siz": 331,
      "64": 332,
      "ym": 333,
      "ort": 334,
      "back": 335,
      "sty": 336,
      "ding": 337,
      "ft": 338,
      "style": 339,
      "true": 340,
      "rip": 341,
      "65": 342,
      "39": 343,
      "order": 344,
      "und": 345,
      "name": 346,
      "ton": 347,
      "menu": 348,
      "31": 349,
      "if": 350,
      "disp": 351,
      "one": 352,
      "(--": 353,
      "wiki": 354,
      "image": 355,
      "src": 356,
      "69": 357,
      "media": 358,
      "null": 359,
      "docs": 360,
      "ms": 361,
      "28": 362,
      "68": 363,
      "display": 364,
      "age": 365,
      "du": 366,
      "utton": 367,
      "29": 368,
      "50": 369,
      "lex": 370,
      "27": 371,
      "sta": 372,
      "flex": 373,
      "url": 374,
      "67": 375,
      "no": 376,
      "scrip": 377,
      "ment": 378,
      "ba": 379,
      "border": 380,
      "js": 381,
      "www": 382,
      "Ph": 383,
      "sh": 384,
      "fi": 385,
      "kit": 386,
      "==": 387,
      "\":[": 388,
      "size": 389,
      "ground": 390,
      "ia": 391,
      "ign": 392,
      "webkit": 393,
      "get": 394,
      "OW": 395,
      "background": 396,
      "min": 397,
      "78": 398,
      "pad": 399,
      "100": 400,
      "the": 401,
      "trans": 402,
      "48": 403,
      "ard": 404,
      ":#": 405,
      "2532": 406,
      "au": 407,
      "head": 408,
      "padding": 409,
      "99": 410,
      "tom": 411,
      ";\\": 412,
      "left": 413,
      "70": 414,
      "sv": 415,
      "ret": 416,
      ":\"": 417,
      "rym": 418,
      "Phb": 419,
      "rymPhb": 420,
      "],": 421,
      "form": 422,
      "icon": 423,
      "off": 424,
      "bot": 425,
      "ga": 426,
      "sition": 427,
      "urn": 428,
      "45": 429,
      "ation": 430,
      "ogle": 431,
      "ide": 432,
      "2535": 433,
      "button": 434,
      "list": 435,
      "fe": 436,
      "svg": 437,
      "44": 438,
      "sa": 439,
      "\"\\": 440,
      "blo": 441,
      "\\\\\":": 442,
      "tain": 443,
      "ci": 444,
      ")}": 445,
      "box": 446,
      "return": 447,
      "Co": 448,
      "72": 449,
      "ace": 450,
      "im": 451,
      "\\',": 452,
      "u002F": 453,
      "ph": 454,
      "site": 455,
      "all": 456,
      "rem": 457,
      "this": 458,
      "lang": 459,
      "dow": 460,
      "set": 461,
      "58": 462,
      "49": 463,
      "EX": 464,
      "new": 465,
      "61": 466,
      "bel": 467,
      "ted": 468,
      "per": 469,
      "ml": 470,
      "79": 471,
      "bi": 472,
      "ity": 473,
      "u0026": 474,
      "tainer": 475,
      ";:": 476,
      "55": 477,
      "&&": 478,
      "13": 479,
      "ex": 480,
      "40": 481,
      "ure": 482,
      "ser": 483,
      "\"></": 484,
      "OWX": 485,
      "EXe": 486,
      "tive": 487,
      "OWXEXe": 488,
      "load": 489,
      "none": 490,
      "right": 491,
      "out": 492,
      "fal": 493,
      "80": 494,
      "false": 495,
      "inter": 496,
      "59": 497,
      "ill": 498,
      "script": 499,
      "63": 500,
      "label": 501,
      "ke": 502,
      "57": 503,
      "cent": 504,
      "pre": 505,
      "sub": 506,
      "}@": 507,
      "static": 508,
      "(\"": 509,
      "sl": 510,
      ")+": 511,
      "21": 512,
      "ant": 513,
      "amp": 514,
      "\\\\\\\\\\\\\"": 515,
      "of": 516,
      "60": 517,
      "dule": 518,
      "par": 519,
      "sk": 520,
      "Re": 521,
      "view": 522,
      "_yb": 523,
      "23": 524,
      "_yb_": 525,
      "ily": 526,
      "md": 527,
      "3A": 528,
      "ib": 529,
      "block": 530,
      "weight": 531,
      "unch": 532,
      "2525": 533,
      "align": 534,
      "\\\\/\\\\/": 535,
      "img": 536,
      "41": 537,
      "module": 538,
      "C6": 539,
      "jp": 540,
      "org": 541,
      "container": 542,
      "woff": 543,
      "bottom": 544,
      "3c": 545,
      "62": 546,
      "rg": 547,
      "=\"/": 548,
      "6F": 549,
      "cr": 550,
      "em": 551,
      "val": 552,
      "43": 553,
      "vent": 554,
      "late": 555,
      "mily": 556,
      "73": 557,
      "ds": 558,
      "FF": 559,
      "family": 560,
      "use": 561,
      "7b": 562,
      "In": 563,
      "],\"": 564,
      "max": 565,
      "path": 566,
      "ec": 567,
      "section": 568,
      "wra": 569,
      "01": 570,
      ":\\\\/\\\\/": 571,
      "}\\": 572,
      "woff2": 573,
      "wp": 574,
      "},{\"": 575,
      "2b": 576,
      "google": 577,
      "\\',\\'": 578,
      "imp": 579,
      "77": 580,
      "app": 581,
      ";-": 582,
      "cli": 583,
      "2024": 584,
      "transform": 585,
      "mat": 586,
      "arch": 587,
      "09": 588,
      "lu": 589,
      "page": 590,
      "header": 591,
      "ult": 592,
      "56": 593,
      "center": 594,
      "&#": 595,
      "jpg": 596,
      "position": 597,
      "=\\'": 598,
      ",\\\\\"": 599,
      "88": 600,
      "ab": 601,
      "\"},\"": 602,
      "Te": 603,
      "not": 604,
      "wh": 605,
      "02": 606,
      "54": 607,
      ";--": 608,
      "fill": 609,
      "ect": 610,
      "ly": 611,
      "Go": 612,
      "200": 613,
      "dy": 614,
      "tar": 615,
      "ate": 616,
      "ea": 617,
      "om": 618,
      "ticle": 619,
      "ore": 620,
      "||": 621,
      "42": 622,
      "wor": 623,
      "AAAAAAAA": 624,
      "{\\": 625,
      "dex": 626,
      "rid": 627,
      "able": 628,
      "Na": 629,
      "D0": 630,
      "47": 631,
      ",&": 632,
      "Str": 633,
      "br": 634,
      "os": 635,
      "pper": 636,
      "auto": 637,
      "Id": 638,
      "import": 639,
      "value": 640,
      "af": 641,
      "meta": 642,
      "ol": 643,
      "6E": 644,
      "fore": 645,
      "card": 646,
      "Me": 647,
      "\"}": 648,
      "mw": 649,
      "ist": 650,
      "dd": 651,
      "umb": 652,
      "row": 653,
      "tran": 654,
      "acity": 655,
      "3e": 656,
      "51": 657,
      "opacity": 658,
      "],[": 659,
      "){.": 660,
      "pri": 661,
      "important": 662,
      "\\\\\":\\\\\"": 663,
      "ne": 664,
      "cd": 665,
      "aria": 666,
      "Gf": 667,
      ";:&": 668,
      "ory": 669,
      "90": 670,
      "gra": 671,
      "low": 672,
      "(.": 673,
      "den": 674,
      "ange": 675,
      "caas": 676,
      "\"/": 677,
      "46": 678,
      "html": 679,
      "before": 680,
      "6C": 681,
      "code": 682,
      "index": 683,
      "71": 684,
      "rop": 685,
      "ll": 686,
      "orm": 687,
      "ele": 688,
      "article": 689,
      "\\\\\",\\\\\"": 690,
      "are": 691,
      ").": 692,
      "uage": 693,
      "hover": 694,
      "yo": 695,
      "vo": 696,
      "s_": 697,
      "art": 698,
      "format": 699,
      "ap": 700,
      "let": 701,
      "76": 702,
      "face": 703,
      "end": 704,
      "comp": 705,
      "rl": 706,
      "che": 707,
      "am": 708,
      "unt": 709,
      "ow": 710,
      "08": 711,
      "ype": 712,
      "umn": 713,
      "52": 714,
      "track": 715,
      "nC6": 716,
      ")}.": 717,
      "nC6b": 718,
      "ibnC6b": 719,
      "body": 720,
      "(\\'": 721,
      "0000": 722,
      "Con": 723,
      "news": 724,
      "win": 725,
      "target": 726,
      "=\\\\\"": 727,
      "oter": 728,
      "norm": 729,
      "search": 730,
      "int": 731,
      ";,&": 732,
      "ice": 733,
      "normal": 734,
      "crunch": 735,
      "2C": 736,
      "625": 737,
      "iz": 738,
      "tech": 739,
      "_0x10": 740,
      "su": 741,
      "how": 742,
      "ject": 743,
      "down": 744,
      "nGf": 745,
      ":-": 746,
      "%;": 747,
      "StrnGf": 748,
      "sm": 749,
      "sans": 750,
      "53": 751,
      "bol": 752,
      "png": 753,
      "ks": 754,
      "2b7b": 755,
      "fault": 756,
      "ctor": 757,
      "urce": 758,
      "_0x102b7b": 759,
      "Pro": 760,
      "98": 761,
      "lan": 762,
      "ust": 763,
      "grid": 764,
      "0A": 765,
      "mega": 766,
      "window": 767,
      "c_": 768,
      "est": 769,
      "cur": 770,
      "ner": 771,
      "foc": 772,
      "bu": 773,
      "idden": 774,
      "2D": 775,
      "}}": 776,
      "ild": 777,
      "_id": 778,
      "main": 779,
      "hidden": 780,
      "mary": 781,
      "event": 782,
      "fr": 783,
      "05": 784,
      "dit": 785,
      "x22": 786,
      "bar": 787,
      "):": 788,
      "ir": 789,
      "TE": 790,
      "fonts": 791,
      "file": 792,
      "cale": 793,
      "column": 794,
      "pr": 795,
      "logo": 796,
      "bile": 797,
      "375": 798,
      "gg": 799,
      "uni": 800,
      "key": 801,
      "ument": 802,
      "str": 803,
      "sion": 804,
      "fin": 805,
      "cial": 806,
      "1px": 807,
      "ass": 808,
      "over": 809,
      "enable": 810,
      "cor": 811,
      "language": 812,
      "ubli": 813,
      "base": 814,
      "tes": 815,
      "mon": 816,
      "125": 817,
      "footer": 818,
      "030": 819,
      "Wi": 820,
      "89": 821,
      "ance": 822,
      "nd": 823,
      "Se": 824,
      "\":\"\",\"": 825,
      "E0": 826,
      "focus": 827,
      "put": 828,
      "rel": 829,
      "bt": 830,
      "tions": 831,
      "ideo": 832,
      "letter": 833,
      "inline": 834,
      "{-": 835,
      "wrapper": 836,
      "net": 837,
      "ror": 838,
      "6c": 839,
      ");\\": 840,
      "EN": 841,
      "h3": 842,
      "techcrunch": 843,
      "(){": 844,
      "sw": 845,
      "radi": 846,
      "ion": 847,
      "has": 848,
      "CA": 849,
      "::": 850,
      "De": 851,
      "items": 852,
      "ud": 853,
      "lG": 854,
      "va": 855,
      "ok": 856,
      "reen": 857,
      "ature": 858,
      "3C": 859,
      "Ma": 860,
      "default": 861,
      "\":\"/": 862,
      "transition": 863,
      "3E": 864,
      "6D": 865,
      "lid": 866,
      "tif": 867,
      "count": 868,
      "\"]": 869,
      "gb": 870,
      "c0": 871,
      "bled": 872,
      "cy": 873,
      "4d": 874,
      "work": 875,
      "Url": 876,
      "ers": 877,
      "fig": 878,
      "translate": 879,
      "Bo": 880,
      "space": 881,
      "95": 882,
      "upload": 883,
      "mdc": 884,
      "rgba": 885,
      "orts": 886,
      "===": 887,
      "sele": 888,
      "scription": 889,
      "fb": 890,
      "input": 891,
      "()": 892,
      "ID": 893,
      ":.": 894,
      "source": 895,
      "td": 896,
      "eb": 897,
      "Google": 898,
      "ob": 899,
      "thumb": 900,
      "by": 901,
      "start": 902,
      "03": 903,
      "ets": 904,
      "active": 905,
      "\"},{\"": 906,
      "ink": 907,
      "mobile": 908,
      "post": 909,
      "cre": 910,
      "cal": 911,
      "spac": 912,
      "ag": 913,
      "Lj": 914,
      "range": 915,
      "publi": 916,
      "Mo": 917,
      "pla": 918,
      "play": 919,
      "}#": 920,
      "clo": 921,
      "94": 922,
      "tag": 923,
      "cess": 924,
      "Name": 925,
      "rela": 926,
      "82": 927,
      "400": 928,
      "1c": 929,
      "Page": 930,
      "ary": 931,
      "m_": 932,
      "user": 933,
      "child": 934,
      "lg": 935,
      "disa": 936,
      "85": 937,
      "table": 938,
      "pt": 939,
      "click": 940,
      "lr": 941,
      "video": 942,
      "alt": 943,
      "gstatic": 944,
      "\":[{\"": 945,
      "her": 946,
      "u003dtrue": 947,
      "cf": 948,
      "20px": 949,
      "images": 950,
      "act": 951,
      "unicode": 952,
      "He": 953,
      "check": 954,
      "lig": 955,
      "time": 956,
      "1a": 957,
      "Sans": 958,
      "Tr": 959,
      "pedia": 960,
      "btn": 961,
      "AB": 962,
      "primary": 963,
      "0px": 964,
      "So": 965,
      "group": 966,
      "element": 967,
      "scale": 968,
      "*/": 969,
      "3B": 970,
      "ori": 971,
      "teg": 972,
      "/*": 973,
      "2536": 974,
      "screen": 975,
      "1E": 976,
      "exp": 977,
      "96": 978,
      "wrap": 979,
      "Ro": 980,
      "16px": 981,
      "))": 982,
      "cl": 983,
      "ustom": 984,
      "ui": 985,
      "91": 986,
      "255": 987,
      "etch": 988,
      "/\"": 989,
      "(-": 990,
      "86": 991,
      "cc": 992,
      "92": 993,
      "Type": 994,
      "ire": 995,
      "B0": 996,
      "cation": 997,
      "AF": 998,
      "List": 999,
      "after": 1000,
      "84": 1001,
      "a_": 1002,
      "radius": 1003,
      "1d": 1004,
      "*/\\": 1005,
      "AAAAAAAAAAAAAAAA": 1006,
      "feature": 1007,
      "ee": 1008,
      "atom": 1009,
      "auth": 1010,
      "theme": 1011,
      "action": 1012,
      "87": 1013,
      "=\"#": 1014,
      "module_": 1015,
      "ybar": 1016,
      "igation": 1017,
      "rgb": 1018,
      "yn": 1019,
      "83": 1020,
      "css": 1021,
      ");--": 1022,
      "81": 1023,
      ":\\'": 1024,
      "06": 1025,
      "spacing": 1026,
      "cat": 1027,
      "tw": 1028,
      "\\';": 1029,
      "Ar": 1030,
      "ang": 1031,
      "US": 1032,
      "500": 1033,
      "interlanguage": 1034,
      "atomic": 1035,
      "description": 1036,
      "Text": 1037,
      "Da": 1038,
      "lf": 1039,
      "2E": 1040,
      "perty": 1041,
      ";}": 1042,
      "ener": 1043,
      "cm": 1044,
      "boto": 1045,
      "Ch": 1046,
      ",-": 1047,
      "with": 1048,
      "categ": 1049,
      "role": 1050,
      "tl": 1051,
      "tab": 1052,
      "vector": 1053,
      "Po": 1054,
      "x27": 1055,
      "pais": 1056,
      "ak": 1057,
      "cdn": 1058,
      "\\');": 1059,
      "edit": 1060,
      "6f": 1061,
      "_b": 1062,
      "ine": 1063,
      "\\\\(": 1064,
      "solid": 1065,
      "disabled": 1066,
      "date": 1067,
      "07": 1068,
      "Button": 1069,
      "mi": 1070,
      "E_": 1071,
      "zi": 1072,
      "fir": 1073,
      "LQ": 1074,
      "300": 1075,
      "2533": 1076,
      "dire": 1077,
      "ery": 1078,
      "io": 1079,
      "onent": 1080,
      "desk": 1081,
      "ao": 1082,
      "vice": 1083,
      "Ob": 1084,
      "Col": 1085,
      "php": 1086,
      "drop": 1087,
      "&&(": 1088,
      "3333": 1089,
      "TI": 1090,
      "fff": 1091,
      "option": 1092,
      "8px": 1093,
      "AI": 1094,
      "wikipedia": 1095,
      "Yo": 1096,
      "D1": 1097,
      "document": 1098,
      "ay": 1099,
      "dir": 1100,
      "No": 1101,
      "flow": 1102,
      "duct": 1103,
      "AC": 1104,
      "8c": 1105,
      "2e": 1106,
      "solu": 1107,
      "relative": 1108,
      "assets": 1109,
      "man": 1110,
      "Ti": 1111,
      "serif": 1112,
      "\":[],\"": 1113,
      "700": 1114,
      "Il": 1115,
      "/*!": 1116,
      "6B": 1117,
      "4C": 1118,
      "\\\\\\\\\\\\\":": 1119,
      "ren": 1120,
      "24px": 1121,
      "add": 1122,
      "er_": 1123,
      "97": 1124,
      "ja": 1125,
      "bre": 1126,
      "Sf": 1127,
      "Event": 1128,
      "bili": 1129,
      "}}@": 1130,
      "df": 1131,
      "elpais": 1132,
      "ns": 1133,
      "tify": 1134,
      "void": 1135,
      "nail": 1136,
      "try": 1137,
      "h2": 1138,
      "sZ": 1139,
      "ru": 1140,
      "(//": 1141,
      "lrv": 1142,
      "light": 1143,
      "leng": 1144,
      "ded": 1145,
      "custom": 1146,
      "fc": 1147,
      "desktop": 1148,
      "anima": 1149,
      "Th": 1150,
      "jus": 1151,
      "BB": 1152,
      "ON": 1153,
      "sen": 1154,
      "6e": 1155,
      "length": 1156,
      ";}@": 1157,
      "tem": 1158,
      "Lo": 1159,
      "Ex": 1160,
      "ark": 1161,
      "4E": 1162,
      "!--": 1163,
      "2px": 1164,
      "bd": 1165,
      "sx": 1166,
      "Link": 1167,
      "Ac": 1168,
      "ix": 1169,
      "mer": 1170,
      "To": 1171,
      "al_": 1172,
      "1F": 1173,
      "layout": 1174,
      "ZX": 1175,
      "zy": 1176,
      "\":[\"": 1177,
      "bc": 1178,
      "1f": 1179,
      "ry": 1180,
      "Du": 1181,
      "place": 1182,
      "bl": 1183,
      "4F": 1184,
      "\";": 1185,
      "2c": 1186,
      "4px": 1187,
      "4c": 1188,
      "}}.": 1189,
      "slid": 1190,
      "1O": 1191,
      "case": 1192,
      "log": 1193,
      "ymbol": 1194,
      "ug": 1195,
      "4U": 1196,
      "ps": 1197,
      "ER": 1198,
      "first": 1199,
      "Cont": 1200,
      "ha": 1201,
      "ress": 1202,
      "show": 1203,
      "ute": 1204,
      "1875": 1205,
      "4A": 1206,
      "ams": 1207,
      "bility": 1208,
      "Par": 1209,
      "justify": 1210,
      "navigation": 1211,
      "mark": 1212,
      "xl": 1213,
      "x3d": 1214,
      "New": 1215,
      "que": 1216,
      "tation": 1217,
      "3D": 1218,
      "cap": 1219,
      "book": 1220,
      "4B": 1221,
      "\\\\){": 1222,
      "tim": 1223,
      "600": 1224,
      "OD": 1225,
      "mail": 1226,
      "mplate": 1227,
      "5f": 1228,
      "1C": 1229,
      "component": 1230,
      "SA": 1231,
      "5_": 1232,
      "ase": 1233,
      "ments": 1234,
      "visi": 1235,
      "\\\\&": 1236,
      "car": 1237,
      "Cb": 1238,
      "QLQ": 1239,
      "dropdown": 1240,
      "St": 1241,
      "white": 1242,
      "QLQb": 1243,
      "SfQLQb": 1244,
      ",[": 1245,
      "solute": 1246,
      "sign": 1247,
      "sketch": 1248,
      "v2": 1249,
      "ence": 1250,
      "vel": 1251,
      "10px": 1252,
      "\"],\"": 1253,
      "3125": 1254,
      "absolute": 1255,
      "sketchy": 1256,
      "7d": 1257,
      "animation": 1258,
      "led": 1259,
      "pl": 1260,
      "uk": 1261,
      "ie": 1262,
      "requ": 1263,
      "les": 1264,
      "6A": 1265,
      "_yb_1": 1266,
      "7D": 1267,
      "u003e": 1268,
      "x2F": 1269,
      "fd": 1270,
      "author": 1271,
      "home": 1272,
      "calc": 1273,
      "sti": 1274,
      "1e": 1275,
      "Card": 1276,
      "adow": 1277,
      "xml": 1278,
      "7B": 1279,
      "93": 1280,
      "Jf": 1281,
      "sor": 1282,
      "ast": 1283,
      "7c": 1284,
      "xs": 1285,
      ">.": 1286,
      "M1": 1287,
      "DA": 1288,
      "Wiki": 1289,
      "5A": 1290,
      "hreflang": 1291,
      "ld": 1292,
      "secon": 1293,
      "ray": 1294,
      "12px": 1295,
      "ip": 1296,
      "spon": 1297,
      "mb": 1298,
      "mW": 1299,
      "__item": 1300,
      "category": 1301,
      "cloud": 1302,
      "6875": 1303,
      "tot": 1304,
      "overflow": 1305,
      "tica": 1306,
      "cub": 1307,
      "2d": 1308,
      "%}.": 1309,
      "blog": 1310,
      "4D": 1311,
      "googlesans": 1312,
      "error": 1313,
      "3a": 1314,
      "2000": 1315,
      "ys": 1316,
      "uploads": 1317,
      "read": 1318,
      "mage": 1319,
      "Ele": 1320,
      "\"}.": 1321,
      "bg": 1322,
      "can": 1323,
      "TY": 1324,
      "enti": 1325,
      "7A": 1326,
      "small": 1327,
      "IN": 1328,
      "3b": 1329,
      "lob": 1330,
      "product": 1331,
      "000": 1332,
      "pple": 1333,
      "_type": 1334,
      "_name": 1335,
      "JlG": 1336,
      "Image": 1337,
      ":\"\\\\": 1338,
      "property": 1339,
      "Box": 1340,
      "yc": 1341,
      "UR": 1342,
      "togg": 1343,
      "={": 1344,
      "Un": 1345,
      "[\"": 1346,
      "cubic": 1347,
      "v3": 1348,
      "An": 1349,
      "zier": 1350,
      "5d": 1351,
      "ENH": 1352,
      "bezier": 1353,
      "5px": 1354,
      "4e": 1355,
      "u003c": 1356,
      "typeof": 1357,
      "Data": 1358,
      "she": 1359,
      "On": 1360,
      "FD": 1361,
      "Go1O": 1362,
      "sxJlG": 1363,
      "DuGo1O": 1364,
      "ENHsxJlG": 1365,
      "DuGo1OIl": 1366,
      "ENHsxJlGDuGo1OIl": 1367,
      "vw": 1368,
      "mit": 1369,
      "{\\\\\"": 1370,
      "7e": 1371,
      "else": 1372,
      "tical": 1373,
      "od": 1374,
      "AL": 1375,
      "4b": 1376,
      "l0": 1377,
      "widget": 1378,
      "info": 1379,
      "Pk": 1380,
      "ital": 1381,
      "AE": 1382,
      "Com": 1383,
      "B6": 1384,
      "DE": 1385,
      "gI": 1386,
      "shadow": 1387,
      "social": 1388,
      "Mj": 1389,
      "fil": 1390,
      "gu": 1391,
      "En": 1392,
      "point": 1393,
      "rom": 1394,
      "more": 1395,
      "6d": 1396,
      "ree": 1397,
      "MT": 1398,
      "ven": 1399,
      "=\"\"": 1400,
      "\\\\\\\\\\\\\",": 1401,
      "ush": 1402,
      "At": 1403,
      "Ra": 1404,
      "KsZ": 1405,
      ">\\\\": 1406,
      "self": 1407,
      "igin": 1408,
      "KsZd": 1409,
      "ksKsZd": 1410,
      "ado": 1411,
      "jo": 1412,
      "Nav": 1413,
      "DC": 1414,
      "Tech": 1415,
      "rol": 1416,
      "OO": 1417,
      "RE": 1418,
      "under": 1419,
      "));": 1420,
      "reg": 1421,
      "zm": 1422,
      "html5_": 1423,
      "your": 1424,
      "4a": 1425,
      "symbol": 1426,
      "Cr": 1427,
      "AD": 1428,
      "cover": 1429,
      "tool": 1430,
      "second": 1431,
      "u0026html5_": 1432,
      "Ne": 1433,
      "Time": 1434,
      "w3": 1435,
      "atch": 1436,
      "Roboto": 1437,
      "transp": 1438,
      "slides": 1439,
      "common": 1440,
      "totype": 1441,
      "5c": 1442,
      "O1": 1443,
      "gt": 1444,
      "trib": 1445,
      "9c": 1446,
      "2B": 1447,
      "red": 1448,
      "lar": 1449,
      "fm": 1450,
      "swan": 1451,
      "lp": 1452,
      "bb": 1453,
      "const": 1454,
      "Content": 1455,
      "client": 1456,
      "res": 1457,
      "b_": 1458,
      "Mu": 1459,
      ")),": 1460,
      "decor": 1461,
      "ripple": 1462,
      ":\\\\": 1463,
      "inner": 1464,
      "vb": 1465,
      "defin": 1466,
      "pan": 1467,
      "fer": 1468,
      "ts": 1469,
      "NS": 1470,
      "api": 1471,
      "9d": 1472,
      "press": 1473,
      "Le": 1474,
      ":{": 1475,
      "lobal": 1476,
      "My": 1477,
      "5a": 1478,
      "!==": 1479,
      "0c": 1480,
      "171": 1481,
      "cted": 1482,
      "CC": 1483,
      "/>\\": 1484,
      "offset": 1485,
      "032": 1486,
      "mode": 1487,
      "038": 1488,
      "\"),": 1489,
      "K1": 1490,
      "MP": 1491,
      "s__": 1492,
      "prototype": 1493,
      "v1": 1494,
      "ther": 1495,
      "direction": 1496,
      "A7": 1497,
      "2x": 1498,
      "lazy": 1499,
      "hol": 1500,
      "FE": 1501,
      "2a": 1502,
      "ict": 1503,
      "itter": 1504,
      "112": 1505,
      "A0": 1506,
      "linear": 1507,
      "decoration": 1508,
      "Object": 1509,
      "resize": 1510,
      "tracking": 1511,
      "],[\"": 1512,
      "4f": 1513,
      "estad": 1514,
      "_I": 1515,
      "MC": 1516,
      "BE": 1517,
      "eu": 1518,
      "transpar": 1519,
      "((": 1520,
      "l_": 1521,
      "La": 1522,
      "LE": 1523,
      "SI": 1524,
      "fs": 1525,
      "thumbnail": 1526,
      "ings": 1527,
      "Ser": 1528,
      "origin": 1529,
      "9b": 1530,
      "\"/>\\": 1531,
      "Mz": 1532,
      "6b": 1533,
      "By": 1534,
      "Zm": 1535,
      "Container": 1536,
      "Vi": 1537,
      "uch": 1538,
      "navbar": 1539,
      "utm_": 1540,
      "viewBox": 1541,
      "A4": 1542,
      "transparent": 1543,
      "gen": 1544,
      "estadao": 1545,
      "=>": 1546,
      "xx": 1547,
      "open": 1548,
      "<!--": 1549,
      "rame": 1550,
      "presen": 1551,
      "poli": 1552,
      "/%": 1553,
      "JT": 1554,
      "ong": 1555,
      "015": 1556,
      "ial": 1557,
      "lb": 1558,
      "vertical": 1559,
      "ouse": 1560,
      "6a": 1561,
      "0a": 1562,
      "eld": 1563,
      "gb_": 1564,
      "1200": 1565,
      "sec": 1566,
      "pen": 1567,
      "full": 1568,
      "ST": 1569,
      "Eu": 1570,
      "Head": 1571,
      ",#": 1572,
      "ade": 1573,
      "1b": 1574,
      "The": 1575,
      "Ag": 1576,
      "roll": 1577,
      "Pa": 1578,
      "tail": 1579,
      "dium": 1580,
      "rtl": 1581,
      "nn": 1582,
      "dev": 1583,
      "dark": 1584,
      "nb": 1585,
      "port": 1586,
      "wikimedia": 1587,
      "\\':": 1588,
      "srcset": 1589,
      "mWPk": 1590,
      "mWPk3d": 1591,
      "push": 1592,
      "ices": 1593,
      "ator": 1594,
      "6666": 1595,
      "Au": 1596,
      "last": 1597,
      "4I": 1598,
      "object": 1599,
      "yH": 1600,
      "account": 1601,
      ")]": 1602,
      "%\\',\\'": 1603,
      "BD": 1604,
      "Fo": 1605,
      "2f": 1606,
      "ya": 1607,
      "037": 1608,
      "tip": 1609,
      "dition": 1610,
      "For": 1611,
      "from": 1612,
      "links": 1613,
      "Bz": 1614,
      "Sh": 1615,
      "News": 1616,
      "D8": 1617,
      "q0": 1618,
      "spec": 1619,
      "Sc": 1620,
      "pointer": 1621,
      "lh": 1622,
      "Item": 1623,
      "por": 1624,
      "Element": 1625,
      "_n": 1626,
      "access": 1627,
      "wix": 1628,
      "csi": 1629,
      "Ad": 1630,
      "ousel": 1631,
      "219": 1632,
      "7a": 1633,
      "tate": 1634,
      "dal": 1635,
      "require": 1636,
      "ties": 1637,
      "Ij": 1638,
      "]]": 1639,
      "htCb": 1640,
      "O1htCb": 1641,
      "Crunch": 1642,
      "you": 1643,
      "feed": 1644,
      "dur": 1645,
      "{&": 1646,
      "holder": 1647,
      "sports": 1648,
      "d_": 1649,
      "move": 1650,
      "OR": 1651,
      "TechCrunch": 1652,
      "webp": 1653,
      "twitter": 1654,
      "\":[]": 1655,
      "_1": 1656,
      "Ho": 1657,
      "MA": 1658,
      "\":{": 1659,
      "C3": 1660,
      "ame": 1661,
      "8a": 1662,
      "wikibase": 1663,
      "\"/><": 1664,
      "template": 1665,
      "root": 1666,
      "only": 1667,
      "5e": 1668,
      ";}.": 1669,
      "DI": 1670,
      ";}/*!": 1671,
      "Fe": 1672,
      "Do": 1673,
      "arc": 1674,
      "vid": 1675,
      "ive": 1676,
      "break": 1677,
      "ick": 1678,
      "9a": 1679,
      "tics": 1680,
      ")(": 1681,
      "qe": 1682,
      "pi": 1683,
      "login": 1684,
      "\"}},\"": 1685,
      "abo": 1686,
      "Of": 1687,
      "Qu": 1688,
      "nav__": 1689,
      "checkbox": 1690,
      "3f": 1691,
      "dio": 1692,
      "Mi": 1693,
      "=\"//": 1694,
      "0625": 1695,
      "=!": 1696,
      ":!": 1697,
      "vh": 1698,
      "_url": 1699,
      "newsletter": 1700,
      "xmlns": 1701,
      "filter": 1702,
      "A9": 1703,
      "py": 1704,
      "Er": 1705,
      "CY": 1706,
      "tribute": 1707,
      "ories": 1708,
      "loading": 1709,
      "dc": 1710,
      "rENHsxJlGDuGo1OIl": 1711,
      "Sp": 1712,
      "B6Me": 1713,
      "OWB6Me": 1714,
      "JfC6": 1715,
      "rENHsxJlGDuGo1OIlJfC6": 1716,
      "global": 1717,
      "publish": 1718,
      "AP": 1719,
      "\");": 1720,
      "]{": 1721,
      "++": 1722,
      "AAAAAAAAAAAAAAAAAAAAAAAAAAAAAAAA": 1723,
      "tc": 1724,
      "lank": 1725,
      "ger": 1726,
      "enable_": 1727,
      "5b": 1728,
      "share": 1729,
      "0b": 1730,
      "40px": 1731,
      "in_": 1732,
      "8e": 1733,
      "call": 1734,
      "8f": 1735,
      "graph": 1736,
      "Fi": 1737,
      "tial": 1738,
      "stro": 1739,
      "figure": 1740,
      "selected": 1741,
      "prod": 1742,
      ";}\\": 1743,
      "interwiki": 1744,
      "cmS": 1745,
      "YW": 1746,
      "768": 1747,
      "BC": 1748,
      "0d": 1749,
      "Mw": 1750,
      "Soyc": 1751,
      "M1Soyc": 1752,
      "fmcmS": 1753,
      "side": 1754,
      "ual": 1755,
      "av": 1756,
      "];": 1757,
      "presentation": 1758,
      "mu": 1759,
      "ZW": 1760,
      "AQ": 1761,
      "ated": 1762,
      ")\"": 1763,
      "medium": 1764,
      "75rem": 1765,
      "TC": 1766,
      "}},\"": 1767,
      "edu": 1768,
      "Nj": 1769,
      "ND": 1770,
      "ote": 1771,
      "touch": 1772,
      "rent": 1773,
      "ef": 1774,
      "5rem": 1775,
      "ME": 1776,
      "};": 1777,
      "create": 1778,
      "mouse": 1779,
      "tern": 1780,
      "live": 1781,
      "A6": 1782,
      "parent": 1783,
      "herit": 1784,
      "headline": 1785,
      "9375": 1786,
      "field": 1787,
      "non": 1788,
      "clu": 1789,
      "mand": 1790,
      "heading": 1791,
      "panel": 1792,
      "ica": 1793,
      "tabindex": 1794,
      "secondary": 1795,
      "inherit": 1796,
      "ular": 1797,
      "Men": 1798,
      "2023": 1799,
      "arn": 1800,
      "u003C": 1801,
      "0f": 1802,
      "FB": 1803,
      "\")": 1804,
      "End": 1805,
      "arg": 1806,
      "A1": 1807,
      "tra": 1808,
      "SM": 1809,
      "gap": 1810,
      "duration": 1811,
      "9f": 1812,
      "128": 1813,
      "aly": 1814,
      "ai": 1815,
      "SE": 1816,
      "phot": 1817,
      "Nz": 1818,
      "ach": 1819,
      "story": 1820,
      "dr": 1821,
      "exports": 1822,
      "_blank": 1823,
      "Meta": 1824,
      "timing": 1825,
      "aa": 1826,
      "Params": 1827,
      "control": 1828,
      "Al": 1829,
      "supp": 1830,
      "strip": 1831,
      "ini": 1832,
      "devsite": 1833,
      "profile": 1834,
      "\",\"\":\"": 1835,
      "E1": 1836,
      "toggle": 1837,
      "my": 1838,
      "FO": 1839,
      "Wp": 1840,
      "30px": 1841,
      "fp": 1842,
      "Be": 1843,
      "2537": 1844,
      "stop": 1845,
      "cb": 1846,
      "rsrc": 1847,
      "3px": 1848,
      "Kz": 1849,
      "x3e": 1850,
      "7f": 1851,
      "C0": 1852,
      "5F": 1853,
      "Color": 1854,
      "BR": 1855,
      "crop": 1856,
      "gk": 1857,
      "rule": 1858,
      "acy": 1859,
      "now": 1860,
      "250": 1861,
      ".</": 1862,
      "2534": 1863,
      "\",\\": 1864,
      "hi": 1865,
      "serv": 1866,
      "caption": 1867,
      "gi": 1868,
      "UX": 1869,
      "word": 1870,
      "=/": 1871,
      "Lang": 1872,
      ";\"": 1873,
      "YK": 1874,
      "\\'>\\": 1875,
      "414": 1876,
      "8b": 1877,
      "6px": 1878,
      "Ax": 1879,
      "enabled": 1880,
      "__link": 1881,
      "carousel": 1882,
      "Tit": 1883,
      "stroke": 1884,
      "ods": 1885,
      "4n": 1886,
      "next": 1887,
      "uments": 1888,
      "]=": 1889,
      "],[[": 1890,
      "flo": 1891,
      "ou": 1892,
      "hU": 1893,
      "front": 1894,
      "stat": 1895,
      "0308": 1896,
      "adge": 1897,
      "ytheme": 1898,
      "Jh": 1899,
      "ssage": 1900,
      "ync": 1901,
      ");-": 1902,
      "IT": 1903,
      "Wra": 1904,
      "OT": 1905,
      "gICA": 1906,
      "outline": 1907,
      "Title": 1908,
      "iness": 1909,
      "NT": 1910,
      "ssion": 1911,
      "italic": 1912,
      "slot": 1913,
      "pin": 1914,
      "Menu": 1915,
      "5B": 1916,
      "Up": 1917,
      "gm": 1918,
      "scri": 1919,
      "lap": 1920,
      "defined": 1921,
      "Web": 1922,
      "sho": 1923,
      "usiness": 1924,
      "x3c": 1925,
      "about": 1926,
      "translateX": 1927,
      "Date": 1928,
      "ep": 1929,
      ":\"\",": 1930,
      "_c": 1931,
      "oki": 1932,
      "sive": 1933,
      "ji": 1934,
      "bed": 1935,
      "Comp": 1936,
      "ZM": 1937,
      "visible": 1938,
      "fg": 1939,
      "ease": 1940,
      "sis": 1941,
      "(),": 1942,
      "0304": 1943,
      "gress": 1944,
      "bla": 1945,
      "Jl": 1946,
      "0329": 1947,
      "change": 1948,
      "match": 1949,
      "MS": 1950,
      "email": 1951,
      "pb": 1952,
      "current": 1953,
      "\"}],\"": 1954,
      "clz": 1955,
      "(:": 1956,
      "LU": 1957,
      "4Ic": 1958,
      ")},": 1959,
      "json": 1960,
      "FC": 1961,
      "K1Yo": 1962,
      "query": 1963,
      "clz4Ic": 1964,
      "placeholder": 1965,
      "_re": 1966,
      "IG": 1967,
      "ae": 1968,
      "orage": 1969,
      "color_": 1970,
      "commons": 1971,
      "----": 1972,
      "enter": 1973,
      "..": 1974,
      "large": 1975,
      "des": 1976,
      "son": 1977,
      "0e": 1978,
      "sb": 1979,
      "OC": 1980,
      "MD": 1981,
      "mx": 1982,
      "5C": 1983,
      "stand": 1984,
      "select": 1985,
      "AR": 1986,
      "(!": 1987,
      "tm": 1988,
      "Language": 1989,
      "sur": 1990,
      ";\\\\": 1991,
      "version": 1992,
      "Spe": 1993,
      "pZX": 1994,
      "MV": 1995,
      "JG": 1996,
      "4375": 1997,
      "Hel": 1998,
      "pref": 1999
    },
    "merges": [
      "o n",
      "\\ \\",
      "i n",
      "e r",
      "= \"",
      "l e",
      "\" :",
      "o r",
      "t i",
      "e n",
      "a r",
      "l a",
      ", \"",
      "r e",
      "a n",
      "t e",
      "0 0",
      "d i",
      "2 5",
      "c o",
      "s t",
      "> <",
      "i d",
      "s s",
      "a l",
      "h t",
      "t h",
      "ti on",
      "t a",
      "en t",
      "s e",
      "\" ,\"",
      "\": \"",
      "l i",
      "r o",
      "a c",
      "s p",
      "on t",
      "m e",
      "o t",
      "a d",
      "c la",
      "u n",
      "> \\",
      "cla ss",
      "i g",
      "g e",
      "2 0",
      "d e",
      "t r",
      "p x",
      "\\ '",
      "- -",
      "s i",
      "c h",
      "m a",
      "t o",
      "< /",
      "l o",
      "in g",
      "0 x",
      "u r",
      "di v",
      "d a",
      "\\\\ /",
      "co m",
      "3 3",
      "u 00",
      "q u",
      "\\\\ \"",
      "t p",
      ">< /",
      "3 2",
      "l in",
      "ht tp",
      "i t",
      "h e",
      "i c",
      "n a",
      "A A",
      "/ /",
      "http s",
      "ig ht",
      "co l",
      "f ont",
      "3 5",
      "} .",
      "_ _",
      "i l",
      "p e",
      "u t",
      "u l",
      "c a",
      "d o",
      "{ \"",
      "da ta",
      ") ;",
      "1 0",
      "r i",
      "qu ot",
      ": //",
      "f or",
      "r a",
      "w e",
      "w id",
      "t y",
      "sp an",
      "1 2",
      "b e",
      "u e",
      "i s",
      "s c",
      "v e",
      "re f",
      "c tion",
      "b o",
      "t er",
      "7 5",
      "wid th",
      "\" ><",
      "c e",
      "m p",
      "2 4",
      "1 6",
      "x t",
      "col or",
      ") {",
      "h ref",
      "3 d",
      "m o",
      "w w",
      "u s",
      "c ont",
      "i te",
      "v ar",
      "f f",
      "m ar",
      "1 5",
      "p k",
      "la y",
      "2 6",
      "V f",
      "ac k",
      "p a",
      "e s",
      "p o",
      "3 6",
      "P pk",
      "Ppk d",
      "Vf Ppkd",
      "u m",
      "a t",
      "lin k",
      "e w",
      "2 2",
      "3 4",
      "a s",
      "cont ent",
      "c on",
      "v er",
      "d er",
      "c k",
      "1 8",
      "w i",
      "1 4",
      "\": {\"",
      "_ 0x",
      "an s",
      "- .",
      "e d",
      "3 0",
      "h o",
      "\" >",
      "p p",
      "ti c",
      "te xt",
      "2 F",
      "f a",
      "c t",
      "g in",
      "he ight",
      "ty pe",
      "e t",
      "we b",
      "u b",
      "k i",
      "ite m",
      "1 7",
      "6 6",
      "1 9",
      "b le",
      ", .",
      "di a",
      "\" >\\",
      "u00 3d",
      "n g",
      "lin e",
      "} ,",
      "o p",
      "i ma",
      "3 7",
      "p ro",
      "t le",
      "na v",
      "s o",
      ") ,",
      "do c",
      "r c",
      "m en",
      "f un",
      "e l",
      "an d",
      "o g",
      "} ,\"",
      "g ro",
      "ul l",
      "ti tle",
      "fun ction",
      "3 8",
      "1 1",
      "7 4",
      "\" ,",
      "0 4",
      "v i",
      "g o",
      "to p",
      "AA AA",
      "\\\\ \\\\",
      "mar gin",
      "y b",
      "u p",
      "f o",
      "si z",
      "6 4",
      "y m",
      "or t",
      "b ack",
      "st y",
      "d ing",
      "f t",
      "sty le",
      "tr ue",
      "ri p",
      "6 5",
      "3 9",
      "or der",
      "un d",
      "na me",
      "t on",
      "men u",
      "3 1",
      "i f",
      "di sp",
      "on e",
      "( --",
      "wi ki",
      "ima ge",
      "s rc",
      "6 9",
      "me dia",
      "n ull",
      "doc s",
      "m s",
      "2 8",
      "6 8",
      "disp lay",
      "a ge",
      "d u",
      "ut ton",
      "2 9",
      "5 0",
      "le x",
      "2 7",
      "st a",
      "f lex",
      "ur l",
      "6 7",
      "n o",
      "sc rip",
      "m ent",
      "b a",
      "b order",
      "j s",
      "ww w",
      "P h",
      "s h",
      "f i",
      "k it",
      "= =",
      "\": [",
      "siz e",
      "gro und",
      "i a",
      "ig n",
      "web kit",
      "ge t",
      "O W",
      "back ground",
      "m in",
      "7 8",
      "p ad",
      "1 00",
      "th e",
      "tr ans",
      "4 8",
      "ar d",
      ": #",
      "25 32",
      "a u",
      "he ad",
      "pad ding",
      "9 9",
      "to m",
      "; \\",
      "le ft",
      "7 0",
      "s v",
      "re t",
      ": \"",
      "r ym",
      "Ph b",
      "rym Phb",
      "] ,",
      "for m",
      "ic on",
      "o ff",
      "b ot",
      "g a",
      "si tion",
      "ur n",
      "4 5",
      "a tion",
      "og le",
      "id e",
      "25 35",
      "b utton",
      "li st",
      "f e",
      "sv g",
      "4 4",
      "s a",
      "\" \\",
      "b lo",
      "\\\\ \":",
      "ta in",
      "c i",
      ") }",
      "bo x",
      "ret urn",
      "C o",
      "7 2",
      "ac e",
      "i m",
      "\\' ,",
      "u00 2F",
      "p h",
      "si te",
      "al l",
      "re m",
      "th is",
      "la ng",
      "do w",
      "se t",
      "5 8",
      "4 9",
      "E X",
      "n ew",
      "6 1",
      "be l",
      "te d",
      "p er",
      "m l",
      "7 9",
      "b i",
      "it y",
      "u00 26",
      "tain er",
      "; :",
      "5 5",
      "& &",
      "1 3",
      "e x",
      "4 0",
      "u re",
      "s er",
      "\" ></",
      "OW X",
      "EX e",
      "ti ve",
      "OWX EXe",
      "lo ad",
      "n one",
      "r ight",
      "o ut",
      "f al",
      "8 0",
      "fal se",
      "in ter",
      "5 9",
      "il l",
      "scrip t",
      "6 3",
      "la bel",
      "k e",
      "5 7",
      "c ent",
      "p re",
      "s ub",
      "} @",
      "sta tic",
      "( \"",
      "s l",
      ") +",
      "2 1",
      "an t",
      "a mp",
      "\\\\\\\\ \\\\\"",
      "o f",
      "6 0",
      "du le",
      "p ar",
      "s k",
      "R e",
      "vi ew",
      "_ yb",
      "2 3",
      "_yb _",
      "il y",
      "m d",
      "3 A",
      "i b",
      "blo ck",
      "we ight",
      "un ch",
      "25 25",
      "al ign",
      "\\\\/ \\\\/",
      "im g",
      "4 1",
      "mo dule",
      "C 6",
      "j p",
      "or g",
      "con tainer",
      "w off",
      "bot tom",
      "3 c",
      "6 2",
      "r g",
      "=\" /",
      "6 F",
      "c r",
      "e m",
      "v al",
      "4 3",
      "v ent",
      "la te",
      "m ily",
      "7 3",
      "d s",
      "F F",
      "fa mily",
      "u se",
      "7 b",
      "I n",
      "] ,\"",
      "ma x",
      "pa th",
      "e c",
      "se ction",
      "w ra",
      "0 1",
      ": \\\\/\\\\/",
      "} \\",
      "woff 2",
      "w p",
      "}, {\"",
      "2 b",
      "go ogle",
      "\\', \\'",
      "i mp",
      "7 7",
      "a pp",
      "; -",
      "c li",
      "20 24",
      "trans form",
      "ma t",
      "ar ch",
      "0 9",
      "l u",
      "pa ge",
      "head er",
      "ul t",
      "5 6",
      "cent er",
      "& #",
      "jp g",
      "po sition",
      "= \\'",
      ", \\\\\"",
      "8 8",
      "a b",
      "\" },\"",
      "T e",
      "n ot",
      "w h",
      "0 2",
      "5 4",
      "; --",
      "f ill",
      "e ct",
      "l y",
      "G o",
      "2 00",
      "d y",
      "t ar",
      "a te",
      "e a",
      "o m",
      "tic le",
      "or e",
      "| |",
      "4 2",
      "w or",
      "AAAA AAAA",
      "{ \\",
      "de x",
      "r id",
      "a ble",
      "N a",
      "D 0",
      "4 7",
      ", &",
      "S tr",
      "b r",
      "o s",
      "pp er",
      "au to",
      "I d",
      "imp ort",
      "val ue",
      "a f",
      "me ta",
      "o l",
      "6 E",
      "for e",
      "c ard",
      "M e",
      "\" }",
      "m w",
      "i st",
      "d d",
      "um b",
      "ro w",
      "tr an",
      "ac ity",
      "3 e",
      "5 1",
      "op acity",
      "], [",
      "){ .",
      "p ri",
      "import ant",
      "\\\\\": \\\\\"",
      "n e",
      "c d",
      "ar ia",
      "G f",
      ";: &",
      "or y",
      "9 0",
      "g ra",
      "lo w",
      "( .",
      "d en",
      "an ge",
      "ca as",
      "\" /",
      "4 6",
      "ht ml",
      "be fore",
      "6 C",
      "co de",
      "in dex",
      "7 1",
      "ro p",
      "l l",
      "or m",
      "e le",
      "ar ticle",
      "\\\\\" ,\\\\\"",
      "ar e",
      ") .",
      "u age",
      "ho ver",
      "y o",
      "v o",
      "s _",
      "ar t",
      "for mat",
      "a p",
      "le t",
      "7 6",
      "f ace",
      "en d",
      "com p",
      "r l",
      "ch e",
      "a m",
      "un t",
      "o w",
      "0 8",
      "y pe",
      "um n",
      "5 2",
      "tr ack",
      "n C6",
      ") }.",
      "nC6 b",
      "ib nC6b",
      "bo dy",
      "( \\'",
      "00 00",
      "C on",
      "new s",
      "w in",
      "tar get",
      "= \\\\\"",
      "ot er",
      "n orm",
      "se arch",
      "in t",
      "; ,&",
      "ic e",
      "norm al",
      "cr unch",
      "2 C",
      "6 25",
      "i z",
      "te ch",
      "_0x 10",
      "s u",
      "ho w",
      "j ect",
      "dow n",
      "n Gf",
      ": -",
      "% ;",
      "Str nGf",
      "s m",
      "s ans",
      "5 3",
      "bo l",
      "p ng",
      "k s",
      "2b 7b",
      "fa ult",
      "ct or",
      "ur ce",
      "_0x10 2b7b",
      "P ro",
      "9 8",
      "la n",
      "u st",
      "g rid",
      "0 A",
      "me ga",
      "win dow",
      "c _",
      "e st",
      "c ur",
      "n er",
      "fo c",
      "b u",
      "id den",
      "2 D",
      "} }",
      "il d",
      "_ id",
      "ma in",
      "h idden",
      "mar y",
      "e vent",
      "f r",
      "0 5",
      "di t",
      "x 22",
      "b ar",
      ") :",
      "i r",
      "T E",
      "font s",
      "fi le",
      "ca le",
      "col umn",
      "p r",
      "lo go",
      "bi le",
      "3 75",
      "g g",
      "un i",
      "ke y",
      "um ent",
      "st r",
      "si on",
      "f in",
      "ci al",
      "1 px",
      "a ss",
      "o ver",
      "en able",
      "c or",
      "lang uage",
      "ub li",
      "ba se",
      "te s",
      "m on",
      "1 25",
      "fo oter",
      "0 30",
      "W i",
      "8 9",
      "an ce",
      "n d",
      "S e",
      "\":\" \",\"",
      "E 0",
      "foc us",
      "p ut",
      "re l",
      "b t",
      "tion s",
      "ide o",
      "let ter",
      "in line",
      "{ -",
      "wra pper",
      "n et",
      "r or",
      "6 c",
      "); \\",
      "E N",
      "h 3",
      "tech crunch",
      "( ){",
      "s w",
      "ra di",
      "i on",
      "h as",
      "C A",
      ": :",
      "D e",
      "item s",
      "u d",
      "l G",
      "v a",
      "o k",
      "re en",
      "at ure",
      "3 C",
      "M a",
      "de fault",
      "\":\" /",
      "tran sition",
      "3 E",
      "6 D",
      "l id",
      "ti f",
      "co unt",
      "\" ]",
      "g b",
      "c 0",
      "ble d",
      "c y",
      "4 d",
      "wor k",
      "U rl",
      "er s",
      "f ig",
      "trans late",
      "B o",
      "sp ace",
      "9 5",
      "up load",
      "md c",
      "rg ba",
      "ort s",
      "== =",
      "se le",
      "scrip tion",
      "f b",
      "in put",
      "( )",
      "I D",
      ": .",
      "so urce",
      "t d",
      "e b",
      "Go ogle",
      "o b",
      "th umb",
      "b y",
      "st art",
      "0 3",
      "et s",
      "ac tive",
      "\" },{\"",
      "in k",
      "mo bile",
      "po st",
      "c re",
      "c al",
      "sp ac",
      "a g",
      "L j",
      "r ange",
      "p ubli",
      "M o",
      "p la",
      "p lay",
      "} #",
      "c lo",
      "9 4",
      "ta g",
      "ce ss",
      "Na me",
      "re la",
      "8 2",
      "4 00",
      "1 c",
      "P age",
      "ar y",
      "m _",
      "us er",
      "ch ild",
      "l g",
      "di sa",
      "8 5",
      "ta ble",
      "p t",
      "cli ck",
      "l r",
      "v ideo",
      "al t",
      "g static",
      "\":[ {\"",
      "h er",
      "u003d true",
      "c f",
      "20 px",
      "image s",
      "ac t",
      "uni code",
      "H e",
      "che ck",
      "li g",
      "ti me",
      "1 a",
      "S ans",
      "T r",
      "pe dia",
      "bt n",
      "A B",
      "pri mary",
      "0 px",
      "S o",
      "gro up",
      "ele ment",
      "s cale",
      "* /",
      "3 B",
      "or i",
      "te g",
      "/ *",
      "25 36",
      "sc reen",
      "1 E",
      "ex p",
      "9 6",
      "wra p",
      "R o",
      "16 px",
      ") )",
      "c l",
      "ust om",
      "u i",
      "9 1",
      "25 5",
      "et ch",
      "/ \"",
      "( -",
      "8 6",
      "c c",
      "9 2",
      "T ype",
      "i re",
      "B 0",
      "ca tion",
      "A F",
      "L ist",
      "af ter",
      "8 4",
      "a _",
      "radi us",
      "1 d",
      "*/ \\",
      "AAAAAAAA AAAAAAAA",
      "fe ature",
      "e e",
      "a tom",
      "au th",
      "the me",
      "ac tion",
      "8 7",
      "=\" #",
      "module _",
      "yb ar",
      "ig ation",
      "rg b",
      "y n",
      "8 3",
      "c ss",
      "); --",
      "8 1",
      ": \\'",
      "0 6",
      "spac ing",
      "ca t",
      "t w",
      "\\' ;",
      "A r",
      "an g",
      "U S",
      "5 00",
      "inter language",
      "atom ic",
      "de scription",
      "Te xt",
      "D a",
      "l f",
      "2 E",
      "per ty",
      "; }",
      "en er",
      "c m",
      "bot o",
      "C h",
      ", -",
      "wi th",
      "ca teg",
      "ro le",
      "t l",
      "ta b",
      "ve ctor",
      "P o",
      "x 27",
      "pa is",
      "a k",
      "cd n",
      "\\' );",
      "e dit",
      "6 f",
      "_ b",
      "in e",
      "\\\\ (",
      "so lid",
      "disa bled",
      "da te",
      "0 7",
      "B utton",
      "m i",
      "E _",
      "z i",
      "fi r",
      "L Q",
      "3 00",
      "25 33",
      "di re",
      "er y",
      "i o",
      "on ent",
      "de sk",
      "a o",
      "v ice",
      "O b",
      "Co l",
      "ph p",
      "d rop",
      "&& (",
      "33 33",
      "T I",
      "ff f",
      "op tion",
      "8 px",
      "A I",
      "wiki pedia",
      "Y o",
      "D 1",
      "doc ument",
      "a y",
      "di r",
      "N o",
      "f low",
      "du ct",
      "A C",
      "8 c",
      "2 e",
      "so lu",
      "rela tive",
      "ass ets",
      "m an",
      "T i",
      "ser if",
      "\":[ ],\"",
      "7 00",
      "I l",
      "/* !",
      "6 B",
      "4 C",
      "\\\\\\\\ \\\\\":",
      "r en",
      "24 px",
      "ad d",
      "er _",
      "9 7",
      "j a",
      "b re",
      "S f",
      "E vent",
      "bi li",
      "} }@",
      "d f",
      "el pais",
      "n s",
      "tif y",
      "vo id",
      "na il",
      "tr y",
      "h 2",
      "s Z",
      "r u",
      "( //",
      "lr v",
      "lig ht",
      "le ng",
      "de d",
      "c ustom",
      "f c",
      "desk top",
      "an ima",
      "T h",
      "j us",
      "B B",
      "O N",
      "s en",
      "6 e",
      "leng th",
      "; }@",
      "te m",
      "L o",
      "E x",
      "ar k",
      "4 E",
      "! --",
      "2 px",
      "b d",
      "s x",
      "L ink",
      "A c",
      "i x",
      "m er",
      "T o",
      "al _",
      "1 F",
      "lay out",
      "Z X",
      "z y",
      "\":[ \"",
      "b c",
      "1 f",
      "r y",
      "D u",
      "pla ce",
      "b l",
      "4 F",
      "\" ;",
      "2 c",
      "4 px",
      "4 c",
      "} }.",
      "sl id",
      "1 O",
      "ca se",
      "lo g",
      "ym bol",
      "u g",
      "4 U",
      "p s",
      "E R",
      "fir st",
      "C ont",
      "h a",
      "re ss",
      "s how",
      "u te",
      "18 75",
      "4 A",
      "a ms",
      "bili ty",
      "P ar",
      "jus tify",
      "nav igation",
      "mar k",
      "x l",
      "x 3d",
      "N ew",
      "qu e",
      "ta tion",
      "3 D",
      "ca p",
      "bo ok",
      "4 B",
      "\\\\ ){",
      "ti m",
      "6 00",
      "O D",
      "ma il",
      "mp late",
      "5 f",
      "1 C",
      "comp onent",
      "S A",
      "5 _",
      "a se",
      "ment s",
      "vi si",
      "\\\\ &",
      "c ar",
      "C b",
      "Q LQ",
      "drop down",
      "S t",
      "wh ite",
      "QLQ b",
      "Sf QLQb",
      ", [",
      "solu te",
      "s ign",
      "sk etch",
      "v 2",
      "en ce",
      "ve l",
      "10 px",
      "\" ],\"",
      "31 25",
      "ab solute",
      "sketch y",
      "7 d",
      "anima tion",
      "le d",
      "p l",
      "u k",
      "i e",
      "re qu",
      "le s",
      "6 A",
      "_yb_ 1",
      "7 D",
      "u00 3e",
      "x 2F",
      "f d",
      "auth or",
      "ho me",
      "cal c",
      "s ti",
      "1 e",
      "C ard",
      "ad ow",
      "x ml",
      "7 B",
      "9 3",
      "J f",
      "s or",
      "a st",
      "7 c",
      "x s",
      "> .",
      "M 1",
      "D A",
      "Wi ki",
      "5 A",
      "href lang",
      "l d",
      "se con",
      "ra y",
      "12 px",
      "i p",
      "sp on",
      "m b",
      "m W",
      "__ item",
      "categ ory",
      "clo ud",
      "68 75",
      "t ot",
      "over flow",
      "ti ca",
      "c ub",
      "2 d",
      "% }.",
      "blo g",
      "4 D",
      "google sans",
      "er ror",
      "3 a",
      "200 0",
      "y s",
      "upload s",
      "re ad",
      "ma ge",
      "E le",
      "\" }.",
      "b g",
      "c an",
      "T Y",
      "en ti",
      "7 A",
      "sm all",
      "I N",
      "3 b",
      "lo b",
      "pro duct",
      "00 0",
      "pp le",
      "_ type",
      "_ name",
      "J lG",
      "I mage",
      ":\" \\\\",
      "pro perty",
      "Bo x",
      "y c",
      "U R",
      "to gg",
      "= {",
      "U n",
      "[ \"",
      "cub ic",
      "v 3",
      "A n",
      "zi er",
      "5 d",
      "EN H",
      "be zier",
      "5 px",
      "4 e",
      "u00 3c",
      "type of",
      "Da ta",
      "s he",
      "O n",
      "F D",
      "Go 1O",
      "sx JlG",
      "Du Go1O",
      "ENH sxJlG",
      "DuGo1O Il",
      "ENHsxJlG DuGo1OIl",
      "v w",
      "m it",
      "{ \\\\\"",
      "7 e",
      "el se",
      "tic al",
      "o d",
      "A L",
      "4 b",
      "l 0",
      "wid get",
      "in fo",
      "P k",
      "it al",
      "A E",
      "Co m",
      "B 6",
      "D E",
      "g I",
      "sh adow",
      "so cial",
      "M j",
      "f il",
      "g u",
      "E n",
      "po int",
      "ro m",
      "m ore",
      "6 d",
      "re e",
      "M T",
      "v en",
      "=\" \"",
      "\\\\\\\\\\\\\" ,",
      "us h",
      "A t",
      "R a",
      "K sZ",
      "> \\\\",
      "se lf",
      "ig in",
      "KsZ d",
      "ks KsZd",
      "ad o",
      "j o",
      "Na v",
      "D C",
      "Te ch",
      "ro l",
      "O O",
      "R E",
      "un der",
      ") );",
      "re g",
      "z m",
      "html 5_",
      "yo ur",
      "4 a",
      "s ymbol",
      "C r",
      "A D",
      "co ver",
      "to ol",
      "secon d",
      "u0026 html5_",
      "N e",
      "Ti me",
      "w 3",
      "at ch",
      "Ro boto",
      "tran sp",
      "slid es",
      "com mon",
      "tot ype",
      "5 c",
      "O 1",
      "g t",
      "tr ib",
      "9 c",
      "2 B",
      "re d",
      "l ar",
      "f m",
      "sw an",
      "l p",
      "b b",
      "con st",
      "Cont ent",
      "cli ent",
      "re s",
      "b _",
      "M u",
      ") ),",
      "de cor",
      "ri pple",
      ": \\\\",
      "in ner",
      "v b",
      "de fin",
      "p an",
      "f er",
      "t s",
      "N S",
      "ap i",
      "9 d",
      "pre ss",
      "L e",
      ": {",
      "lob al",
      "M y",
      "5 a",
      "! ==",
      "0 c",
      "17 1",
      "c ted",
      "C C",
      "/ >\\",
      "off set",
      "0 32",
      "mo de",
      "0 38",
      "\" ),",
      "K 1",
      "M P",
      "s __",
      "pro totype",
      "v 1",
      "th er",
      "dire ction",
      "A 7",
      "2 x",
      "la zy",
      "ho l",
      "F E",
      "2 a",
      "ic t",
      "it ter",
      "1 12",
      "A 0",
      "line ar",
      "decor ation",
      "Ob ject",
      "re size",
      "track ing",
      "],[ \"",
      "4 f",
      "est ad",
      "_ I",
      "M C",
      "B E",
      "e u",
      "transp ar",
      "( (",
      "l _",
      "L a",
      "L E",
      "S I",
      "f s",
      "thumb nail",
      "ing s",
      "S er",
      "or igin",
      "9 b",
      "\"/ >\\",
      "M z",
      "6 b",
      "B y",
      "Z m",
      "Con tainer",
      "V i",
      "u ch",
      "nav bar",
      "ut m_",
      "view Box",
      "A 4",
      "transpar ent",
      "g en",
      "estad ao",
      "= >",
      "x x",
      "op en",
      "< !--",
      "ra me",
      "pre sen",
      "po li",
      "/ %",
      "J T",
      "on g",
      "0 15",
      "i al",
      "l b",
      "ver tical",
      "o use",
      "6 a",
      "0 a",
      "el d",
      "gb _",
      "12 00",
      "se c",
      "p en",
      "f ull",
      "S T",
      "E u",
      "He ad",
      ", #",
      "ad e",
      "1 b",
      "T he",
      "A g",
      "ro ll",
      "P a",
      "ta il",
      "di um",
      "r tl",
      "n n",
      "de v",
      "d ark",
      "n b",
      "p ort",
      "wiki media",
      "\\' :",
      "src set",
      "mW Pk",
      "mWPk 3d",
      "p ush",
      "ic es",
      "at or",
      "66 66",
      "A u",
      "la st",
      "4 I",
      "ob ject",
      "y H",
      "ac count",
      ") ]",
      "% \\',\\'",
      "B D",
      "F o",
      "2 f",
      "y a",
      "0 37",
      "ti p",
      "di tion",
      "F or",
      "f rom",
      "link s",
      "B z",
      "S h",
      "New s",
      "D 8",
      "q 0",
      "sp ec",
      "S c",
      "po inter",
      "l h",
      "I tem",
      "p or",
      "Ele ment",
      "_ n",
      "ac cess",
      "wi x",
      "c si",
      "A d",
      "ouse l",
      "2 19",
      "7 a",
      "ta te",
      "d al",
      "requ ire",
      "ti es",
      "I j",
      "] ]",
      "ht Cb",
      "O1 htCb",
      "Cr unch",
      "yo u",
      "fe ed",
      "d ur",
      "{ &",
      "hol der",
      "sp orts",
      "d _",
      "mo ve",
      "O R",
      "Tech Crunch",
      "web p",
      "tw itter",
      "\":[ ]",
      "_ 1",
      "H o",
      "M A",
      "\": {",
      "C 3",
      "a me",
      "8 a",
      "wiki base",
      "\"/ ><",
      "te mplate",
      "ro ot",
      "on ly",
      "5 e",
      "; }.",
      "D I",
      ";} /*!",
      "F e",
      "D o",
      "ar c",
      "v id",
      "i ve",
      "bre ak",
      "ic k",
      "9 a",
      "tic s",
      ") (",
      "q e",
      "p i",
      "lo gin",
      "\"} },\"",
      "a bo",
      "O f",
      "Q u",
      "nav __",
      "check box",
      "3 f",
      "di o",
      "M i",
      "=\" //",
      "0 625",
      "= !",
      ": !",
      "v h",
      "_ url",
      "news letter",
      "xml ns",
      "fil ter",
      "A 9",
      "p y",
      "E r",
      "C Y",
      "trib ute",
      "ori es",
      "load ing",
      "d c",
      "r ENHsxJlGDuGo1OIl",
      "S p",
      "B6 Me",
      "OW B6Me",
      "Jf C6",
      "rENHsxJlGDuGo1OIl JfC6",
      "g lobal",
      "publi sh",
      "A P",
      "\" );",
      "] {",
      "+ +",
      "AAAAAAAAAAAAAAAA AAAAAAAAAAAAAAAA",
      "t c",
      "lan k",
      "g er",
      "enable _",
      "5 b",
      "sh are",
      "0 b",
      "40 px",
      "in _",
      "8 e",
      "c all",
      "8 f",
      "gra ph",
      "F i",
      "ti al",
      "st ro",
      "fig ure",
      "sele cted",
      "pro d",
      "; }\\",
      "inter wiki",
      "cm S",
      "Y W",
      "7 68",
      "B C",
      "0 d",
      "M w",
      "So yc",
      "M1 Soyc",
      "fm cmS",
      "s ide",
      "u al",
      "a v",
      "] ;",
      "presen tation",
      "m u",
      "Z W",
      "A Q",
      "a ted",
      ") \"",
      "me dium",
      "75 rem",
      "T C",
      "} },\"",
      "ed u",
      "N j",
      "N D",
      "o te",
      "to uch",
      "r ent",
      "e f",
      "5 rem",
      "M E",
      "} ;",
      "cre ate",
      "mo use",
      "ter n",
      "li ve",
      "A 6",
      "par ent",
      "her it",
      "head line",
      "9 375",
      "fi eld",
      "n on",
      "c lu",
      "m and",
      "head ing",
      "pan el",
      "ic a",
      "tab index",
      "second ary",
      "in herit",
      "ul ar",
      "M en",
      "20 23",
      "ar n",
      "u00 3C",
      "0 f",
      "F B",
      "\" )",
      "E nd",
      "ar g",
      "A 1",
      "tr a",
      "S M",
      "ga p",
      "dur ation",
      "9 f",
      "12 8",
      "al y",
      "a i",
      "S E",
      "ph ot",
      "N z",
      "ac h",
      "st ory",
      "d r",
      "exp orts",
      "_b lank",
      "Me ta",
      "tim ing",
      "a a",
      "Par ams",
      "cont rol",
      "A l",
      "su pp",
      "st rip",
      "in i",
      "dev site",
      "pro file",
      "\",\" \":\"",
      "E 1",
      "togg le",
      "m y",
      "F O",
      "W p",
      "30 px",
      "f p",
      "B e",
      "25 37",
      "st op",
      "c b",
      "r src",
      "3 px",
      "K z",
      "x 3e",
      "7 f",
      "C 0",
      "5 F",
      "Col or",
      "B R",
      "c rop",
      "g k",
      "ru le",
      "ac y",
      "no w",
      "25 0",
      ". </",
      "25 34",
      "\", \\",
      "h i",
      "ser v",
      "cap tion",
      "g i",
      "U X",
      "wor d",
      "= /",
      "L ang",
      "; \"",
      "Y K",
      "\\' >\\",
      "4 14",
      "8 b",
      "6 px",
      "A x",
      "enable d",
      "__ link",
      "car ousel",
      "T it",
      "stro ke",
      "o ds",
      "4 n",
      "ne xt",
      "ument s",
      "] =",
      "],[ [",
      "f lo",
      "o u",
      "h U",
      "fr ont",
      "st at",
      "030 8",
      "ad ge",
      "y theme",
      "J h",
      "ss age",
      "yn c",
      "); -",
      "I T",
      "W ra",
      "O T",
      "gI CA",
      "out line",
      "Tit le",
      "ine ss",
      "N T",
      "ss ion",
      "ital ic",
      "sl ot",
      "p in",
      "Men u",
      "5 B",
      "U p",
      "g m",
      "sc ri",
      "la p",
      "defin ed",
      "W eb",
      "s ho",
      "us iness",
      "x 3c",
      "abo ut",
      "translate X",
      "D ate",
      "e p",
      ":\" \",",
      "_ c",
      "o ki",
      "si ve",
      "j i",
      "be d",
      "Co mp",
      "Z M",
      "visi ble",
      "f g",
      "ea se",
      "si s",
      "( ),",
      "030 4",
      "g ress",
      "b la",
      "J l",
      "032 9",
      "ch ange",
      "mat ch",
      "M S",
      "e mail",
      "p b",
      "cur rent",
      "\"} ],\"",
      "cl z",
      "( :",
      "L U",
      "4I c",
      ") },",
      "js on",
      "F C",
      "K1 Yo",
      "qu ery",
      "clz 4Ic",
      "place holder",
      "_ re",
      "I G",
      "a e",
      "or age",
      "color _",
      "common s",
      "-- --",
      "ent er",
      ". .",
      "lar ge",
      "de s",
      "s on",
      "0 e",
      "s b",
      "O C",
      "M D",
      "m x",
      "5 C",
      "st and",
      "sele ct",
      "A R",
      "( !",
      "t m",
      "Lang uage",
      "s ur",
      "; \\\\",
      "ver sion",
      "S pe",
      "p ZX",
      "M V",
      "J G",
      "43 75",
      "H el",
      "p ref"
    ]
  }
}