{
  "version": "1.0",
  "truncation": null,
  "padding": null,
  "added_tokens": [
    {
      "id": 0,
      "content": "[UNK]",
      "single_word": false,
      "lstrip": false,
      "rstrip": false,
      "normalized": false,
      "special": true
    },
    {
      "id": 1,
      "content": "[CLS]",
      "single_word": false,
      "lstrip": false,
      "rstrip": false,
      "normalized": false,
      "special": true
    },
    {
      "id": 2,
      "content": "[SEP]",
      "single_word": false,
      "lstrip": false,
      "rstrip": false,
      "normalized": false,
      "special": true
    },
    {
      "id": 3,
      "content": "[PAD]",
      "single_word": false,
      "lstrip": false,
      "rstrip": false,
      "normalized": false,
      "special": true
    },
    {
      "id": 4,
      "content": "[MASK]",
      "single_word": false,
      "lstrip": false,
      "rstrip": false,
      "normalized": false,
      "special": true
    }
  ],
  "normalizer": null,
  "pre_tokenizer": {
    "type": "Whitespace"
  },
  "post_processor": null,
  "decoder": null,
  "model": {
    "type": "BPE",
    "dropout": null,
    "unk_token": "[UNK]",
    "continuing_subword_prefix": null,
    "end_of_word_suffix": null,
    "fuse_unk": false,
    "byte_fallback": false,
    "ignore_merges": false,
    "vocab": {
      "[UNK]": 0,
      "[CLS]": 1,
      "[SEP]": 2,
      "[PAD]": 3,
      "[MASK]": 4,
      "!": 5,
      "\"": 6,
      "#": 7,
      "$": 8,
      "%": 9,
      "&": 10,
      "'": 11,
      "(": 12,
      ")": 13,
      "*": 14,
      "+": 15,
      ",": 16,
      "-": 17,
      ".": 18,
      "/": 19,
      "0": 20,
      "1": 21,
      "2": 22,
      "3": 23,
      "4": 24,
      "5": 25,
      "6": 26,
      "7": 27,
      "8": 28,
      "9": 29,
      ":": 30,
      ";": 31,
      "<": 32,
      "=": 33,
      ">": 34,
      "?": 35,
      "@": 36,
      "A": 37,
      "B": 38,
      "C": 39,
      "D": 40,
      "E": 41,
      "F": 42,
      "G": 43,
      "H": 44,
      "I": 45,
      "J": 46,
      "K": 47,
      "L": 48,
      "M": 49,
      "N": 50,
      "O": 51,
      "P": 52,
      "Q": 53,
      "R": 54,
      "S": 55,
      "T": 56,
      "U": 57,
      "V": 58,
      "W": 59,
      "X": 60,
      "Y": 61,
      "Z": 62,
      "[": 63,
      "\\": 64,
      "]": 65,
      "^": 66,
      "_": 67,
      "`": 68,
      "a": 69,
      "b": 70,
      "c": 71,
      "d": 72,
      "e": 73,
      "f": 74,
      "g": 75,
      "h": 76,
      "i": 77,
      "j": 78,
      "k": 79,
      "l": 80,
      "m": 81,
      "n": 82,
      "o": 83,
      "p": 84,
      "q": 85,
      "r": 86,
      "s": 87,
      "t": 88,
      "u": 89,
      "v": 90,
      "w": 91,
      "x": 92,
      "y": 93,
      "z": 94,
      "{": 95,
      "|": 96,
      "}": 97,
      "~": 98,
      "x0": 99,
      "x1": 100,
      "AA": 101,
      "in": 102,
      "](": 103,
      "er": 104,
      "es": 105,
      "or": 106,
      "on": 107,
      "an": 108,
      ")\\": 109,
      "tt": 110,
      "en": 111,
      "om": 112,
      "//": 113,
      "ps": 114,
      "ar": 115,
      "at": 116,
      "htt": 117,
      "://": 118,
      "https": 119,
      "AAAA": 120,
      "x00": 121,
      "ed": 122,
      "ik": 123,
      "al": 124,
      "com": 125,
      "ww": 126,
      "th": 127,
      "iki": 128,
      "ic": 129,
      "is": 130,
      "\\\\": 131,
      "wiki": 132,
      "as": 133,
      "it": 134,
      "ou": 135,
      "le": 136,
      "re": 137,
      "ion": 138,
      "de": 139,
      "ing": 140,
      "ag": 141,
      "](/": 142,
      "to": 143,
      "st": 144,
      "ac": 145,
      "ia": 146,
      "\\'": 147,
      "el": 148,
      "ent": 149,
      "AAAAAAAA": 150,
      "x10": 151,
      "x18": 152,
      "ro": 153,
      "x01": 154,
      "and": 155,
      "x08": 156,
      "lo": 157,
      "x04": 158,
      "x02": 159,
      "www": 160,
      "20": 161,
      "il": 162,
      "x14": 163,
      "x06": 164,
      "x11": 165,
      "x03": 166,
      "x15": 167,
      "x19": 168,
      "x05": 169,
      "ad": 170,
      "7f": 171,
      "-\\": 172,
      "x16": 173,
      "x12": 174,
      "et": 175,
      "x1a": 176,
      "x13": 177,
      "x1b": 178,
      "im": 179,
      "x0e": 180,
      "x07": 181,
      "x7f": 182,
      "ec": 183,
      "x17": 184,
      "oo": 185,
      "the": 186,
      "am": 187,
      "us": 188,
      "x0f": 189,
      "id": 190,
      "ol": 191,
      "\")\\": 192,
      "of": 193,
      "/)\\": 194,
      "org": 195,
      "ch": 196,
      "edia": 197,
      "D0": 198,
      "ig": 199,
      "un": 200,
      "ers": 201,
      "ur": 202,
      "iv": 203,
      "age": 204,
      "##": 205,
      "pr": 206,
      "E0": 207,
      "ce": 208,
      "ew": 209,
      "ts": 210,
      "ation": 211,
      "ab": 212,
      "tr": 213,
      ".\\": 214,
      "for": 215,
      "em": 216,
      "AAAAAAAAAAAAAAAA": 217,
      "our": 218,
      "os": 219,
      "![": 220,
      "ut": 221,
      "ap": 222,
      "con": 223,
      "est": 224,
      "24": 225,
      "ay": 226,
      "pl": 227,
      "um": 228,
      "00": 229,
      "ess": 230,
      "op": 231,
      "pedia": 232,
      "**": 233,
      "if": 234,
      "ow": 235,
      "up": 236,
      "\")": 237,
      "ot": 238,
      "he": 239,
      "--": 240,
      "ht": 241,
      "ate": 242,
      "ul": 243,
      "ter": 244,
      "qu": 245,
      "ub": 246,
      "se": 247,
      "sp": 248,
      "ain": 249,
      "av": 250,
      "pro": 251,
      "ir": 252,
      "tion": 253,
      "wikipedia": 254,
      "D1": 255,
      "ial": 256,
      "ort": 257,
      "AE": 258,
      "log": 259,
      "ex": 260,
      "art": 261,
      "ng": 262,
      "fr": 263,
      "Wiki": 264,
      "ov": 265,
      "wi": 266,
      "br": 267,
      "are": 268,
      "uc": 269,
      "80": 270,
      "ip": 271,
      "2024": 272,
      "D8": 273,
      "ph": 274,
      "oc": 275,
      "ity": 276,
      "eb": 277,
      "sh": 278,
      "In": 279,
      "ews": 280,
      "ml": 281,
      "cl": 282,
      "ies": 283,
      "gle": 284,
      "ist": 285,
      "ang": 286,
      "pa": 287,
      "be": 288,
      "oogle": 289,
      "AAAAAAAAAAAAAAAAAAAAAAAAAAAAAAAA": 290,
      "2F": 291,
      ",\\": 292,
      "ages": 293,
      "all": 294,
      "ail": 295,
      "out": 296,
      "la": 297,
      "04": 298,
      "iz": 299,
      "media": 300,
      "dat": 301,
      "co": 302,
      "D9": 303,
      "22": 304,
      "nd": 305,
      "@\\": 306,
      "B0": 307,
      "ev": 308,
      "81": 309,
      "sv": 310,
      "html": 311,
      "AI": 312,
      "wor": 313,
      "cr": 314,
      "ud": 315,
      "end": 316,
      "]\\": 317,
      "af": 318,
      "ah": 319,
      "vi": 320,
      "cont": 321,
      "ard": 322,
      "lin": 323,
      "*\\": 324,
      "/%": 325,
      "\"\\": 326,
      "(\\": 327,
      "jp": 328,
      "`\\": 329,
      "[\\": 330,
      "ment": 331,
      "res": 332,
      "po": 333,
      "with": 334,
      "23": 335,
      ":\\": 336,
      "ook": 337,
      "ser": 338,
      "Sp": 339,
      "ob": 340,
      "gr": 341,
      "ib": 342,
      "0x": 343,
      "!\\": 344,
      "ak": 345,
      "io": 346,
      "ug": 347,
      "A4": 348,
      "svg": 349,
      "11": 350,
      "ly": 351,
      "83": 352,
      "ive": 353,
      "#\\": 354,
      "E1": 355,
      "ore": 356,
      "ry": 357,
      "wh": 358,
      "ans": 359,
      "&\\": 360,
      "\\\\\\": 361,
      "ie": 362,
      "ear": 363,
      "port": 364,
      "mon": 365,
      "Lj": 366,
      "![](": 367,
      "news": 368,
      "17": 369,
      "?\\": 370,
      "%\\": 371,
      "St": 372,
      "php": 373,
      "tter": 374,
      ";\\": 375,
      "<\\": 376,
      "ign": 377,
      "C3": 378,
      "form": 379,
      "19": 380,
      "|\\": 381,
      "od": 382,
      "ass": 383,
      "ory": 384,
      "ant": 385,
      "+\\": 386,
      "ind": 387,
      "10": 388,
      "vic": 389,
      "$\\": 390,
      "png": 391,
      "\\'\\": 392,
      "64": 393,
      "/\\": 394,
      "google": 395,
      "82": 396,
      "ust": 397,
      "int": 398,
      "jpg": 399,
      "net": 400,
      "ne": 401,
      "per": 402,
      "do": 403,
      ">\\": 404,
      "data": 405,
      "load": 406,
      "AB": 407,
      "13": 408,
      "ian": 409,
      "au": 410,
      "Ch": 411,
      "ecial": 412,
      "ace": 413,
      "pais": 414,
      "=\\": 415,
      "ase": 416,
      "image": 417,
      "25": 418,
      "ill": 419,
      "}\\": 420,
      "\\\\(": 421,
      "AC": 422,
      "elpais": 423,
      "^\\": 424,
      "ue": 425,
      "ack": 426,
      "duc": 427,
      "images": 428,
      "ff": 429,
      "Pr": 430,
      "ite": 431,
      "ary": 432,
      "~\\": 433,
      "you": 434,
      "[](": 435,
      "Re": 436,
      "The": 437,
      "{\\": 438,
      "nt": 439,
      "your": 440,
      "ure": 441,
      "14": 442,
      "no": 443,
      "\\\\)": 444,
      "84": 445,
      "ix": 446,
      "mar": 447,
      "ct": 448,
      "ish": 449,
      "a_": 450,
      "ource": 451,
      "ateg": 452,
      "m_": 453,
      "16": 454,
      "AQ": 455,
      "ns": 456,
      "###": 457,
      "by": 458,
      "15": 459,
      "A7": 460,
      "ult": 461,
      "ect": 462,
      "pe": 463,
      "A6": 464,
      "ile": 465,
      "ens": 466,
      "27": 467,
      "BE": 468,
      "OD": 469,
      "fe": 470,
      "work": 471,
      "ions": 472,
      "ance": 473,
      "nc": 474,
      "act": 475,
      "ome": 476,
      "_P": 477,
      "ge": 478,
      "----": 479,
      "Main": 480,
      "not": 481,
      "uk": 482,
      "AAAAAAAAAAAAAAAAAAAAAAAAAAAAAAAAAAAAAAAAAAAAAAAAAAAAAAAAAAAAAAAA": 483,
      "ont": 484,
      "og": 485,
      "ms": 486,
      "oft": 487,
      ")[": 488,
      "any": 489,
      "Special": 490,
      "stat": 491,
      "My": 492,
      "content": 493,
      "we": 494,
      "bo": 495,
      "99": 496,
      "86": 497,
      "ahoo": 498,
      "link": 499,
      "b6": 500,
      "wikimedia": 501,
      "85": 502,
      "Ad": 503,
      "comp": 504,
      "ide": 505,
      ")](": 506,
      "sc": 507,
      "26": 508,
      "ld": 509,
      "source": 510,
      "utm_": 511,
      "21": 512,
      "yahoo": 513,
      "__": 514,
      "ao": 515,
      "ere": 516,
      "96": 517,
      "par": 518,
      "te": 519,
      "gu": 520,
      "88": 521,
      "B8": 522,
      "http": 523,
      "B5": 524,
      "me": 525,
      "top": 526,
      "man": 527,
      "Com": 528,
      "that": 529,
      "az": 530,
      "lic": 531,
      "BD": 532,
      "oud": 533,
      "ien": 534,
      "les": 535,
      "ca": 536,
      "su": 537,
      "AF": 538,
      "cou": 539,
      "AL": 540,
      "ast": 541,
      "ell": 542,
      "87": 543,
      "servic": 544,
      "Tr": 545,
      "90": 546,
      "ica": 547,
      "cor": 548,
      "Th": 549,
      "AAAAAA": 550,
      "[![": 551,
      "ight": 552,
      "95": 553,
      "nS": 554,
      "ets": 555,
      "ire": 556,
      "AP": 557,
      "ics": 558,
      "ver": 559,
      "pt": 560,
      "umb": 561,
      "arry": 562,
      "45": 563,
      "93": 564,
      "8D": 565,
      "blog": 566,
      "12": 567,
      "pol": 568,
      "ated": 569,
      "B1": 570,
      "angu": 571,
      "Ar": 572,
      "web": 573,
      "able": 574,
      "der": 575,
      "ina": 576,
      "gif": 577,
      "Al": 578,
      "fin": 579,
      "mons": 580,
      "ors": 581,
      "upload": 582,
      "ros": 583,
      "ve": 584,
      "Ag": 585,
      "que": 586,
      "from": 587,
      "ech": 588,
      "one": 589,
      "artic": 590,
      "Nj": 591,
      "IC": 592,
      "mun": 593,
      "ents": 594,
      "Sh": 595,
      "fl": 596,
      "produc": 597,
      "fer": 598,
      "mo": 599,
      "NT": 600,
      "str": 601,
      "na": 602,
      "A5": 603,
      "inde": 604,
      "dr": 605,
      "ND": 606,
      "pub": 607,
      "so": 608,
      "..": 609,
      "nP": 610,
      "[](/": 611,
      "dis": 612,
      "ound": 613,
      "ee": 614,
      "ree": 615,
      "03": 616,
      "AD": 617,
      "ther": 618,
      "Google": 619,
      "ade": 620,
      "ks": 621,
      "OR": 622,
      "ine": 623,
      "over": 624,
      "lh": 625,
      "C4": 626,
      "her": 627,
      "andom": 628,
      "97": 629,
      "page": 630,
      "can": 631,
      "cloud": 632,
      "33": 633,
      "fa": 634,
      "MT": 635,
      "/)": 636,
      "low": 637,
      "ID": 638,
      "about": 639,
      "Mz": 640,
      "ice": 641,
      "BB": 642,
      "post": 643,
      "lish": 644,
      "ategory": 645,
      "fil": 646,
      "ations": 647,
      "edit": 648,
      "iness": 649,
      "Ex": 650,
      "min": 651,
      "LD": 652,
      "own": 653,
      "66": 654,
      "index": 655,
      "usiness": 656,
      "Pro": 657,
      "des": 658,
      "inc": 659,
      "A1": 660,
      "nC": 661,
      "space": 662,
      "px": 663,
      "enc": 664,
      "static": 665,
      "B4": 666,
      "ext": 667,
      "acy": 668,
      "94": 669,
      "new": 670,
      "get": 671,
      "ction": 672,
      "fo": 673,
      "nb": 674,
      "BA": 675,
      "bug": 676,
      "cd": 677,
      "35": 678,
      "R0": 679,
      "wid": 680,
      "base": 681,
      "logo": 682,
      "col": 683,
      "this": 684,
      "Fr": 685,
      "da": 686,
      "fandom": 687,
      "40": 688,
      "services": 689,
      "eu": 690,
      "36": 691,
      "cc": 692,
      "H5": 693,
      "orts": 694,
      "B3": 695,
      "sl": 696,
      "eg": 697,
      "IN": 698,
      "18": 699,
      "30": 700,
      "inter": 701,
      "3A": 702,
      "8A": 703,
      "Un": 704,
      "los": 705,
      "](//": 706,
      "sr": 707,
      "ma": 708,
      "BC": 709,
      "ket": 710,
      "ho": 711,
      "pre": 712,
      "ivacy": 713,
      "elp": 714,
      "B2": 715,
      "book": 716,
      "gi": 717,
      "tim": 718,
      "ki": 719,
      "nn": 720,
      "vo": 721,
      "lG": 722,
      "aw": 723,
      "ri": 724,
      "arch": 725,
      "base64": 726,
      "nM": 727,
      ").\\": 728,
      "CE": 729,
      "ias": 730,
      "icy": 731,
      "anguage": 732,
      "bu": 733,
      "44": 734,
      "sup": 735,
      "commons": 736,
      "ach": 737,
      "trans": 738,
      "ons": 739,
      "med": 740,
      "press": 741,
      "50": 742,
      "US": 743,
      "ual": 744,
      "A8": 745,
      "ok": 746,
      "Fix": 747,
      "OT": 748,
      "sec": 749,
      "bm": 750,
      "Main_P": 751,
      "img": 752,
      "app": 753,
      "anc": 754,
      "nA": 755,
      "tit": 756,
      "E3": 757,
      "vel": 758,
      "Main_Page": 759,
      "hu": 760,
      "use": 761,
      "part": 762,
      "del": 763,
      "cam": 764,
      "77": 765,
      "li": 766,
      "46": 767,
      "ates": 768,
      "Mj": 769,
      "wik": 770,
      "ty": 771,
      "Ev": 772,
      "NS": 773,
      "8C": 774,
      "ale": 775,
      "mp": 776,
      "vis": 777,
      "vide": 778,
      "OS": 779,
      "tionary": 780,
      "A9": 781,
      "AAE": 782,
      "ert": 783,
      "_0x": 784,
      "erson": 785,
      "doc": 786,
      "Wor": 787,
      "ich": 788,
      "go": 789,
      "more": 790,
      "/?": 791,
      "ann": 792,
      "55": 793,
      "Pl": 794,
      "AR": 795,
      "ave": 796,
      "37": 797,
      "ey": 798,
      "Pol": 799,
      "MD": 800,
      "Po": 801,
      "ER": 802,
      "ame": 803,
      "dit": 804,
      "ium": 805,
      "s_": 806,
      "Wh": 807,
      "LT": 808,
      "Harry": 809,
      "earch": 810,
      "bl": 811,
      "ista": 812,
      "thumb": 813,
      "reat": 814,
      "ware": 815,
      "Eu": 816,
      "ES": 817,
      "29": 818,
      "ood": 819,
      "2023": 820,
      "action": 821,
      "ash": 822,
      "alth": 823,
      "view": 824,
      "Wikipedia": 825,
      "07": 826,
      "ings": 827,
      "edu": 828,
      "por": 829,
      "AAAAAAAAAAAAAAAAAAAAAAAAAAAAAAAAAAAAAAAAAAAAAAAAAAAAAAAAAAAAAAAAAAAAAAAAAAAAAAAAAAAAAAAAAAAAAAAAAAAAAAAAAAAAAAAAAAAAAAAAAAAAAAAA": 830,
      "empl": 831,
      "title": 832,
      "1e": 833,
      "En": 834,
      "BAE": 835,
      "ODlh": 836,
      "ico": 837,
      "home": 838,
      "R0lG": 839,
      "R0lGODlh": 840,
      "row": 841,
      "nm": 842,
      "ALAAAAAA": 843,
      "H5BAE": 844,
      "vers": 845,
      "e_": 846,
      "nL": 847,
      "ong": 848,
      "01": 849,
      "nB": 850,
      "iss": 851,
      "AQAB": 852,
      "BAAE": 853,
      "estad": 854,
      "hl": 855,
      "Fixed": 856,
      "R0lGODlhAQAB": 857,
      "MS": 858,
      "ces": 859,
      "ra": 860,
      "ele": 861,
      "mail": 862,
      "ALAAAAAABAAE": 863,
      "my": 864,
      "gen": 865,
      "assets": 866,
      "ional": 867,
      "cess": 868,
      "Qu": 869,
      "GH": 870,
      "tos": 871,
      "TH": 872,
      "company": 873,
      "47": 874,
      "ific": 875,
      "ai": 876,
      "BR": 877,
      "02": 878,
      "43": 879,
      "sid": 880,
      "its": 881,
      "nD": 882,
      "ny": 883,
      "Con": 884,
      "workspace": 885,
      "89": 886,
      "cu": 887,
      "loc": 888,
      "ber": 889,
      "57": 890,
      "play": 891,
      "cur": 892,
      "mer": 893,
      "ana": 894,
      "///": 895,
      "nr": 896,
      "B6": 897,
      "We": 898,
      "formation": 899,
      "Cl": 900,
      "Us": 901,
      "It": 902,
      "site": 903,
      "ral": 904,
      "crip": 905,
      "As": 906,
      ")](/": 907,
      "06": 908,
      "igh": 909,
      "df": 910,
      "ios": 911,
      "\\\\\\\\": 912,
      "eng": 913,
      "M2": 914,
      "Gr": 915,
      "count": 916,
      "wp": 917,
      "Zm": 918,
      "ick": 919,
      "print": 920,
      "business": 921,
      "3D": 922,
      "BF": 923,
      "\\\\)\")\\": 924,
      "ath": 925,
      "ides": 926,
      "how": 927,
      "products": 928,
      "R0lGODlhAQABAI": 929,
      "ote": 930,
      "AAAI": 931,
      "100": 932,
      "05": 933,
      "ef": 934,
      "ery": 935,
      "LW": 936,
      "sub": 937,
      "att": 938,
      "UW": 939,
      "El": 940,
      "yst": 941,
      "ep": 942,
      "ada": 943,
      "nF": 944,
      "old": 945,
      "lab": 946,
      "Nz": 947,
      "tv": 948,
      "ALAAAAAABAAEAAAI": 949,
      "Port": 950,
      "Mar": 951,
      "He": 952,
      "91": 953,
      "show": 954,
      "du": 955,
      "92": 956,
      "day": 957,
      "article": 958,
      "sports": 959,
      "ous": 960,
      "support": 961,
      "line": 962,
      "nT": 963,
      "cb": 964,
      "atur": 965,
      "ise": 966,
      "als": 967,
      "oftware": 968,
      ":%": 969,
      "Ap": 970,
      "dates": 971,
      "Br": 972,
      "gov": 973,
      "finance": 974,
      "princ": 975,
      "--------": 976,
      "tow": 977,
      "98": 978,
      "Im": 979,
      "ning": 980,
      "vl": 981,
      "ience": 982,
      "ipal": 983,
      "tur": 984,
      "red": 985,
      "qd": 986,
      "sign": 987,
      "AS": 988,
      "Language": 989,
      "ja": 990,
      "42": 991,
      "pos": 992,
      "glo": 993,
      "AK": 994,
      "ado": 995,
      "fun": 996,
      "topic": 997,
      "di": 998,
      "witter": 999,
      "person": 1000,
      "ds": 1001,
      "IT": 1002,
      "B7": 1003,
      "reg": 1004,
      "bmj": 1005,
      "ital": 1006,
      "3Z": 1007,
      "8B": 1008,
      "ys": 1009,
      "tech": 1010,
      "Mi": 1011,
      "41": 1012,
      "ME": 1013,
      "8F": 1014,
      "AAAAALAAAAAABAAEAAAI": 1015,
      "H5BAEAAAAALAAAAAABAAEAAAI": 1016,
      "Bu": 1017,
      "category": 1018,
      "nN": 1019,
      "56": 1020,
      "IS": 1021,
      "76": 1022,
      "Au": 1023,
      "estadao": 1024,
      "ple": 1025,
      "velop": 1026,
      "ames": 1027,
      "ards": 1028,
      "**\\": 1029,
      "was": 1030,
      "rel": 1031,
      "men": 1032,
      "A0": 1033,
      "ical": 1034,
      "esk": 1035,
      "auto": 1036,
      "DB": 1037,
      "lif": 1038,
      "Ab": 1039,
      "dail": 1040,
      "sol": 1041,
      "gC": 1042,
      "PR": 1043,
      "nh": 1044,
      "updates": 1045,
      "E2": 1046,
      "Y2": 1047,
      "bal": 1048,
      "OF": 1049,
      "08": 1050,
      "\\\\[": 1051,
      "\\\\]": 1052,
      "wiktionary": 1053,
      "09": 1054,
      "develop": 1055,
      "now": 1056,
      "UR": 1057,
      "You": 1058,
      "thub": 1059,
      "np": 1060,
      "gh": 1061,
      "ence": 1062,
      "pres": 1063,
      "vista": 1064,
      "kt": 1065,
      "MC": 1066,
      "Op": 1067,
      "ebook": 1068,
      "Res": 1069,
      "ustom": 1070,
      "aj": 1071,
      "off": 1072,
      "github": 1073,
      "ins": 1074,
      "nl": 1075,
      "may": 1076,
      "Gu": 1077,
      "\":": 1078,
      "ake": 1079,
      "ivers": 1080,
      "linked": 1081,
      "medium": 1082,
      "MyLanguage": 1083,
      "ites": 1084,
      "Wikimedia": 1085,
      "icon": 1086,
      "B9": 1087,
      "irect": 1088,
      "ek": 1089,
      "CO": 1090,
      "cop": 1091,
      "ru": 1092,
      "dc": 1093,
      "</": 1094,
      "Ser": 1095,
      "n_": 1096,
      "yr": 1097,
      "De": 1098,
      "32": 1099,
      "Li": 1100,
      "public": 1101,
      "omain": 1102,
      "mod": 1103,
      "9F": 1104,
      "nf": 1105,
      "Yz": 1106,
      "amer": 1107,
      "IM": 1108,
      "war": 1109,
      "####": 1110,
      "ility": 1111,
      "search": 1112,
      "Ny": 1113,
      "cent": 1114,
      "munity": 1115,
      "saf": 1116,
      "ta": 1117,
      "nal": 1118,
      "other": 1119,
      "75": 1120,
      "ea": 1121,
      "Wik": 1122,
      "Aw": 1123,
      "para": 1124,
      "ategor": 1125,
      "lat": 1126,
      "user": 1127,
      "nE": 1128,
      "ese": 1129,
      "vistaprint": 1130,
      "Sc": 1131,
      "icros": 1132,
      "ier": 1133,
      "room": 1134,
      "Up": 1135,
      "land": 1136,
      "towing": 1137,
      "ank": 1138,
      "icrosoft": 1139,
      "ement": 1140,
      "help": 1141,
      "cf": 1142,
      "A3": 1143,
      "News": 1144,
      "ha": 1145,
      "inv": 1146,
      "Dis": 1147,
      "---": 1148,
      "front": 1149,
      "ya": 1150,
      "Cont": 1151,
      "yle": 1152,
      "D7": 1153,
      "nH": 1154,
      "free": 1155,
      "asa": 1156,
      "books": 1157,
      "28": 1158,
      "information": 1159,
      "Yy": 1160,
      "sk": 1161,
      "[![](": 1162,
      "quote": 1163,
      "2C": 1164,
      "ety": 1165,
      "Le": 1166,
      "34": 1167,
      "privacy": 1168,
      "huff": 1169,
      "Vi": 1170,
      "UU": 1171,
      "PS": 1172,
      "ll": 1173,
      "A2": 1174,
      "health": 1175,
      "transl": 1176,
      "ED": 1177,
      "65": 1178,
      "For": 1179,
      "AAAAAAAP": 1180,
      "AA7": 1181,
      "aa": 1182,
      "Qz": 1183,
      "atch": 1184,
      "acebook": 1185,
      "yH5BAEAAAAALAAAAAABAAEAAAI": 1186,
      "BRAA7": 1187,
      "R0lGODlhAQABAIAAAAAAAP": 1188,
      "yH5BAEAAAAALAAAAAABAAEAAAIBRAA7": 1189,
      "googleblog": 1190,
      "Ni": 1191,
      "TV": 1192,
      "files": 1193,
      "ibut": 1194,
      "issu": 1195,
      "Co": 1196,
      "ator": 1197,
      "Page": 1198,
      "aut": 1199,
      "sm": 1200,
      "widget": 1201,
      "nR": 1202,
      "Cr": 1203,
      "ink": 1204,
      "jo": 1205,
      "ON": 1206,
      "Or": 1207,
      "kY": 1208,
      "paign": 1209,
      "D5": 1210,
      "soc": 1211,
      "Bo": 1212,
      "incl": 1213,
      "principal": 1214,
      "ats": 1215,
      "Ut": 1216,
      "video": 1217,
      "48": 1218,
      "list": 1219,
      "hy": 1220,
      "ICAg": 1221,
      ".](": 1222,
      "will": 1223,
      "of_": 1224,
      "oundation": 1225,
      "ense": 1226,
      "rop": 1227,
      "ject": 1228,
      "zz": 1229,
      "sa": 1230,
      "miss": 1231,
      "workspaceupdates": 1232,
      "Eng": 1233,
      "src": 1234,
      "inst": 1235,
      "c3": 1236,
      "ba": 1237,
      "Dr": 1238,
      "label": 1239,
      "gram": 1240,
      "width": 1241,
      "stud": 1242,
      "Category": 1243,
      "TM": 1244,
      "kw": 1245,
      "fut": 1246,
      "Esp": 1247,
      "ner": 1248,
      "agr": 1249,
      "translated": 1250,
      "have": 1251,
      "auth": 1252,
      "\\\\]\")\\": 1253,
      "_m": 1254,
      "nG": 1255,
      "logy": 1256,
      "_of_": 1257,
      "ments": 1258,
      "ied": 1259,
      "ls": 1260,
      "campaign": 1261,
      "ident": 1262,
      "wikisource": 1263,
      "=\"": 1264,
      "time": 1265,
      "back": 1266,
      "Nm": 1267,
      "Jo": 1268,
      "UT": 1269,
      "Ph": 1270,
      "60": 1271,
      "ild": 1272,
      "New": 1273,
      "ownload": 1274,
      "NC": 1275,
      "wr": 1276,
      "issues": 1277,
      "../": 1278,
      "when": 1279,
      "8b": 1280,
      "chang": 1281,
      "FC": 1282,
      "has": 1283,
      "000": 1284,
      "EC": 1285,
      "63": 1286,
      "publish": 1287,
      "ources": 1288,
      "ify": 1289,
      "AO": 1290,
      "PH": 1291,
      "potter": 1292,
      "urity": 1293,
      "AM": 1294,
      "car": 1295,
      "53": 1296,
      "ener": 1297,
      "ument": 1298,
      "Inter": 1299,
      "file": 1300,
      "DC": 1301,
      "67": 1302,
      "mi": 1303,
      "ike": 1304,
      "Ter": 1305,
      "nW": 1306,
      "AN": 1307,
      "email": 1308,
      "shop": 1309,
      "x15vl": 1310,
      "harry": 1311,
      "bb": 1312,
      "1eqd": 1313,
      "scr": 1314,
      "On": 1315,
      "1eqd1eqd": 1316,
      "Am": 1317,
      "his": 1318,
      "ka": 1319,
      "leg": 1320,
      "resiz": 1321,
      "Col": 1322,
      "Mu": 1323,
      "Ac": 1324,
      "OC": 1325,
      "Be": 1326,
      "ss": 1327,
      "md": 1328,
      "pages": 1329,
      "fd": 1330,
      "uploads": 1331,
      "cal": 1332,
      "world": 1333,
      "onom": 1334,
      "ater": 1335,
      "huffpost": 1336,
      "All": 1337,
      "UWf": 1338,
      "market": 1339,
      "personal": 1340,
      "ni": 1341,
      "ollow": 1342,
      "gl": 1343,
      "E5": 1344,
      "Privacy": 1345,
      "ke": 1346,
      "harrypotter": 1347,
      "73": 1348,
      "policy": 1349,
      "Se": 1350,
      "x3": 1351,
      "Man": 1352,
      "emplate": 1353,
      "Policy": 1354,
      "shar": 1355,
      "read": 1356,
      "IG": 1357,
      "lear": 1358,
      ":\")": 1359,
      "ICAgICAg": 1360,
      "utm_source": 1361,
      "ally": 1362,
      "Ii": 1363,
      "x15vlUWf": 1364,
      "cript": 1365,
      "Me": 1366,
      "AEB": 1367,
      "arc": 1368,
      "ights": 1369,
      "ient": 1370,
      "foo": 1371,
      "word": 1372,
      "ational": 1373,
      "coun": 1374,
      "ari": 1375,
      "La": 1376,
      "Bl": 1377,
      "ime": 1378,
      "slides": 1379,
      "don": 1380,
      "je": 1381,
      "eck": 1382,
      "ctions": 1383,
      "code": 1384,
      "NU": 1385,
      "Ty": 1386,
      "marca": 1387,
      "Ig": 1388,
      "SS": 1389,
      "wx": 1390,
      "entral": 1391,
      "==": 1392,
      "This": 1393,
      "cy": 1394,
      "0b": 1395,
      "Work": 1396,
      "after": 1397,
      "esp": 1398,
      "account": 1399,
      "Jy": 1400,
      "colle": 1401,
      "ky": 1402,
      "**[": 1403,
      "Od": 1404,
      "An": 1405,
      "ax": 1406,
      "=%": 1407,
      "best": 1408,
      "Log": 1409,
      "url": 1410,
      "Fe": 1411,
      "tions": 1412,
      "49": 1413,
      "feed": 1414,
      "obile": 1415,
      "nto": 1416,
      "_S": 1417,
      "custom": 1418,
      "access": 1419,
      "Id": 1420,
      "AT": 1421,
      "Az": 1422,
      "Ax": 1423,
      "ful": 1424,
      "cnn": 1425,
      "igital": 1426,
      "FF": 1427,
      "sites": 1428,
      "9D": 1429,
      "utm_medium": 1430,
      "NG": 1431,
      "tw": 1432,
      "c5": 1433,
      "gin": 1434,
      "led": 1435,
      "Ju": 1436,
      "ama": 1437,
      "_c": 1438,
      "nO": 1439,
      "prov": 1440,
      "nu": 1441,
      "prom": 1442,
      "indow": 1443,
      "fault": 1444,
      "c4": 1445,
      "ister": 1446,
      "gy": 1447,
      "=/": 1448,
      "fi": 1449,
      "linkedin": 1450,
      "w3": 1451,
      "istr": 1452,
      "JD": 1453,
      "ities": 1454,
      "domain": 1455,
      "ck": 1456,
      "Media": 1457,
      "1s": 1458,
      "cloudfront": 1459,
      "ton": 1460,
      "ays": 1461,
      "39": 1462,
      "dd": 1463,
      "ura": 1464,
      "/#": 1465,
      "requ": 1466,
      "Bq": 1467,
      "exper": 1468,
      "rem": 1469,
      "kr": 1470,
      "Ha": 1471,
      "ata": 1472,
      "4b": 1473,
      "ests": 1474,
      "pf": 1475,
      "[#": 1476,
      "EU": 1477,
      "Rw": 1478,
      "imag": 1479,
      "ley": 1480,
      "AAAAAAAAAAAAAAAAAAAAAAAAAAAAAAAAAAAAAAAAAAAAAAAAAAAAAAAAAAAAAAAAAAAAAAAAAAAAAAAAAAAAAAAAAAAAAAAAAAAAAAAAAAAAAAAAAAAAAAAAAAAAAAAAAAAAAAAAAAAAAAAAAAAAAAAAAAAAAAAAAAAAAAAAAAAAAAAAAAAAAAAAAAAAAAAAAAAAAAAAAAAAAAAAAAAAAAAAAAAAAAAAAAAAAAAAAAAAAAAAAAAAAAAAAAAAAAAA": 1481,
      "dia": 1482,
      "ger": 1483,
      "ower": 1484,
      "spec": 1485,
      "3C": 1486,
      "Iu": 1487,
      "gg": 1488,
      "74": 1489,
      "tag": 1490,
      "ookie": 1491,
      "eta": 1492,
      "PL": 1493,
      "their": 1494,
      "cdn": 1495,
      "cre": 1496,
      "uss": 1497,
      "AG": 1498,
      "II": 1499,
      "62": 1500,
      "twitter": 1501,
      "hi": 1502,
      "mu": 1503,
      "AY": 1504,
      "D3": 1505,
      "Evt": 1506,
      "microsoft": 1507,
      "bol": 1508,
      "Help": 1509,
      "acade": 1510,
      "stEvt": 1511,
      "utm_campaign": 1512,
      "info": 1513,
      "organ": 1514,
      "Uu": 1515,
      "und": 1516,
      "under": 1517,
      "ae": 1518,
      "Is": 1519,
      "CR": 1520,
      "isa": 1521,
      "o_": 1522,
      "Bs": 1523,
      "enter": 1524,
      "ature": 1525,
      "rf": 1526,
      "S1": 1527,
      "KK": 1528,
      "At": 1529,
      "idad": 1530,
      "),": 1531,
      "54": 1532,
      "Yu": 1533,
      "nam": 1534,
      "To": 1535,
      "atures": 1536,
      "Fl": 1537,
      "ely": 1538,
      "roid": 1539,
      "obj": 1540,
      "31": 1541,
      "zd": 1542,
      "8f": 1543,
      "If": 1544,
      "9E": 1545,
      "Pag": 1546,
      "gE": 1547,
      "terms": 1548,
      "year": 1549,
      "ump": 1550,
      "ams": 1551,
      "Ay": 1552,
      "Ro": 1553,
      "_p": 1554,
      "v2": 1555,
      "C5": 1556,
      "LE": 1557,
      "IP": 1558,
      "newsroom": 1559,
      "ref": 1560,
      "them": 1561,
      "plesk": 1562,
      "online": 1563,
      "riere": 1564,
      "academ": 1565,
      "70": 1566,
      "val": 1567,
      "includ": 1568,
      "Ge": 1569,
      "ris": 1570,
      ").": 1571,
      "vert": 1572,
      "Terms": 1573,
      "DE": 1574,
      "azon": 1575,
      "vice": 1576,
      "Gl": 1577,
      "pho": 1578,
      "research": 1579,
      "And": 1580,
      "nV": 1581,
      "open": 1582,
      "nw": 1583,
      "put": 1584,
      "c2": 1585,
      "nIn": 1586,
      "59": 1587,
      "onic": 1588,
      "sy": 1589,
      "sch": 1590,
      "hr": 1591,
      "plic": 1592,
      "ku": 1593,
      "3d": 1594,
      "ily": 1595,
      "52": 1596,
      "c1": 1597,
      "ping": 1598,
      "gI": 1599,
      "ube": 1600,
      "articles": 1601,
      "stor": 1602,
      "bd": 1603,
      "_l": 1604,
      "9A": 1605,
      "c6": 1606,
      "iones": 1607,
      "software": 1608,
      "RE": 1609,
      "Mo": 1610,
      "9C": 1611,
      "ould": 1612,
      "2022": 1613,
      "pb": 1614,
      "emplates": 1615,
      "mem": 1616,
      "america": 1617,
      "ror": 1618,
      "F0": 1619,
      "ever": 1620,
      "ci": 1621,
      "care": 1622,
      "hare": 1623,
      "ales": 1624,
      "product": 1625,
      "econom": 1626,
      "tribut": 1627,
      "CC": 1628,
      "ects": 1629,
      "ung": 1630,
      "aJ": 1631,
      "Pg": 1632,
      "place": 1633,
      "ars": 1634,
      "_r": 1635,
      "let": 1636,
      "ua": 1637,
      "C9": 1638,
      "cs": 1639,
      "72": 1640,
      "CF": 1641,
      "_0": 1642,
      "latest": 1643,
      "1713": 1644,
      "EA": 1645,
      "corriere": 1646,
      "bf": 1647,
      "nav": 1648,
      "docs": 1649,
      "Template": 1650,
      "utions": 1651,
      "ST": 1652,
      "English": 1653,
      "indows": 1654,
      "38": 1655,
      "tra": 1656,
      "\"),": 1657,
      "zh": 1658,
      "qual": 1659,
      "mundo": 1660,
      "bas": 1661,
      "n__": 1662,
      "ough": 1663,
      "By": 1664,
      "RR": 1665,
      "nv": 1666,
      "apps": 1667,
      "ices": 1668,
      "PD": 1669,
      "4y": 1670,
      "ople": 1671,
      "chas": 1672,
      "Es": 1673,
      "cer": 1674,
      "ario": 1675,
      "c0": 1676,
      "gb": 1677,
      "No": 1678,
      "nthe": 1679,
      "Em": 1680,
      "extens": 1681,
      "ited": 1682,
      "refer": 1683,
      "How": 1684,
      "LL": 1685,
      "retur": 1686,
      "express": 1687,
      "AU": 1688,
      "w0": 1689,
      "CT": 1690,
      "ino": 1691,
      "Rec": 1692,
      "hp": 1693,
      "hub": 1694,
      "2020": 1695,
      "_f": 1696,
      "una": 1697,
      "ible": 1698,
      "4x": 1699,
      "default": 1700,
      "3E": 1701,
      "TW": 1702,
      "polit": 1703,
      "Lo": 1704,
      "Mx": 1705,
      "About": 1706,
      "51": 1707,
      "Web": 1708,
      "earn": 1709,
      "vision": 1710,
      "ft": 1711,
      "ization": 1712,
      "Potter": 1713,
      "_1": 1714,
      "LS": 1715,
      "78": 1716,
      "fir": 1717,
      "Sup": 1718,
      "Iz": 1719,
      "tool": 1720,
      "publishing": 1721,
      "globo": 1722,
      "wy": 1723,
      "sur": 1724,
      "Dev": 1725,
      "tb": 1726,
      "ZW": 1727,
      "creat": 1728,
      "e9": 1729,
      "job": 1730,
      "zy": 1731,
      "enes": 1732,
      "cons": 1733,
      "YX": 1734,
      "bugs": 1735,
      "pi": 1736,
      "ative": 1737,
      "NF": 1738,
      "era": 1739,
      "exico": 1740,
      "using": 1741,
      "agement": 1742,
      "5d": 1743,
      "educ": 1744,
      "71": 1745,
      "rt": 1746,
      "THE": 1747,
      "Home": 1748,
      "414": 1749,
      "Te": 1750,
      "ream": 1751,
      "nThe": 1752,
      "start": 1753,
      "Ij": 1754,
      "ux": 1755,
      "79": 1756,
      "_C": 1757,
      "ga": 1758,
      "yright": 1759,
      "gs": 1760,
      "tor": 1761,
      "c9": 1762,
      "nj": 1763,
      "who": 1764,
      "()": 1765,
      "aining": 1766,
      "ystar": 1767,
      "brand": 1768,
      "VR": 1769,
      "reen": 1770,
      "website": 1771,
      "avel": 1772,
      "resp": 1773,
      "uv": 1774,
      "Use": 1775,
      "slideshare": 1776,
      "resizer": 1777,
      "4z": 1778,
      "ond": 1779,
      "IH": 1780,
      "69": 1781,
      "dailystar": 1782,
      "Business": 1783,
      "FR": 1784,
      "4d": 1785,
      "fs": 1786,
      "ble": 1787,
      "2x": 1788,
      "ko": 1789,
      "Pe": 1790,
      "host": 1791,
      "0000": 1792,
      "nology": 1793,
      "Et": 1794,
      "Wikidata": 1795,
      "amp": 1796,
      "ular": 1797,
      "mas": 1798,
      "IL": 1799,
      "ney": 1800,
      "So": 1801,
      "vent": 1802,
      "xml": 1803,
      "els": 1804,
      "UK": 1805,
      "PM": 1806,
      "Sec": 1807,
      "community": 1808,
      "inews": 1809,
      "Ho": 1810,
      "YW": 1811,
      "Ma": 1812,
      "EQ": 1813,
      "las": 1814,
      "Commons": 1815,
      "2021": 1816,
      "nand": 1817,
      "Go": 1818,
      "va": 1819,
      "\\\\-": 1820,
      "8d": 1821,
      "Hl": 1822,
      "EB": 1823,
      "ives": 1824,
      "bre": 1825,
      "estyle": 1826,
      "which": 1827,
      "ool": 1828,
      "DD": 1829,
      "v1": 1830,
      "arcpublishing": 1831,
      "61": 1832,
      "OV": 1833,
      "ador": 1834,
      "PT": 1835,
      "Ur": 1836,
      "ento": 1837,
      "foundation": 1838,
      "NN": 1839,
      "wikiquote": 1840,
      "Su": 1841,
      "DA": 1842,
      "CL": 1843,
      "nJ": 1844,
      "sw": 1845,
      "za": 1846,
      "Sl": 1847,
      "0d": 1848,
      "UV": 1849,
      "document": 1850,
      "bar": 1851,
      "hol": 1852,
      "academia": 1853,
      "tu": 1854,
      "2d": 1855,
      "Sy": 1856,
      "oup": 1857,
      "mit": 1858,
      "GB": 1859,
      "Sk": 1860,
      "they": 1861,
      "ven": 1862,
      "QR": 1863,
      "follow": 1864,
      "vices": 1865,
      "ize": 1866,
      "Sw": 1867,
      "daily": 1868,
      "Your": 1869,
      "ystem": 1870,
      "Edit": 1871,
      "Apr": 1872,
      "f1": 1873,
      "Acc": 1874,
      "BM": 1875,
      "lang": 1876,
      "istory": 1877,
      "g1": 1878,
      "8a": 1879,
      "Ir": 1880,
      "nK": 1881,
      "guide": 1882,
      "[![](//": 1883,
      "Fil": 1884,
      "wikibooks": 1885,
      "b3": 1886,
      "ustr": 1887,
      "qq": 1888,
      "what": 1889,
      "XX": 1890,
      "ZG": 1891,
      "notic": 1892,
      "Iw": 1893,
      "OW": 1894,
      "neu": 1895,
      ")![": 1896,
      "f7": 1897,
      "chaski": 1898,
      "/)[": 1899,
      "sos": 1900,
      "det": 1901,
      "OG": 1902,
      "_H": 1903,
      "SD": 1904,
      "NkY": 1905,
      "soft": 1906,
      "Des": 1907,
      "zo": 1908,
      "ainment": 1909,
      "E6": 1910,
      "security": 1911,
      "dem": 1912,
      "Ms": 1913,
      "_and": 1914,
      "bi": 1915,
      "topics": 1916,
      "stand": 1917,
      "imagenes": 1918,
      "JJ": 1919,
      "Blog": 1920,
      "TT": 1921,
      "Ey": 1922,
      "type": 1923,
      "class": 1924,
      "ding": 1925,
      "ists": 1926,
      "Ed": 1927,
      "pu": 1928,
      "ncontent": 1929,
      "wa": 1930,
      "3F": 1931,
      "life": 1932,
      "ii": 1933,
      "son": 1934,
      "KG": 1935,
      "but": 1936,
      "ather": 1937,
      "vir": 1938,
      "resources": 1939,
      "mark": 1940,
      "nfl": 1941,
      "cz": 1942,
      "features": 1943,
      "Per": 1944,
      "Est": 1945,
      "ating": 1946,
      "ncentral": 1947,
      "---|": 1948,
      "ez": 1949,
      "grap": 1950,
      "ju": 1951,
      "nasa": 1952,
      "lect": 1953,
      "Categor": 1954,
      "PG": 1955,
      "mov": 1956,
      "D2": 1957,
      "VE": 1958,
      "prisa": 1959,
      "elmundo": 1960,
      "ling": 1961,
      "58": 1962,
      "_M": 1963,
      "Ix": 1964,
      "omas": 1965,
      "n1": 1966,
      "mg": 1967,
      "facebook": 1968,
      "edic": 1969,
      "nk": 1970,
      "service": 1971,
      "thr": 1972,
      "Do": 1973,
      "VB": 1974,
      "den": 1975,
      "ados": 1976,
      "voy": 1977,
      "national": 1978,
      "lease": 1979,
      "Art": 1980,
      "agram": 1981,
      "nac": 1982,
      "Sign": 1983,
      "cm": 1984,
      "Uh": 1985,
      "ark": 1986,
      "store": 1987,
      "Lic": 1988,
      "OM": 1989,
      "fig": 1990,
      "pg": 1991,
      "68": 1992,
      "menu": 1993,
      "non": 1994,
      "event": 1995,
      "box": 1996,
      "a1": 1997,
      "format": 1998,
      "ency": 1999
    },
    "merges": [
      "x 0",
      "x 1",
      "A A",
      "i n",
      "] (",
      "e r",
      "e s",
      "o r",
      "o n",
      "a n",
      ") \\",
      "t t",
      "e n",
      "o m",
      "/ /",
      "p s",
      "a r",
      "a t",
      "h tt",
      ": //",
      "htt ps",
      "AA AA",
      "x0 0",
      "e d",
      "i k",
      "a l",
      "c om",
      "w w",
      "t h",
      "ik i",
      "i c",
      "i s",
      "\\ \\",
      "w iki",
      "a s",
      "i t",
      "o u",
      "l e",
      "r e",
      "i on",
      "d e",
      "in g",
      "a g",
      "]( /",
      "t o",
      "s t",
      "a c",
      "i a",
      "\\ '",
      "e l",
      "en t",
      "AAAA AAAA",
      "x1 0",
      "x1 8",
      "r o",
      "x0 1",
      "an d",
      "x0 8",
      "l o",
      "x0 4",
      "x0 2",
      "ww w",
      "2 0",
      "i l",
      "x1 4",
      "x0 6",
      "x1 1",
      "x0 3",
      "x1 5",
      "x1 9",
      "x0 5",
      "a d",
      "7 f",
      "- \\",
      "x1 6",
      "x1 2",
      "e t",
      "x1 a",
      "x1 3",
      "x1 b",
      "i m",
      "x0 e",
      "x0 7",
      "x 7f",
      "e c",
      "x1 7",
      "o o",
      "th e",
      "a m",
      "u s",
      "x0 f",
      "i d",
      "o l",
      "\" )\\",
      "o f",
      "/ )\\",
      "or g",
      "c h",
      "ed ia",
      "D 0",
      "i g",
      "u n",
      "er s",
      "u r",
      "i v",
      "ag e",
      "# #",
      "p r",
      "E 0",
      "c e",
      "e w",
      "t s",
      "at ion",
      "a b",
      "t r",
      ". \\",
      "f or",
      "e m",
      "AAAAAAAA AAAAAAAA",
      "ou r",
      "o s",
      "! [",
      "u t",
      "a p",
      "c on",
      "es t",
      "2 4",
      "a y",
      "p l",
      "u m",
      "0 0",
      "es s",
      "o p",
      "p edia",
      "* *",
      "i f",
      "o w",
      "u p",
      "\" )",
      "o t",
      "h e",
      "- -",
      "h t",
      "at e",
      "u l",
      "t er",
      "q u",
      "u b",
      "s e",
      "s p",
      "a in",
      "a v",
      "p ro",
      "i r",
      "t ion",
      "wiki pedia",
      "D 1",
      "i al",
      "or t",
      "A E",
      "lo g",
      "e x",
      "ar t",
      "n g",
      "f r",
      "W iki",
      "o v",
      "w i",
      "b r",
      "ar e",
      "u c",
      "8 0",
      "i p",
      "20 24",
      "D 8",
      "p h",
      "o c",
      "it y",
      "e b",
      "s h",
      "I n",
      "ew s",
      "m l",
      "c l",
      "i es",
      "g le",
      "is t",
      "an g",
      "p a",
      "b e",
      "oo gle",
      "AAAAAAAAAAAAAAAA AAAAAAAAAAAAAAAA",
      "2 F",
      ", \\",
      "ag es",
      "al l",
      "a il",
      "ou t",
      "l a",
      "0 4",
      "i z",
      "m edia",
      "d at",
      "c o",
      "D 9",
      "2 2",
      "n d",
      "@ \\",
      "B 0",
      "e v",
      "8 1",
      "s v",
      "ht ml",
      "A I",
      "w or",
      "c r",
      "u d",
      "en d",
      "] \\",
      "a f",
      "a h",
      "v i",
      "con t",
      "ar d",
      "l in",
      "* \\",
      "/ %",
      "\" \\",
      "( \\",
      "j p",
      "` \\",
      "[ \\",
      "m ent",
      "r es",
      "p o",
      "wi th",
      "2 3",
      ": \\",
      "oo k",
      "s er",
      "S p",
      "o b",
      "g r",
      "i b",
      "0 x",
      "! \\",
      "a k",
      "i o",
      "u g",
      "A 4",
      "sv g",
      "1 1",
      "l y",
      "8 3",
      "iv e",
      "# \\",
      "E 1",
      "or e",
      "r y",
      "w h",
      "an s",
      "& \\",
      "\\\\ \\",
      "i e",
      "e ar",
      "p ort",
      "m on",
      "L j",
      "![ ](",
      "n ews",
      "1 7",
      "? \\",
      "% \\",
      "S t",
      "ph p",
      "tt er",
      "; \\",
      "< \\",
      "ig n",
      "C 3",
      "for m",
      "1 9",
      "| \\",
      "o d",
      "as s",
      "or y",
      "an t",
      "+ \\",
      "in d",
      "1 0",
      "v ic",
      "$ \\",
      "p ng",
      "\\' \\",
      "6 4",
      "/ \\",
      "g oogle",
      "8 2",
      "u st",
      "in t",
      "jp g",
      "n et",
      "n e",
      "p er",
      "d o",
      "> \\",
      "dat a",
      "lo ad",
      "A B",
      "1 3",
      "i an",
      "a u",
      "C h",
      "ec ial",
      "ac e",
      "pa is",
      "= \\",
      "as e",
      "im age",
      "2 5",
      "il l",
      "} \\",
      "\\\\ (",
      "A C",
      "el pais",
      "^ \\",
      "u e",
      "ac k",
      "d uc",
      "im ages",
      "f f",
      "P r",
      "it e",
      "ar y",
      "~ \\",
      "y ou",
      "[ ](",
      "R e",
      "T he",
      "{ \\",
      "n t",
      "y our",
      "u re",
      "1 4",
      "n o",
      "\\\\ )",
      "8 4",
      "i x",
      "m ar",
      "c t",
      "is h",
      "a _",
      "our ce",
      "ate g",
      "m _",
      "1 6",
      "A Q",
      "n s",
      "## #",
      "b y",
      "1 5",
      "A 7",
      "ul t",
      "ec t",
      "p e",
      "A 6",
      "i le",
      "en s",
      "2 7",
      "B E",
      "O D",
      "f e",
      "wor k",
      "ion s",
      "an ce",
      "n c",
      "ac t",
      "om e",
      "_ P",
      "g e",
      "-- --",
      "M ain",
      "n ot",
      "u k",
      "AAAAAAAAAAAAAAAAAAAAAAAAAAAAAAAA AAAAAAAAAAAAAAAAAAAAAAAAAAAAAAAA",
      "on t",
      "o g",
      "m s",
      "of t",
      ") [",
      "an y",
      "Sp ecial",
      "st at",
      "M y",
      "cont ent",
      "w e",
      "b o",
      "9 9",
      "8 6",
      "ah oo",
      "lin k",
      "b 6",
      "wiki media",
      "8 5",
      "A d",
      "com p",
      "i de",
      ") ](",
      "s c",
      "2 6",
      "l d",
      "s ource",
      "ut m_",
      "2 1",
      "y ahoo",
      "_ _",
      "a o",
      "er e",
      "9 6",
      "p ar",
      "t e",
      "g u",
      "8 8",
      "B 8",
      "htt p",
      "B 5",
      "m e",
      "to p",
      "m an",
      "C om",
      "th at",
      "a z",
      "l ic",
      "B D",
      "ou d",
      "i en",
      "l es",
      "c a",
      "s u",
      "A F",
      "c ou",
      "A L",
      "as t",
      "el l",
      "8 7",
      "ser vic",
      "T r",
      "9 0",
      "ic a",
      "c or",
      "T h",
      "AAAA AA",
      "[ ![",
      "ig ht",
      "9 5",
      "n S",
      "et s",
      "i re",
      "A P",
      "ic s",
      "v er",
      "p t",
      "um b",
      "ar ry",
      "4 5",
      "9 3",
      "8 D",
      "b log",
      "1 2",
      "p ol",
      "at ed",
      "B 1",
      "ang u",
      "A r",
      "w eb",
      "ab le",
      "d er",
      "in a",
      "g if",
      "A l",
      "f in",
      "mon s",
      "or s",
      "up load",
      "ro s",
      "v e",
      "A g",
      "qu e",
      "fr om",
      "ec h",
      "on e",
      "art ic",
      "N j",
      "I C",
      "m un",
      "ent s",
      "S h",
      "f l",
      "pro duc",
      "f er",
      "m o",
      "N T",
      "st r",
      "n a",
      "A 5",
      "in de",
      "d r",
      "N D",
      "p ub",
      "s o",
      ". .",
      "n P",
      "[ ](/",
      "d is",
      "ou nd",
      "e e",
      "re e",
      "0 3",
      "A D",
      "th er",
      "G oogle",
      "a de",
      "k s",
      "O R",
      "in e",
      "ov er",
      "l h",
      "C 4",
      "h er",
      "and om",
      "9 7",
      "p age",
      "c an",
      "cl oud",
      "3 3",
      "f a",
      "M T",
      "/ )",
      "lo w",
      "I D",
      "ab out",
      "M z",
      "ic e",
      "B B",
      "po st",
      "l ish",
      "ateg ory",
      "f il",
      "ation s",
      "ed it",
      "in ess",
      "E x",
      "m in",
      "L D",
      "ow n",
      "6 6",
      "inde x",
      "us iness",
      "P ro",
      "d es",
      "in c",
      "A 1",
      "n C",
      "sp ace",
      "p x",
      "en c",
      "stat ic",
      "B 4",
      "ex t",
      "ac y",
      "9 4",
      "n ew",
      "g et",
      "c tion",
      "f o",
      "n b",
      "B A",
      "b ug",
      "c d",
      "3 5",
      "R 0",
      "w id",
      "b ase",
      "log o",
      "c ol",
      "th is",
      "F r",
      "d a",
      "f andom",
      "4 0",
      "servic es",
      "e u",
      "3 6",
      "c c",
      "H 5",
      "or ts",
      "B 3",
      "s l",
      "e g",
      "I N",
      "1 8",
      "3 0",
      "in ter",
      "3 A",
      "8 A",
      "U n",
      "lo s",
      "]( //",
      "s r",
      "m a",
      "B C",
      "k et",
      "h o",
      "p re",
      "iv acy",
      "el p",
      "B 2",
      "b ook",
      "g i",
      "t im",
      "k i",
      "n n",
      "v o",
      "l G",
      "a w",
      "r i",
      "ar ch",
      "base 64",
      "n M",
      ") .\\",
      "C E",
      "i as",
      "ic y",
      "angu age",
      "b u",
      "4 4",
      "s up",
      "com mons",
      "ac h",
      "tr ans",
      "on s",
      "m ed",
      "pr ess",
      "5 0",
      "U S",
      "u al",
      "A 8",
      "o k",
      "F ix",
      "O T",
      "s ec",
      "b m",
      "Main _P",
      "im g",
      "ap p",
      "an c",
      "n A",
      "t it",
      "E 3",
      "v el",
      "Main_P age",
      "h u",
      "us e",
      "p art",
      "de l",
      "c am",
      "7 7",
      "l i",
      "4 6",
      "at es",
      "M j",
      "w ik",
      "t y",
      "E v",
      "N S",
      "8 C",
      "al e",
      "m p",
      "v is",
      "vi de",
      "O S",
      "tion ary",
      "A 9",
      "AA E",
      "er t",
      "_ 0x",
      "ers on",
      "d oc",
      "W or",
      "ic h",
      "g o",
      "m ore",
      "/ ?",
      "an n",
      "5 5",
      "P l",
      "A R",
      "av e",
      "3 7",
      "e y",
      "P ol",
      "M D",
      "P o",
      "E R",
      "am e",
      "d it",
      "i um",
      "s _",
      "W h",
      "L T",
      "H arry",
      "ear ch",
      "b l",
      "ist a",
      "th umb",
      "re at",
      "w are",
      "E u",
      "E S",
      "2 9",
      "oo d",
      "20 23",
      "ac tion",
      "as h",
      "al th",
      "vi ew",
      "Wiki pedia",
      "0 7",
      "ing s",
      "ed u",
      "p or",
      "AAAAAAAAAAAAAAAAAAAAAAAAAAAAAAAAAAAAAAAAAAAAAAAAAAAAAAAAAAAAAAAA AAAAAAAAAAAAAAAAAAAAAAAAAAAAAAAAAAAAAAAAAAAAAAAAAAAAAAAAAAAAAAAA",
      "em pl",
      "tit le",
      "1 e",
      "E n",
      "B AE",
      "OD lh",
      "ic o",
      "h ome",
      "R0 lG",
      "R0lG ODlh",
      "ro w",
      "n m",
      "AL AAAAAA",
      "H5 BAE",
      "v ers",
      "e _",
      "n L",
      "on g",
      "0 1",
      "n B",
      "is s",
      "AQ AB",
      "B AAE",
      "est ad",
      "h l",
      "Fix ed",
      "R0lGODlh AQAB",
      "M S",
      "c es",
      "r a",
      "e le",
      "m ail",
      "ALAAAAAA BAAE",
      "m y",
      "g en",
      "ass ets",
      "ion al",
      "c ess",
      "Q u",
      "G H",
      "to s",
      "T H",
      "comp any",
      "4 7",
      "if ic",
      "a i",
      "B R",
      "0 2",
      "4 3",
      "s id",
      "it s",
      "n D",
      "n y",
      "C on",
      "work space",
      "8 9",
      "c u",
      "lo c",
      "b er",
      "5 7",
      "pl ay",
      "c ur",
      "m er",
      "an a",
      "// /",
      "n r",
      "B 6",
      "W e",
      "form ation",
      "C l",
      "U s",
      "I t",
      "s ite",
      "r al",
      "cr ip",
      "A s",
      ") ](/",
      "0 6",
      "ig h",
      "d f",
      "i os",
      "\\\\ \\\\",
      "en g",
      "M 2",
      "G r",
      "cou nt",
      "w p",
      "Z m",
      "ic k",
      "pr int",
      "b usiness",
      "3 D",
      "B F",
      "\\\\) \")\\",
      "at h",
      "id es",
      "h ow",
      "produc ts",
      "R0lGODlhAQAB AI",
      "ot e",
      "AA AI",
      "1 00",
      "0 5",
      "e f",
      "er y",
      "L W",
      "s ub",
      "a tt",
      "U W",
      "E l",
      "y st",
      "e p",
      "ad a",
      "n F",
      "ol d",
      "l ab",
      "N z",
      "t v",
      "ALAAAAAABAAE AAAI",
      "P ort",
      "M ar",
      "H e",
      "9 1",
      "sh ow",
      "d u",
      "9 2",
      "d ay",
      "artic le",
      "sp orts",
      "ou s",
      "sup port",
      "lin e",
      "n T",
      "c b",
      "at ur",
      "is e",
      "al s",
      "oft ware",
      ": %",
      "A p",
      "dat es",
      "B r",
      "g ov",
      "fin ance",
      "pr inc",
      "---- ----",
      "to w",
      "9 8",
      "I m",
      "n ing",
      "v l",
      "ien ce",
      "ip al",
      "t ur",
      "r ed",
      "q d",
      "s ign",
      "A S",
      "L anguage",
      "j a",
      "4 2",
      "p os",
      "g lo",
      "A K",
      "ad o",
      "f un",
      "top ic",
      "d i",
      "wi tter",
      "p erson",
      "d s",
      "I T",
      "B 7",
      "re g",
      "bm j",
      "it al",
      "3 Z",
      "8 B",
      "y s",
      "t ech",
      "M i",
      "4 1",
      "M E",
      "8 F",
      "AAAA ALAAAAAABAAEAAAI",
      "H5BAE AAAAALAAAAAABAAEAAAI",
      "B u",
      "c ategory",
      "n N",
      "5 6",
      "I S",
      "7 6",
      "A u",
      "estad ao",
      "p le",
      "vel op",
      "am es",
      "ard s",
      "** \\",
      "w as",
      "re l",
      "m en",
      "A 0",
      "ic al",
      "es k",
      "au to",
      "D B",
      "l if",
      "A b",
      "d ail",
      "s ol",
      "g C",
      "P R",
      "n h",
      "up dates",
      "E 2",
      "Y 2",
      "b al",
      "O F",
      "0 8",
      "\\\\ [",
      "\\\\ ]",
      "wik tionary",
      "0 9",
      "de velop",
      "n ow",
      "U R",
      "Y ou",
      "th ub",
      "n p",
      "g h",
      "en ce",
      "pr es",
      "v ista",
      "k t",
      "M C",
      "O p",
      "eb ook",
      "R es",
      "ust om",
      "a j",
      "of f",
      "gi thub",
      "in s",
      "n l",
      "m ay",
      "G u",
      "\" :",
      "ak e",
      "iv ers",
      "link ed",
      "med ium",
      "My Language",
      "it es",
      "Wiki media",
      "ic on",
      "B 9",
      "ire ct",
      "e k",
      "C O",
      "c op",
      "r u",
      "d c",
      "< /",
      "S er",
      "n _",
      "y r",
      "D e",
      "3 2",
      "L i",
      "pub lic",
      "om ain",
      "m od",
      "9 F",
      "n f",
      "Y z",
      "am er",
      "I M",
      "w ar",
      "## ##",
      "il ity",
      "se arch",
      "N y",
      "c ent",
      "mun ity",
      "s af",
      "t a",
      "n al",
      "o ther",
      "7 5",
      "e a",
      "W ik",
      "A w",
      "par a",
      "ateg or",
      "l at",
      "us er",
      "n E",
      "es e",
      "vista print",
      "S c",
      "ic ros",
      "i er",
      "ro om",
      "U p",
      "l and",
      "tow ing",
      "an k",
      "icros oft",
      "em ent",
      "h elp",
      "c f",
      "A 3",
      "N ews",
      "h a",
      "in v",
      "D is",
      "-- -",
      "fr ont",
      "y a",
      "C ont",
      "y le",
      "D 7",
      "n H",
      "f ree",
      "as a",
      "book s",
      "2 8",
      "in formation",
      "Y y",
      "s k",
      "[ ![](",
      "qu ote",
      "2 C",
      "et y",
      "L e",
      "3 4",
      "pr ivacy",
      "hu ff",
      "V i",
      "U U",
      "P S",
      "l l",
      "A 2",
      "he alth",
      "trans l",
      "E D",
      "6 5",
      "F or",
      "AAAAAA AP",
      "AA 7",
      "a a",
      "Q z",
      "at ch",
      "ac ebook",
      "y H5BAEAAAAALAAAAAABAAEAAAI",
      "BR AA7",
      "R0lGODlhAQABAI AAAAAAAP",
      "yH5BAEAAAAALAAAAAABAAEAAAI BRAA7",
      "google blog",
      "N i",
      "T V",
      "fil es",
      "ib ut",
      "is su",
      "C o",
      "at or",
      "P age",
      "a ut",
      "s m",
      "wid get",
      "n R",
      "C r",
      "in k",
      "j o",
      "O N",
      "O r",
      "k Y",
      "pa ign",
      "D 5",
      "s oc",
      "B o",
      "in cl",
      "princ ipal",
      "at s",
      "U t",
      "vide o",
      "4 8",
      "l ist",
      "h y",
      "IC Ag",
      ". ](",
      "w ill",
      "of _",
      "ound ation",
      "en se",
      "ro p",
      "j ect",
      "z z",
      "s a",
      "m iss",
      "workspace updates",
      "E ng",
      "sr c",
      "in st",
      "c 3",
      "b a",
      "D r",
      "lab el",
      "gr am",
      "wid th",
      "st ud",
      "C ategory",
      "T M",
      "k w",
      "f ut",
      "E sp",
      "n er",
      "ag r",
      "transl ated",
      "h ave",
      "au th",
      "\\\\] \")\\",
      "_ m",
      "n G",
      "log y",
      "_ of_",
      "ment s",
      "i ed",
      "l s",
      "cam paign",
      "id ent",
      "wiki source",
      "= \"",
      "tim e",
      "b ack",
      "N m",
      "J o",
      "U T",
      "P h",
      "6 0",
      "il d",
      "N ew",
      "own load",
      "N C",
      "w r",
      "issu es",
      ".. /",
      "wh en",
      "8 b",
      "ch ang",
      "F C",
      "h as",
      "00 0",
      "E C",
      "6 3",
      "pub lish",
      "our ces",
      "if y",
      "A O",
      "P H",
      "po tter",
      "ur ity",
      "A M",
      "c ar",
      "5 3",
      "en er",
      "um ent",
      "In ter",
      "f ile",
      "D C",
      "6 7",
      "m i",
      "ik e",
      "T er",
      "n W",
      "A N",
      "em ail",
      "sh op",
      "x15 vl",
      "h arry",
      "b b",
      "1e qd",
      "s cr",
      "O n",
      "1eqd 1eqd",
      "A m",
      "h is",
      "k a",
      "le g",
      "res iz",
      "C ol",
      "M u",
      "A c",
      "O C",
      "B e",
      "s s",
      "m d",
      "p ages",
      "f d",
      "upload s",
      "c al",
      "wor ld",
      "on om",
      "at er",
      "huff post",
      "Al l",
      "UW f",
      "mar ket",
      "person al",
      "n i",
      "ol low",
      "g l",
      "E 5",
      "Pr ivacy",
      "k e",
      "harry potter",
      "7 3",
      "pol icy",
      "S e",
      "x 3",
      "M an",
      "empl ate",
      "Pol icy",
      "sh ar",
      "re ad",
      "I G",
      "le ar",
      ": \")",
      "ICAg ICAg",
      "utm_ source",
      "all y",
      "I i",
      "x15vl UWf",
      "crip t",
      "M e",
      "AE B",
      "ar c",
      "igh ts",
      "i ent",
      "f oo",
      "wor d",
      "ation al",
      "cou n",
      "ar i",
      "L a",
      "B l",
      "im e",
      "sl ides",
      "d on",
      "j e",
      "ec k",
      "ction s",
      "co de",
      "N U",
      "T y",
      "mar ca",
      "I g",
      "S S",
      "w x",
      "ent ral",
      "= =",
      "Th is",
      "c y",
      "0 b",
      "Wor k",
      "af ter",
      "es p",
      "ac count",
      "J y",
      "col le",
      "k y",
      "** [",
      "O d",
      "A n",
      "a x",
      "= %",
      "b est",
      "L og",
      "ur l",
      "F e",
      "tion s",
      "4 9",
      "fe ed",
      "ob ile",
      "n to",
      "_ S",
      "c ustom",
      "ac cess",
      "I d",
      "A T",
      "A z",
      "A x",
      "f ul",
      "c nn",
      "ig ital",
      "F F",
      "s ites",
      "9 D",
      "utm_ medium",
      "N G",
      "t w",
      "c 5",
      "g in",
      "l ed",
      "J u",
      "am a",
      "_ c",
      "n O",
      "pro v",
      "n u",
      "pr om",
      "ind ow",
      "fa ult",
      "c 4",
      "is ter",
      "g y",
      "= /",
      "f i",
      "linked in",
      "w 3",
      "is tr",
      "J D",
      "it ies",
      "d omain",
      "c k",
      "M edia",
      "1 s",
      "cloud front",
      "t on",
      "ay s",
      "3 9",
      "d d",
      "ur a",
      "/ #",
      "re qu",
      "B q",
      "ex per",
      "re m",
      "k r",
      "H a",
      "at a",
      "4 b",
      "es ts",
      "p f",
      "[ #",
      "E U",
      "R w",
      "im ag",
      "le y",
      "AAAAAAAAAAAAAAAAAAAAAAAAAAAAAAAAAAAAAAAAAAAAAAAAAAAAAAAAAAAAAAAAAAAAAAAAAAAAAAAAAAAAAAAAAAAAAAAAAAAAAAAAAAAAAAAAAAAAAAAAAAAAAAAA AAAAAAAAAAAAAAAAAAAAAAAAAAAAAAAAAAAAAAAAAAAAAAAAAAAAAAAAAAAAAAAAAAAAAAAAAAAAAAAAAAAAAAAAAAAAAAAAAAAAAAAAAAAAAAAAAAAAAAAAAAAAAAAA",
      "d ia",
      "g er",
      "ow er",
      "sp ec",
      "3 C",
      "I u",
      "g g",
      "7 4",
      "t ag",
      "ook ie",
      "et a",
      "P L",
      "the ir",
      "cd n",
      "c re",
      "us s",
      "A G",
      "I I",
      "6 2",
      "t witter",
      "h i",
      "m u",
      "A Y",
      "D 3",
      "Ev t",
      "m icrosoft",
      "b ol",
      "H elp",
      "ac ade",
      "st Evt",
      "utm_ campaign",
      "in fo",
      "org an",
      "U u",
      "un d",
      "un der",
      "a e",
      "I s",
      "C R",
      "is a",
      "o _",
      "B s",
      "ent er",
      "at ure",
      "r f",
      "S 1",
      "K K",
      "A t",
      "id ad",
      ") ,",
      "5 4",
      "Y u",
      "n am",
      "T o",
      "atur es",
      "F l",
      "el y",
      "ro id",
      "ob j",
      "3 1",
      "z d",
      "8 f",
      "I f",
      "9 E",
      "P ag",
      "g E",
      "ter ms",
      "y ear",
      "um p",
      "am s",
      "A y",
      "R o",
      "_ p",
      "v 2",
      "C 5",
      "L E",
      "I P",
      "news room",
      "re f",
      "the m",
      "pl esk",
      "on line",
      "ri ere",
      "acade m",
      "7 0",
      "v al",
      "incl ud",
      "G e",
      "r is",
      ") .",
      "ver t",
      "Ter ms",
      "D E",
      "az on",
      "vic e",
      "G l",
      "ph o",
      "res earch",
      "A nd",
      "n V",
      "op en",
      "n w",
      "p ut",
      "c 2",
      "n In",
      "5 9",
      "on ic",
      "s y",
      "s ch",
      "h r",
      "pl ic",
      "k u",
      "3 d",
      "il y",
      "5 2",
      "c 1",
      "p ing",
      "g I",
      "ub e",
      "artic les",
      "st or",
      "b d",
      "_ l",
      "9 A",
      "c 6",
      "ion es",
      "s oftware",
      "R E",
      "M o",
      "9 C",
      "ou ld",
      "20 22",
      "p b",
      "empl ates",
      "m em",
      "amer ica",
      "r or",
      "F 0",
      "ev er",
      "c i",
      "c are",
      "h are",
      "al es",
      "produc t",
      "ec onom",
      "tr ibut",
      "C C",
      "ec ts",
      "un g",
      "a J",
      "P g",
      "pl ace",
      "ar s",
      "_ r",
      "le t",
      "u a",
      "C 9",
      "c s",
      "7 2",
      "C F",
      "_ 0",
      "lat est",
      "17 13",
      "E A",
      "cor riere",
      "b f",
      "n av",
      "doc s",
      "T emplate",
      "ut ions",
      "S T",
      "Eng lish",
      "indow s",
      "3 8",
      "tr a",
      "\") ,",
      "z h",
      "qu al",
      "mun do",
      "b as",
      "n __",
      "ou gh",
      "B y",
      "R R",
      "n v",
      "ap ps",
      "ic es",
      "P D",
      "4 y",
      "op le",
      "ch as",
      "E s",
      "c er",
      "ar io",
      "c 0",
      "g b",
      "N o",
      "n the",
      "E m",
      "ext ens",
      "it ed",
      "re fer",
      "H ow",
      "L L",
      "re tur",
      "ex press",
      "A U",
      "w 0",
      "C T",
      "in o",
      "R ec",
      "h p",
      "h ub",
      "20 20",
      "_ f",
      "un a",
      "ib le",
      "4 x",
      "de fault",
      "3 E",
      "T W",
      "pol it",
      "L o",
      "M x",
      "Ab out",
      "5 1",
      "W eb",
      "ear n",
      "vis ion",
      "f t",
      "iz ation",
      "Po tter",
      "_ 1",
      "L S",
      "7 8",
      "f ir",
      "S up",
      "I z",
      "to ol",
      "publish ing",
      "glo bo",
      "w y",
      "s ur",
      "D ev",
      "t b",
      "Z W",
      "c reat",
      "e 9",
      "j ob",
      "z y",
      "en es",
      "con s",
      "Y X",
      "bug s",
      "p i",
      "at ive",
      "N F",
      "er a",
      "ex ico",
      "us ing",
      "age ment",
      "5 d",
      "ed uc",
      "7 1",
      "r t",
      "TH E",
      "H ome",
      "4 14",
      "T e",
      "re am",
      "n The",
      "st art",
      "I j",
      "u x",
      "7 9",
      "_ C",
      "g a",
      "yr ight",
      "g s",
      "t or",
      "c 9",
      "n j",
      "wh o",
      "( )",
      "ain ing",
      "yst ar",
      "br and",
      "V R",
      "re en",
      "web site",
      "av el",
      "res p",
      "u v",
      "U se",
      "slides hare",
      "resiz er",
      "4 z",
      "on d",
      "I H",
      "6 9",
      "dail ystar",
      "B usiness",
      "F R",
      "4 d",
      "f s",
      "b le",
      "2 x",
      "k o",
      "P e",
      "ho st",
      "00 00",
      "no logy",
      "E t",
      "Wiki data",
      "am p",
      "ul ar",
      "m as",
      "I L",
      "ne y",
      "S o",
      "v ent",
      "x ml",
      "el s",
      "U K",
      "P M",
      "S ec",
      "com munity",
      "in ews",
      "H o",
      "Y W",
      "M a",
      "E Q",
      "l as",
      "Com mons",
      "20 21",
      "n and",
      "G o",
      "v a",
      "\\\\ -",
      "8 d",
      "H l",
      "E B",
      "iv es",
      "b re",
      "est yle",
      "wh ich",
      "oo l",
      "D D",
      "v 1",
      "arc publishing",
      "6 1",
      "O V",
      "ad or",
      "P T",
      "U r",
      "en to",
      "f oundation",
      "N N",
      "wiki quote",
      "S u",
      "D A",
      "C L",
      "n J",
      "s w",
      "z a",
      "S l",
      "0 d",
      "U V",
      "doc ument",
      "b ar",
      "h ol",
      "academ ia",
      "t u",
      "2 d",
      "S y",
      "ou p",
      "m it",
      "G B",
      "S k",
      "the y",
      "v en",
      "Q R",
      "f ollow",
      "vic es",
      "iz e",
      "S w",
      "dail y",
      "Y our",
      "yst em",
      "E dit",
      "A pr",
      "f 1",
      "A cc",
      "B M",
      "l ang",
      "ist ory",
      "g 1",
      "8 a",
      "I r",
      "n K",
      "gu ide",
      "[![]( //",
      "F il",
      "wiki books",
      "b 3",
      "ust r",
      "q q",
      "wh at",
      "X X",
      "Z G",
      "not ic",
      "I w",
      "O W",
      "ne u",
      ") ![",
      "f 7",
      "chas ki",
      "/ )[",
      "s os",
      "de t",
      "O G",
      "_ H",
      "S D",
      "N kY",
      "s oft",
      "D es",
      "z o",
      "ain ment",
      "E 6",
      "sec urity",
      "de m",
      "M s",
      "_ and",
      "b i",
      "top ics",
      "st and",
      "imag enes",
      "J J",
      "B log",
      "T T",
      "E y",
      "ty pe",
      "cl ass",
      "d ing",
      "is ts",
      "E d",
      "p u",
      "n content",
      "w a",
      "3 F",
      "lif e",
      "i i",
      "s on",
      "K G",
      "b ut",
      "at her",
      "v ir",
      "res ources",
      "mar k",
      "n fl",
      "c z",
      "fe atures",
      "P er",
      "E st",
      "at ing",
      "nc entral",
      "--- |",
      "e z",
      "gr ap",
      "j u",
      "n asa",
      "le ct",
      "C ategor",
      "P G",
      "m ov",
      "D 2",
      "V E",
      "pr isa",
      "el mundo",
      "l ing",
      "5 8",
      "_ M",
      "I x",
      "om as",
      "n 1",
      "m g",
      "f acebook",
      "ed ic",
      "n k",
      "servic e",
      "th r",
      "D o",
      "V B",
      "d en",
      "ad os",
      "vo y",
      "n ational",
      "le ase",
      "Ar t",
      "agr am",
      "n ac",
      "S ign",
      "c m",
      "U h",
      "ar k",
      "st ore",
      "L ic",
      "O M",
      "f ig",
      "p g",
      "6 8",
      "men u",
      "n on",
      "ev ent",
      "bo x",
      "a 1",
      "form at",
      "enc y"
    ]
  }
}